<pad>	0
</s>	0
<unk>	0
<s>	0
는	0
의	0
을	0
다	0
에	0
이	0
하	0
를	0
은	0
고	0
가	0
으로	0
한	0
에서	0
로	0
▁수	0
되	0
과	0
들	0
도	0
▁것	0
와	0
적	0
▁이	0
▁상기	0
▁및	0
기	0
할	0
▁등	0
어	0
일	0
인	0
게	0
여	0
▁제	0
지	0
며	0
▁하	0
년	0
해	0
면	0
었	0
만	0
▁본	0
▁그	0
성	0
▁발명	0
▁또는	0
습니다	0
▁포함	0
▁사용	0
▁도	0
월	0
▁실시	0
▁한	0
▁중	0
부	0
원	0
▁말	0
까지	0
자	0
▁대한	0
▁경우	0
도록	0
화	0
예	0
면서	0
에게	0
던	0
지만	0
▁통해	0
다고	0
▁형성	0
아	0
았	0
였	0
▁전	0
개	0
라고	0
시	0
▁이상	0
▁위해	0
▁위한	0
▁기자	0
▁되	0
명	0
다는	0
▁또한	0
▁내	0
▁들	0
겠	0
▁구성	0
▁때	0
억	0
▁설명	0
▁다른	0
▁따라	0
부터	0
▁정보	0
▁가능	0
▁일	0
▁의해	0
▁제공	0
층	0
▁후	0
▁더	0
▁예	0
▁하나	0
▁보	0
▁장치	0
▁한국	0
▁지난	0
▁이용	0
정보	0
권	0
주	0
▁함께	0
보다	0
▁또	0
▁방법	0
라는	0
대	0
나	0
▁아니	0
라	0
▁때문	0
형	0
▁데이터	0
▁위치	0
어서	0
▁관련	0
▁두	0
▁도시	0
는데	0
▁같이	0
▁서울	0
▁대해	0
▁바람직	0
▁바	0
으며	0
▁미국	0
▁발생	0
제	0
▁재	0
▁단계	0
함	0
▁약	0
용	0
▁대통령	0
거나	0
▁할	0
▁내지	0
▁이번	0
▁이날	0
▁각각	0
▁대표	0
▁진행	0
위	0
▁사람	0
차	0
▁신호	0
분	0
▁이후	0
▁상태	0
▁무단	0
▁기록	0
▁안	0
▁필요	0
▁제조	0
▁기술	0
▁연결	0
▁특히	0
▁결과	0
▁정부	0
▁금지	0
▁시간	0
▁다양	0
로서	0
배포	0
▁선택	0
시간	0
씨	0
▁시스템	0
▁한편	0
이나	0
▁주	0
▁사이	0
▁비	0
▁지역	0
▁결정	0
▁현재	0
▁다음	0
서	0
▁문제	0
▁우리	0
▁중국	0
▁처리	0
▁제어	0
▁부분	0
▁오	0
▁시작	0
▁방향	0
▁영역	0
상	0
▁설치	0
▁가장	0
으로써	0
▁예정	0
▁방송	0
▁지원	0
▁확인	0
▁증가	0
라며	0
▁모두	0
▁구조	0
▁상황	0
장치	0
는다	0
▁열	0
회	0
▁표시	0
간	0
▁각	0
▁일부	0
▁기판	0
▁그리고	0
▁서비스	0
▁최근	0
▁상	0
▁공급	0
▁시장	0
▁기업	0
▁추가	0
▁자신	0
▁동안	0
▁결합	0
▁공개	0
당	0
▁생각	0
▁올해	0
조	0
▁이러	0
▁사업	0
▁기준	0
▁가지	0
▁반응	0
▁내용	0
▁수행	0
▁뒤	0
▁일본	0
▁조사	0
▁이동	0
▁특징	0
▁경기	0
▁효과	0
▁점	0
계	0
▁형태	0
▁시	0
▁의원	0
▁입력	0
▁알	0
▁국내	0
▁해당	0
▁내부	0
사	0
▁계획	0
▁영상	0
▁유지	0
▁국민	0
▁모습	0
▁저장	0
▁출력	0
▁정도	0
▁이하	0
▁따라서	0
이라고	0
▁대상	0
▁기능	0
째	0
▁경제	0
▁도면	0
▁다	0
▁과정	0
▁세계	0
▁가	0
▁해	0
▁동일	0
▁원	0
팀	0
▁오후	0
▁전극	0
▁다시	0
▁대	0
▁분석	0
▁적용	0
또는	0
▁운영	0
▁김	0
▁전체	0
▁대응	0
▁참조	0
▁보이	0
▁여기	0
▁그러나	0
경제	0
▁위	0
▁적어도	0
번	0
률	0
▁모든	0
▁평가	0
▁총	0
▁구비	0
▁첫	0
▁프로그램	0
▁나	0
항	0
▁배치	0
▁북한	0
▁사실	0
▁환자	0
▁측정	0
으로서	0
수	0
▁불	0
▁잘	0
▁수신	0
호	0
▁사진	0
▁전송	0
▁데	0
▁금융	0
▁구체	0
▁후보	0
▁물	0
▁표면	0
▁국가	0
▁전재	0
▁판단	0
▁일반	0
▁가운데	0
▁발표	0
점	0
▁측	0
상기	0
▁공정	0
▁생성	0
내	0
▁하지만	0
중	0
▁투자	0
▁전자	0
▁만	0
▁간	0
▁범위	0
▁복수	0
▁번	0
▁직접	0
▁저	0
▁제품	0
▁온도	0
▁상승	0
측	0
별	0
▁방식	0
▁감소	0
▁앞	0
시장	0
▁차량	0
▁확대	0
▁설정	0
▁마련	0
▁낮	0
▁사건	0
▁동작	0
▁관리	0
▁개	0
▁외부	0
▁통신	0
▁참여	0
음	0
▁보다	0
▁당시	0
▁개발	0
위원회	0
▁회전	0
▁사회	0
▁선수	0
▁지금	0
▁즉	0
▁경찰	0
▁분	0
▁구동	0
▁의미	0
▁변화	0
▁관한	0
도면	0
▁고정	0
▁신	0
▁기대	0
▁주장	0
율	0
▁전망	0
전	0
▁전기	0
▁감독	0
▁영화	0
▁수지	0
보	0
▁이어	0
▁요구	0
▁최고	0
▁성장	0
▁추진	0
▁맞	0
▁활동	0
▁특정	0
▁전달	0
메틸	0
기자	0
▁예상	0
처럼	0
▁최대	0
▁수준	0
기업	0
▁개선	0
▁적	0
▁더욱	0
▁이유	0
▁양	0
▁목적	0
▁대비	0
는지	0
해서	0
▁이런	0
▁중심	0
으면	0
▁서로	0
▁앞서	0
▁금속	0
▁어느	0
▁많이	0
▁이미지	0
▁오전	0
▁지지	0
▁씨	0
▁활성	0
▁해결	0
▁게	0
사업	0
▁속	0
▁고객	0
▁상대	0
▁강화	0
▁영향	0
▁검찰	0
▁투여	0
▁의	0
▁강조	0
재	0
천	0
막	0
▁처음	0
세	0
▁분야	0
▁혐의	0
▁길	0
▁정책	0
▁기간	0
▁배우	0
▁일정	0
▁비교	0
치	0
▁규모	0
▁지	0
▁모듈	0
▁정상	0
개월	0
▁주요	0
▁관심	0
▁연구	0
▁교육	0
▁기재	0
센터	0
▁패턴	0
▁상부	0
▁값	0
▁서버	0
▁준비	0
가능	0
▁전압	0
▁디스플레이	0
▁계속	0
▁없	0
▁지속	0
▁제거	0
▁기존	0
▁중요	0
▁존재	0
▁전국	0
▁행사	0
▁국회	0
▁평균	0
▁판매	0
▁출연	0
▁입장	0
진	0
▁여성	0
니	0
▁곳	0
방향	0
▁여러	0
▁볼	0
값	0
▁동시	0
데	0
▁광	0
▁치료	0
▁새	0
어부	0
▁그룹	0
▁생산	0
▁물질	0
▁세포	0
▁에	0
기관	0
▁요청	0
▁세	0
▁활용	0
▁접속	0
▁회로	0
▁자리	0
▁남	0
▁공간	0
▁보도	0
▁뉴스	0
▁개인	0
▁방지	0
▁가스	0
신호	0
▁지적	0
▁역시	0
전재	0
▁센서	0
법	0
▁달	0
단계	0
▁부재	0
▁산업	0
▁공동	0
▁메모리	0
▁채널	0
▁안정	0
▁회장	0
▁제작	0
▁역할	0
▁수사	0
장	0
▁제한	0
청구	0
▁입	0
선	0
므로	0
▁장관	0
방법	0
▁블록	0
▁대하	0
▁분리	0
▁오늘	0
▁뿐	0
▁막	0
▁검출	0
▁환경	0
기술	0
▁국제	0
▁여부	0
▁함유	0
▁중량	0
▁작	0
▁눈	0
▁거래	0
부재	0
▁이야기	0
▁물론	0
란	0
▁현장	0
▁소자	0
안	0
▁무선	0
▁관계	0
▁변경	0
▁비롯	0
▁문	0
▁성분	0
실	0
▁특성	0
엔	0
루	0
▁박	0
▁유기	0
▁필름	0
▁명	0
▁고려	0
▁측면	0
건	0
▁디바이스	0
비	0
▁안전	0
▁과제	0
▁인	0
▁어떤	0
▁위하	0
▁연속	0
등	0
▁보여	0
▁선정	0
▁해외	0
어야	0
▁프레임	0
▁타	0
▁집	0
▁재료	0
▁정치	0
도시	0
▁형상	0
다가	0
▁노력	0
▁가격	0
▁보호	0
디	0
지역	0
▁높이	0
▁디	0
▁공기	0
▁만큼	0
▁성공	0
▁시즌	0
야	0
▁사랑	0
▁발광	0
▁메시지	0
▁고	0
▁교수	0
▁자유	0
▁상품	0
▁크기	0
▁수단	0
▁게이트	0
▁줄	0
▁기초	0
▁한정	0
▁층	0
▁회사	0
▁적극	0
고자	0
▁저작	0
▁부산	0
▁하부	0
▁촬영	0
▁도전	0
▁작업	0
▁개최	0
▁전력	0
▁유닛	0
▁아이	0
▁향상	0
분기	0
▁미	0
▁조건	0
▁확보	0
▁우려	0
▁참석	0
▁조절	0
▁기반	0
▁마음	0
▁최	0
▁학생	0
▁방문	0
으나	0
▁속도	0
▁차	0
▁도입	0
▁소정	0
▁문화	0
그룹	0
▁그러	0
▁잡	0
▁두께	0
▁먼저	0
물	0
▁날	0
▁조정	0
▁네트워크	0
▁접촉	0
▁끝	0
뉴스	0
산	0
▁팀	0
▁대회	0
▁종래	0
▁하락	0
▁다수	0
▁게임	0
▁이미	0
▁임의	0
▁우수	0
▁살	0
▁전문	0
▁셀	0
▁사고	0
▁라인	0
▁사	0
님	0
▁공식	0
생	0
▁조	0
▁팬	0
▁통과	0
▁시민	0
달러	0
배	0
▁맡	0
▁유리	0
▁피해	0
▁정의	0
업체	0
▁구	0
▁최종	0
▁매우	0
▁인사	0
▁거	0
▁전원	0
▁소속	0
말	0
▁연장	0
▁논의	0
▁검사	0
▁특별	0
▁조성	0
▁서열	0
▁변형	0
달	0
▁건	0
▁첨가	0
▁이해	0
▁주변	0
▁만나	0
▁요소	0
관리	0
▁예시	0
▁통상	0
▁자체	0
▁가족	0
▁군	0
통신	0
▁작용	0
▁온라인	0
▁자	0
▁거리	0
▁단말	0
▁용액	0
오	0
조사	0
▁업무	0
산업	0
▁영업	0
▁건강	0
▁표현	0
▁차지	0
▁이름	0
▁내년	0
▁개시	0
▁모델	0
▁에너지	0
▁인식	0
▁체결	0
다면	0
▁지방	0
▁구현	0
▁반면	0
▁이전	0
▁온	0
▁목표	0
▁무	0
▁손	0
▁집중	0
▁발전	0
▁달성	0
수단	0
액	0
신	0
▁전환	0
투자	0
▁디지털	0
▁주민	0
▁제외	0
▁올	0
▁힘	0
체	0
▁외	0
▁작품	0
번호	0
▁부	0
▁언급	0
▁그런	0
▁혼합	0
죠	0
▁피	0
특허	0
▁인해	0
▁작동	0
▁지정	0
▁의견	0
▁인증	0
▁걸	0
▁조합	0
▁압력	0
▁각종	0
▁중앙	0
▁모드	0
▁결제	0
▁는	0
▁단위	0
▁마지막	0
형태	0
리그	0
군	0
▁컴퓨터	0
▁출시	0
▁인정	0
▁바로	0
▁인터넷	0
▁초	0
▁제시	0
은행	0
금융	0
판	0
▁감지	0
▁입자	0
한다	0
▁법	0
▁드라마	0
▁미래	0
▁건조	0
시설	0
씩	0
▁장	0
▁조직	0
▁반대	0
▁위험	0
▁폭	0
▁삼성	0
▁기	0
▁연기	0
▁홈	0
▁실행	0
▁이루	0
▁청구	0
▁채	0
▁생활	0
▁수익	0
▁광고	0
▁표	0
▁단	0
▁예컨대	0
대표	0
마다	0
▁수출	0
사회	0
▁장착	0
▁달리	0
▁은	0
▁패널	0
▁협력	0
▁기관	0
▁분위기	0
▁배	0
온	0
정부	0
▁브랜드	0
▁최초	0
▁여자	0
▁대신	0
▁결국	0
처리	0
▁아직	0
으므로	0
▁자기	0
▁가열	0
인지	0
▁당	0
▁매출	0
▁다만	0
▁담	0
▁합의	0
▁등록	0
▁학교	0
▁변환	0
▁치환	0
▁통하	0
편집	0
▁삽입	0
▁이렇게	0
▁글	0
▁업체	0
▁액정	0
려는	0
▁발견	0
▁먹	0
▁직원	0
▁무대	0
뿐	0
▁카메라	0
▁항	0
미	0
▁늘	0
▁부착	0
▁신청	0
▁전류	0
▁우선	0
▁시험	0
▁못	0
▁농도	0
▁뜻	0
▁효율	0
▁반영	0
▁반	0
▁공	0
▁카드	0
▁실제	0
▁역사	0
▁기본	0
▁방안	0
한국	0
▁조치	0
▁기회	0
▁트랜지스터	0
▁가치	0
경기	0
▁제기	0
▁선	0
▁논란	0
량	0
개발	0
▁의혹	0
▁현대	0
▁유사	0
관	0
톡	0
▁계약	0
▁코팅	0
▁대학	0
▁차이	0
▁시행	0
시스템	0
홀	0
대회	0
▁너무	0
▁과거	0
▁통합	0
▁부담	0
▁남자	0
▁비율	0
▁배출	0
초	0
▁이벤트	0
▁비해	0
▁최소	0
▁상세	0
질	0
지원	0
▁구축	0
▁이것	0
구	0
▁보유	0
티	0
곳	0
▁아래	0
▁규정	0
▁특허	0
본	0
▁우승	0
▁프로	0
정책	0
길	0
▁자동	0
▁공연	0
▁콘텐츠	0
▁송신	0
▁통한	0
▁확산	0
▁실적	0
더라도	0
▁진출	0
▁필터	0
▁항체	0
▁흐름	0
단	0
닐	0
▁아시아	0
▁식	0
▁전략	0
▁지급	0
▁추출	0
▁터치	0
▁비용	0
▁멤버	0
타	0
▁수소	0
▁허용	0
돈	0
어요	0
공개	0
▁화면	0
▁주목	0
▁상호	0
▁도움	0
▁아	0
▁돈	0
▁인상	0
관계	0
서비스	0
교육	0
학교	0
▁승리	0
▁인기	0
회의	0
증권	0
▁면	0
문화	0
라인	0
▁정	0
▁인천	0
▁음악	0
▁가수	0
▁핵심	0
회담	0
▁절차	0
▁화상	0
▁초기	0
▁비판	0
▁어렵	0
▁운동	0
종	0
및	0
▁원자	0
▁조작	0
구조	0
우리	0
▁인가	0
▁매체	0
▁탄소	0
▁경험	0
▁서브	0
▁시트	0
▁검토	0
임	0
▁역	0
▁인간	0
▁소재	0
링	0
▁전화	0
▁유럽	0
▁전년	0
홈	0
▁산	0
▁영국	0
▁중단	0
▁미만	0
▁적절	0
▁사전	0
▁노출	0
급	0
▁경쟁	0
▁화제	0
▁아파트	0
▁밖	0
▁제도	0
▁구매	0
상태	0
▁유입	0
나라	0
위원	0
▁하루	0
물질	0
▁합성	0
승	0
▁감사	0
요소	0
▁의사	0
▁충전	0
포인트	0
▁별도	0
▁투입	0
▁본격	0
본부	0
▁출신	0
▁현지	0
▁선거	0
▁신규	0
▁독립	0
그	0
▁화학	0
▁수용	0
실시	0
▁적합	0
▁얘기	0
▁쓰	0
▁인터페이스	0
▁추정	0
▁몸	0
▁유도	0
▁미리	0
▁밸브	0
▁실리콘	0
▁그것	0
▁냉각	0
이익	0
▁획득	0
▁끌	0
식	0
▁확정	0
▁주가	0
▁공격	0
▁주택	0
더	0
▁규제	0
라면	0
▁소개	0
▁그런데	0
▁용기	0
▁반복	0
▁제안	0
▁투명	0
▁나라	0
▁음성	0
▁수직	0
스타	0
▁이제	0
▁삼	0
▁책임	0
▁세상	0
테	0
▁경영	0
냐	0
과정	0
▁현상	0
이상	0
▁건설	0
▁방침	0
▁주식	0
▁기사	0
드	0
▁화소	0
▁가이드	0
▁키	0
▁사장	0
▁소식	0
것	0
▁러시아	0
전극	0
▁초과	0
▁피부	0
▁대화	0
▁순	0
▁대구	0
▁종합	0
이하	0
기간	0
▁자료	0
▁공유	0
▁총리	0
활동	0
▁남북	0
▁밤	0
▁정확	0
영역	0
▁산화	0
▁혁신	0
▁성	0
▁본체	0
▁억제	0
반응	0
▁예측	0
▁사상	0
▁열리	0
▁자연	0
▁선발	0
위원장	0
▁계산	0
▁용어	0
▁좀	0
▁시대	0
가지	0
▁길이	0
▁종목	0
▁공공	0
▁를	0
▁구속	0
▁달러	0
▁설립	0
▁등장	0
단체	0
▁실질	0
네	0
▁용량	0
▁함	0
▁은행	0
▁용이	0
▁병원	0
주택	0
▁질문	0
▁부족	0
▁배터리	0
▁네	0
▁참가	0
대로	0
▁모터	0
▁한다	0
▁제출	0
중량	0
약	0
▁광학	0
▁분자	0
▁향후	0
▁하우징	0
▁홈페이지	0
▁결혼	0
▁예산	0
▁축	0
현지	0
▁레벨	0
데이터	0
▁전면	0
▁을	0
파	0
피	0
▁언론	0
▁원인	0
▁장애	0
▁완료	0
▁경로	0
▁아울러	0
▁파악	0
▁응답	0
▁코드	0
협회	0
▁스타	0
▁시기	0
▁행정	0
터	0
▁강	0
▁대형	0
▁혹은	0
▁거의	0
▁적층	0
▁통화	0
▁플레이트	0
지수	0
▁베이스	0
▁유	0
이번	0
▁커버	0
▁반사	0
▁설계	0
금지	0
▁신고	0
▁전술	0
▁현실	0
▁프로세서	0
▁이외	0
▁중간	0
▁상술	0
▁시점	0
▁소스	0
▁휴대	0
▁교반	0
▁차단	0
▁광주	0
▁회의	0
▁건물	0
▁고용	0
▁협상	0
▁부문	0
▁상이	0
▁눈길	0
류	0
▁단일	0
▁지시	0
▁사례	0
▁용매	0
▁기억	0
평가	0
께	0
▁마찬가지	0
▁성과	0
▁마스크	0
저작	0
라도	0
▁개방	0
어도	0
▁발언	0
▁웨이퍼	0
▁삶	0
▁예방	0
▁상당	0
▁부품	0
▁업계	0
▁듯	0
다며	0
▁백	0
▁차례	0
▁절	0
▁렌즈	0
▁전반	0
▁남성	0
▁발	0
▁조금	0
▁생	0
아야	0
▁청년	0
▁채용	0
▁첨부	0
▁능력	0
▁독일	0
▁서	0
▁스위치	0
▁매력	0
▁촉매	0
▁나노	0
▁위반	0
▁이온	0
▁그래서	0
▁가상	0
▁단지	0
패	0
▁해석	0
▁가공	0
▁작성	0
▁출전	0
▁간단	0
▁종료	0
축	0
▁조립	0
같이	0
회사	0
▁얼굴	0
세계	0
▁일단	0
▁인터뷰	0
▁주제	0
병원	0
▁의료	0
▁시각	0
▁마이크	0
▁식별	0
▁기기	0
▁웹	0
▁누구	0
사항	0
▁오른	0
▁쪽	0
규모	0
▁동기	0
전자	0
▁수요	0
▁섬유	0
▁무엇	0
▁편	0
▁연계	0
▁조선	0
▁기획	0
▁증상	0
▁이송	0
▁엔진	0
▁몇	0
▁종류	0
▁액체	0
▁풀	0
▁대책	0
▁친구	0
▁데뷔	0
▁디자인	0
▁시청	0
▁아들	0
▁시설	0
▁지식	0
▁복합	0
▁주로	0
▁수상	0
후	0
▁인근	0
▁검색	0
▁자세	0
▁기계	0
▁번호	0
환경	0
아미노	0
기판	0
▁파일	0
▁유동	0
▁금리	0
▁간격	0
▁진단	0
▁할인	0
▁자금	0
운동	0
▁비트	0
▁발현	0
▁기타	0
가구	0
밖에	0
▁노래	0
▁국정	0
▁단부	0
▁명령	0
해도	0
▁실험	0
▁평화	0
오로	0
▁원고	0
▁장기	0
▁리	0
가스	0
▁제주	0
▁분양	0
▁보조	0
▁행위	0
공사	0
▁가정	0
▁대출	0
▁마무리	0
▁위기	0
▁딸	0
▁인쇄	0
▁인접	0
▁노드	0
▁저항	0
▁강도	0
▁단독	0
▁회복	0
▁재생	0
▁신뢰	0
▁시도	0
▁대선	0
▁절연	0
▁불법	0
▁미디어	0
에틸	0
려고	0
공간	0
폼	0
▁재판	0
▁올림픽	0
▁단자	0
▁사망	0
▁선고	0
▁프랑스	0
방송	0
▁구간	0
장애	0
▁레이저	0
지방	0
▁부여	0
올림픽	0
▁유체	0
▁바탕	0
▁협의	0
감	0
▁부호	0
범위	0
▁인수	0
▁가질	0
▁분산	0
모듈	0
▁본원	0
계획	0
▁모	0
▁캐릭터	0
▁불과	0
▁홍보	0
▁앨범	0
▁도로	0
▁수입	0
▁선물	0
▁개별	0
▁체험	0
▁나머지	0
▁소	0
▁도포	0
쯤	0
▁세트	0
▁민간	0
결과	0
집	0
▁정말	0
▁샘플	0
▁확장	0
▁비중	0
▁지수	0
▁포인트	0
보험	0
▁여행	0
살	0
분야	0
효과	0
▁유통	0
▁회원	0
▁약물	0
▁저하	0
▁바닥	0
결합	0
▁움직임	0
카드	0
▁관찰	0
메	0
세요	0
▁성형	0
▁버스	0
▁자원	0
▁흡수	0
▁무역	0
▁로	0
만큼	0
마	0
▁빛	0
▁박막	0
하나	0
▁설	0
▁가입	0
조정	0
▁모르	0
▁성능	0
▁안내	0
▁질환	0
▁칩	0
▁배열	0
기능	0
사용	0
▁정신	0
▁정제	0
▁담당	0
▁암	0
열	0
▁병	0
든	0
바	0
▁대체	0
▁마을	0
▁법원	0
▁희망	0
▁부위	0
대상	0
▁대전	0
서버	0
▁링크	0
▁이달	0
▁방	0
▁인물	0
▁행동	0
기준	0
▁유명	0
▁인하	0
▁근거	0
▁작가	0
올	0
▁접근	0
▁메인	0
▁행복	0
▁케이스	0
▁조명	0
▁찍	0
느냐	0
▁대기	0
▁주입	0
▁훈련	0
▁분류	0
▁나서	0
장관	0
처	0
▁비슷	0
중앙	0
편	0
▁보장	0
자료	0
선수	0
▁지연	0
▁계기	0
제도	0
▁충분	0
▁연료	0
▁진공	0
복지	0
▁심사	0
족	0
▁수도	0
▁축구	0
정상	0
▁기여	0
▁고민	0
심	0
▁보수	0
▁투	0
▁창업	0
▁강한	0
▁방출	0
아서	0
▁산출	0
시대	0
▁교체	0
▁증착	0
▁경화	0
▁해서	0
▁압축	0
▁현	0
양태	0
회로	0
▁출발	0
미국	0
곡	0
▁주도	0
▁수득	0
▁안테나	0
차원	0
▁전용	0
▁전통	0
먼	0
▁소비	0
두	0
형성	0
론	0
▁수집	0
▁장비	0
▁단체	0
▁점검	0
프로	0
▁유효	0
▁사항	0
▁충격	0
▁공사	0
▁완성	0
공정	0
▁반드시	0
생활	0
▁프로젝트	0
▁컨텐츠	0
▁뉴욕	0
표시	0
▁차원	0
▁의지	0
▁수평	0
▁배선	0
▁판결	0
▁스스로	0
대비	0
기구	0
▁오히려	0
계약	0
소자	0
▁곡	0
▁시절	0
▁전지	0
▁둘	0
▁문자	0
▁동물	0
검사	0
▁분말	0
▁개략	0
▁상장	0
▁배경	0
로써	0
▁과	0
▁모양	0
▁공지	0
으면서	0
▁핵	0
▁예비	0
통합	0
위치	0
▁장면	0
▁왜	0
▁상위	0
▁관통	0
▁품질	0
▁가동	0
▁해소	0
▁강력	0
▁연	0
▁해도	0
▁장소	0
▁보안	0
▁본인	0
줄	0
박	0
▁패드	0
▁테스트	0
협력	0
▁비디오	0
▁에서	0
기기	0
▁말씀	0
현예	0
▁활약	0
골	0
▁완화	0
▁관객	0
▁사태	0
▁스포츠	0
센서	0
▁아버지	0
▁정당	0
▁작년	0
대학	0
▁책	0
▁보험	0
▁지분	0
▁각도	0
▁홀	0
▁보상	0
▁부상	0
▁용해	0
신문	0
▁판	0
▁지점	0
▁수술	0
사진	0
▁무기	0
포함	0
▁돌출	0
▁근무	0
▁분할	0
▁부정	0
▁국토	0
프레임	0
날	0
▁산소	0
▁불구	0
▁마치	0
러	0
▁와	0
연막	0
▁공중	0
▁인도	0
▁만족	0
▁표준	0
▁이내	0
▁질	0
▁플랫	0
영상	0
▁면적	0
▁전혀	0
▁점수	0
가격	0
▁부모	0
▁부인	0
이사	0
록	0
▁약속	0
▁바람	0
공원	0
▁울산	0
고요	0
강	0
▁프로세스	0
제품	0
▁추천	0
전압	0
▁주문	0
금리	0
▁소프트웨어	0
▁식품	0
거래	0
▁로봇	0
▁헤드	0
▁혜택	0
▁파장	0
▁마감	0
▁금액	0
폭	0
매수	0
▁불리	0
▁고체	0
▁참고	0
자금	0
▁탄성	0
저	0
▁순간	0
▁구분	0
▁교통	0
▁매장	0
▁업종	0
인가	0
▁전하	0
▁개정	0
을까	0
▁의도	0
▁외측	0
▁장점	0
▁판정	0
▁어	0
▁보관	0
▁미세	0
▁코일	0
▁여과	0
식품	0
▁실패	0
동안	0
▁어려움	0
조선	0
▁구멍	0
▁이슈	0
▁범죄	0
▁공장	0
▁연출	0
선거	0
▁수정	0
▁향해	0
▁실현	0
▁스크린	0
▁꿈	0
▁이익	0
▁운전	0
▁죽	0
안전	0
▁머리	0
▁취지	0
▁기소	0
▁소통	0
▁주행	0
▁특수	0
▁노즐	0
펀드	0
▁권	0
▁연관	0
▁법률	0
▁매년	0
▁준	0
▁타입	0
▁아침	0
▁오픈	0
아크릴	0
▁창출	0
백	0
▁팔	0
회견	0
▁중합	0
▁스타일	0
▁진입	0
▁고리	0
▁내측	0
▁갈등	0
▁정지	0
▁화재	0
▁직경	0
▁분포	0
▁테이블	0
▁소득	0
▁쌍	0
▁암호	0
▁컬러	0
▁음식	0
▁접수	0
▁빔	0
▁디스크	0
▁최선	0
▁탈	0
▁알리	0
앞	0
▁부진	0
주년	0
연구	0
▁예능	0
▁소리	0
법인	0
작용	0
▁개혁	0
▁권리	0
▁성적	0
▁교환	0
▁촉구	0
문헌	0
▁소송	0
공급	0
▁운용	0
▁생략	0
▁발행	0
▁심각	0
▁내리	0
▁선언	0
부분	0
▁골	0
▁치	0
▁복귀	0
치환	0
▁학습	0
▁유형	0
상품	0
▁극	0
▁함량	0
▁패키지	0
▁주의	0
▁검증	0
▁완전	0
요	0
여야	0
누리	0
단부	0
▁대안	0
▁민주	0
▁과학	0
▁원심	0
▁호텔	0
이온	0
▁광원	0
▁케이블	0
▁베트남	0
유닛	0
프로그램	0
세포	0
▁도어	0
▁기구	0
▁접착	0
▁관광	0
▁상면	0
▁취소	0
▁상하	0
▁남편	0
▁질소	0
▁의무	0
▁북미	0
▁순서	0
▁정권	0
▁제재	0
▁개봉	0
비율	0
▁바른	0
▁코	0
채널	0
▁감염	0
알	0
▁그렇게	0
▁탄	0
▁긍정	0
▁맛	0
▁창	0
공	0
▁공통	0
▁황	0
▁공감	0
▁진동	0
▁알루미늄	0
▁취득	0
▁전시	0
▁악화	0
▁여론	0
설	0
진다	0
▁코어	0
▁고유	0
▁재정	0
표	0
▁물리	0
▁집계	0
렌	0
▁펀드	0
▁승인	0
▁다소	0
라운드	0
▁공시	0
▁긴	0
▁개념	0
▁양측	0
▁전방	0
▁북	0
▁형	0
▁최저	0
▁분해	0
▁대중	0
▁증시	0
▁전쟁	0
게임	0
셀	0
▁증거	0
▁취업	0
▁걱정	0
대책	0
▁홍	0
▁역대	0
▁외교	0
▁나선	0
▁목차	0
▁모니터링	0
▁부부	0
상황	0
▁나이	0
▁어디	0
▁자산	0
▁윤	0
당국	0
▁손상	0
무	0
▁불편	0
반기	0
▁인력	0
▁실내	0
▁밝	0
▁어제	0
▁거부	0
▁실	0
▁일체	0
방지	0
▁사과	0
▁월드	0
▁수석	0
▁직후	0
유	0
▁답	0
▁원칙	0
▁펌프	0
▁벡터	0
▁원료	0
니까	0
▁행하	0
▁폐쇄	0
▁군사	0
국민	0
결정	0
▁경고	0
▁편의	0
▁무료	0
▁선박	0
자원	0
세대	0
합체	0
▁몰	0
▁차별	0
▁감정	0
실장	0
정치	0
▁주말	0
▁아내	0
▁센터	0
▁할당	0
▁기념	0
려	0
▁손실	0
국가	0
업계	0
▁사이트	0
결제	0
▁후반	0
▁세월	0
▁참	0
▁투표	0
▁그녀	0
▁최적	0
연금	0
▁난	0
지구	0
▁교류	0
▁마케팅	0
▁단순	0
▁전일	0
패널	0
▁노동	0
재단	0
▁엔	0
▁판독	0
▁위협	0
▁파	0
▁실린더	0
▁주기	0
▁버튼	0
자산	0
▁여야	0
방식	0
구성	0
▁셈	0
▁해제	0
반	0
▁부과	0
▁신경	0
▁분사	0
건설	0
발명	0
▁스프링	0
▁신용	0
부문	0
▁가압	0
▁당부	0
▁절단	0
▁종	0
는가	0
▁처벌	0
사고	0
▁축소	0
▁핀	0
시즌	0
자동차	0
▁문서	0
▁지도	0
▁파라미터	0
▁이행	0
▁독자	0
▁회수	0
▁위상	0
개국	0
▁탑재	0
▁임금	0
▁태양	0
▁임시	0
▁평면	0
▁양태	0
▁송	0
▁그린	0
준	0
미래	0
차례	0
▁발굴	0
▁상단	0
▁유로	0
행위	0
▁홍콩	0
▁염	0
▁유일	0
▁법안	0
▁정리	0
교예	0
글	0
라면서	0
▁단면	0
▁야당	0
▁제보	0
▁캐리어	0
▁인구	0
▁강제	0
성분	0
매체	0
문제	0
▁유출	0
▁육성	0
▁만약	0
▁생기	0
▁코스닥	0
속	0
시민	0
▁자극	0
▁오디오	0
비용	0
킹	0
키	0
▁복용	0
▁정규	0
▁의심	0
▁소유	0
▁연간	0
리	0
온도	0
▁바이러스	0
▁클라이언트	0
▁감안	0
중국	0
볼	0
의원	0
용량	0
▁가구	0
▁주사	0
제어	0
제보	0
예의	0
▁체계	0
▁액세스	0
▁자율	0
▁변동	0
▁접합	0
▁일치	0
▁형사	0
려면	0
▁강하	0
없	0
국제	0
▁검	0
▁매각	0
수지	0
▁양국	0
과학	0
▁메뉴	0
▁압박	0
▁느낌	0
▁국립	0
▁유발	0
▁시선	0
▁임명	0
▁꼭	0
▁갈	0
▁자랑	0
▁조기	0
성장	0
▁내일	0
국	0
▁경계	0
▁복지	0
소	0
동	0
▁로드	0
▁동	0
▁모집	0
▁픽셀	0
에너지	0
▁선임	0
▁요인	0
▁충돌	0
개혁	0
▁개설	0
▁파워	0
▁보정	0
▁롤러	0
▁관측	0
다른	0
핑	0
즉	0
▁좌우	0
▁가변	0
▁매일	0
▁면역	0
화학	0
▁회동	0
딘	0
시트	0
밸브	0
등록	0
▁순차	0
속도	0
▁임	0
▁당국	0
콕	0
▁대북	0
▁도착	0
블록	0
대출	0
▁원장	0
▁호흡	0
▁진술	0
▁어머니	0
▁연산	0
▁졸업	0
▁천	0
▁리드	0
▁식각	0
▁채권	0
사이트	0
▁대사	0
▁물품	0
코드	0
▁이중	0
▁일상	0
▁절반	0
때	0
세기	0
▁동의	0
▁뛰	0
력	0
안정	0
▁패	0
▁와이어	0
▁구역	0
▁항목	0
▁대략	0
▁구리	0
▁색	0
▁버퍼	0
▁응원	0
체계	0
보호	0
공항	0
▁실온	0
▁순환	0
▁기부	0
▁운행	0
▁드레	0
▁취하	0
▁튜브	0
▁소화	0
포	0
▁페이지	0
▁술	0
▁처	0
▁헌법	0
▁메틸	0
선택	0
▁방전	0
▁매수	0
시험	0
▁신속	0
▁상담	0
▁월	0
▁노	0
발전	0
▁이격	0
▁도달	0
▁배양	0
▁농축	0
▁돌	0
▁식물	0
업	0
▁포트	0
▁법인	0
▁공모	0
▁사이클	0
▁콘	0
시예	0
▁그림	0
아이	0
쇼	0
▁양성	0
▁형식	0
▁벽	0
▁전개	0
노	0
▁정기	0
▁엄마	0
▁필드	0
▁세금	0
▁반발	0
코	0
▁연동	0
▁노조	0
▁금	0
▁재산	0
장부	0
▁자녀	0
▁축제	0
▁네티즌	0
▁폐지	0
▁관점	0
▁주위	0
▁다중	0
▁느끼	0
▁향하	0
▁커지	0
▁오래	0
▁세정	0
▁맞춤	0
▁전형	0
▁여름	0
▁보통	0
전화	0
▁블랙	0
▁후속	0
금액	0
▁순위	0
▁구입	0
사실	0
▁추세	0
▁기체	0
▁당해	0
문	0
세트	0
화폐	0
▁수치	0
▁심리	0
▁초반	0
▁자주	0
▁회담	0
▁돌파	0
▁선두	0
▁환율	0
▁수분	0
쪽	0
▁기온	0
자는	0
▁비상	0
공단	0
▁한계	0
남	0
▁평소	0
▁강남	0
▁기어	0
▁역량	0
▁토지	0
▁권한	0
공장	0
회장	0
수사	0
▁패션	0
▁수원	0
외	0
▁항상	0
▁임상	0
▁유치	0
핀	0
혁신	0
▁호	0
으니	0
아요	0
▁개편	0
▁지사	0
능력	0
▁오일	0
▁바다	0
▁징역	0
행사	0
▁설비	0
전략	0
▁에칭	0
▁골프	0
▁투어	0
▁발사	0
너	0
습니까	0
▁목	0
등급	0
▁아동	0
▁도메인	0
▁신설	0
▁긴급	0
질환	0
감독	0
전문	0
▁양호	0
▁개구	0
단지	0
▁총장	0
사이클	0
▁의장	0
애	0
모드	0
▁연마	0
▁고무	0
작업	0
▁비밀	0
▁예고	0
▁계좌	0
▁심	0
▁늦	0
▁누적	0
▁게재	0
▁유용	0
▁아주	0
▁처분	0
▁양자	0
양	0
▁링	0
▁양극	0
▁편리	0
▁비난	0
▁총선	0
▁신체	0
▁입사	0
직	0
▁필수	0
▁일실	0
마을	0
듯	0
▁개수	0
▁소중	0
▁오염	0
싱	0
법원	0
▁하단	0
▁배포	0
▁이틀	0
거리	0
▁컨	0
▁균일	0
의회	0
왕	0
연합	0
▁부탁	0
▁출원	0
현재	0
▁미사일	0
▁타이틀	0
프로필	0
▁부가	0
▁수립	0
▁훨씬	0
택	0
▁소외	0
▁불안	0
▁배제	0
조건	0
▁램프	0
▁집단	0
▁포기	0
▁전파	0
비스	0
릴	0
▁출범	0
▁완벽	0
▁가하	0
링크	0
▁자격	0
▁현황	0
▁진정	0
▁교사	0
▁여	0
▁체제	0
▁합금	0
▁세대	0
▁밴드	0
원장	0
▁외주	0
옥	0
▁예술	0
▁토대	0
▁음	0
▁실장	0
▁저녁	0
▁업	0
▁세척	0
▁왕	0
▁친	0
▁매매	0
▁절대	0
▁시료	0
▁짓	0
▁어떠	0
▁날씨	0
▁영어	0
증	0
▁발효	0
▁옆	0
▁브라질	0
▁질량	0
신부	0
▁성인	0
▁인권	0
천만	0
▁초청	0
▁당초	0
▁이른	0
종합	0
▁혈액	0
청	0
▁새벽	0
도로	0
▁손해	0
▁증폭	0
▁약간	0
▁상향	0
▁용도	0
가치	0
▁생체	0
사랑	0
▁아크릴	0
▁외국	0
▁메이저	0
▁관	0
▁유엔	0
▁원래	0
▁폭발	0
광	0
▁애	0
▁년	0
▁언제	0
▁콘서트	0
▁정렬	0
지금	0
그램	0
▁피하	0
사이	0
▁후방	0
▁국무	0
▁색상	0
▁동력	0
▁극복	0
▁가까이	0
▁채택	0
▁무게	0
▁일시	0
부장	0
연구소	0
▁취임	0
조직	0
▁예약	0
▁생명	0
▁후술	0
▁계면	0
측면	0
▁투과	0
영화	0
▁갖추	0
▁음원	0
▁호주	0
▁롤	0
운영	0
▁착용	0
행정	0
▁가슴	0
▁노인	0
카	0
▁신장	0
▁투수	0
또한	0
▁아이템	0
▁시리즈	0
일본	0
차량	0
▁감시	0
▁바디	0
▁반송	0
출부	0
▁용융	0
▁땅	0
▁가량	0
각	0
▁논리	0
북한	0
▁진	0
▁원격	0
심사	0
▁소녀	0
▁발휘	0
▁근접	0
▁재질	0
을지	0
후보	0
입자	0
구역	0
▁그래프	0
▁이웃	0
▁강세	0
▁표정	0
▁현금	0
▁겨울	0
소수	0
▁토출	0
연결	0
▁입주	0
▁달하	0
▁웃	0
▁합류	0
▁밀착	0
척	0
▁범행	0
예술	0
혁명	0
▁숫자	0
발생	0
안타	0
▁유래	0
관련	0
▁상응	0
▁지칭	0
톤	0
▁촉진	0
▁곧	0
▁주주	0
▁저희	0
▁겸	0
사건	0
▁개폐	0
몰	0
▁동반	0
▁원형	0
▁밀봉	0
축구	0
▁탱크	0
▁소감	0
▁밀도	0
▁답변	0
▁빨리	0
▁객체	0
가량	0
▁대향	0
▁부하	0
아시아	0
▁선사	0
▁허가	0
▁따뜻	0
▁점차	0
▁입증	0
▁만난	0
▁택시	0
▁정비	0
▁다리	0
▁강원도	0
쇼핑	0
▁요리	0
▁성격	0
▁전부	0
친구	0
▁배향	0
▁보인	0
방	0
▁출마	0
면적	0
긴	0
▁고온	0
▁보강	0
▁계층	0
▁분기	0
▁흡입	0
▁계수	0
▁주관	0
▁융합	0
▁꽃	0
▁만남	0
▁부장	0
▁절감	0
▁강원	0
밖	0
의료	0
▁인생	0
▁특검	0
▁분배	0
▁토크	0
패턴	0
▁뭐	0
제공	0
▁탓	0
더라	0
▁명확	0
▁이사	0
▁어드레스	0
▁연말	0
조절	0
교육청	0
오늘	0
▁명예	0
▁가득	0
▁지하	0
▁세부	0
▁카	0
경	0
▁건축	0
▁컨트롤러	0
▁인용	0
▁스텝	0
▁세종	0
환자	0
▁구하	0
▁통보	0
▁용접	0
냐는	0
팬	0
재료	0
▁즉시	0
▁마우스	0
▁플라스틱	0
▁임계	0
▁소형	0
▁다이오드	0
개선	0
▁타이밍	0
▁주차	0
▁본사	0
컵	0
민주	0
여자	0
▁폭행	0
▁주력	0
▁전후	0
▁거치	0
▁해양	0
▁프리미엄	0
▁통계	0
이용	0
올해	0
정	0
위기	0
▁피고	0
전지	0
▁동원	0
▁안착	0
▁홈런	0
▁리스트	0
▁부당	0
▁화려	0
▁변수	0
▁반전	0
▁혼자	0
▁커피	0
▁재무	0
용기	0
순위	0
▁법정	0
▁보고	0
분석	0
▁과도	0
는다는	0
▁인재	0
▁주거	0
▁평행	0
▁구단	0
▁탄핵	0
▁해명	0
▁집행	0
▁파이프	0
▁재개	0
▁단축	0
정당	0
되게	0
설정	0
▁노선	0
필름	0
▁미니	0
▁복잡	0
키로	0
▁이란	0
화합물	0
▁임대	0
조치	0
시기	0
▁대폭	0
▁항원	0
▁집회	0
▁사정	0
▁정체	0
▁어린	0
▁매	0
▁위원	0
▁리그	0
탱크	0
드라마	0
▁주소	0
▁빅	0
▁공약	0
▁메	0
▁대역	0
▁지표	0
▁근로	0
필요	0
투어	0
▁특이	0
▁커넥터	0
기록	0
병	0
▁액	0
▁인프라	0
▁흡착	0
핵	0
시티	0
▁풍부	0
총	0
▁지자체	0
▁열심	0
▁유해	0
▁시범	0
▁정수	0
현장	0
▁협약	0
▁캠페인	0
▁득점	0
▁명칭	0
▁냉매	0
▁경향	0
▁주석	0
▁잉크	0
▁그러므로	0
▁인지	0
작	0
동물	0
▁한미	0
▁커	0
▁임신	0
▁물량	0
생명	0
▁점유	0
변화	0
석	0
▁상처	0
연맹	0
▁상징	0
▁제목	0
▁사안	0
▁캡	0
▁보존	0
▁출석	0
▁결론	0
▁질병	0
▁이탈리아	0
▁발매	0
판매	0
▁직전	0
▁거주	0
▁증발	0
▁포	0
필터	0
투여	0
▁추적	0
▁의존	0
조차	0
▁직장	0
▁농업	0
탄소	0
▁저감	0
▁언어	0
국장	0
▁회	0
▁결함	0
▁수주	0
봇	0
모델	0
▁매주	0
소득	0
장비	0
▁주최	0
▁초점	0
▁효능	0
▁모아	0
▁표적	0
▁치열	0
아도	0
▁활발	0
퍼	0
건강	0
▁대만	0
▁평창	0
언론	0
최근	0
▁중지	0
▁증대	0
출력	0
▁일례	0
히	0
▁밀	0
▁결승	0
▁공항	0
거	0
▁배기	0
▁상측	0
▁하향	0
경영	0
지부	0
콘	0
▁귀	0
▁빚	0
▁의식	0
▁마	0
▁우측	0
▁얼마	0
술	0
▁타격	0
▁거론	0
▁개입	0
▁화보	0
▁가속	0
야구	0
▁증권	0
롤러	0
금속	0
▁거듭	0
내용	0
▁고통	0
하고	0
임금	0
모터	0
▁원소	0
주일	0
▁선생	0
▁실력	0
킬	0
▁동료	0
수익	0
▁나무	0
▁티	0
▁내장	0
투	0
▁포토	0
▁봄	0
더니	0
▁노광	0
▁올라	0
▁단편	0
▁대결	0
▁히터	0
▁분명	0
▁불순	0
▁복원	0
▁감압	0
▁염기	0
▁좌측	0
▁스펙트럼	0
▁여당	0
▁종양	0
치료	0
▁확실	0
▁권력	0
▁공부	0
▁단속	0
▁지구	0
▁섬	0
경찰서	0
▁매입	0
▁뮤지컬	0
이닝	0
▁태도	0
▁건립	0
▁유의	0
학년	0
▁알코올	0
부품	0
▁편성	0
▁테이프	0
▁탄생	0
▁실무	0
▁양상	0
▁올린	0
펜	0
협약	0
▁연락	0
▁오랜	0
효율	0
▁미소	0
▁돌기	0
▁수납	0
▁초래	0
확인	0
▁자본	0
▁응용	0
▁싱글	0
▁등급	0
▁섭취	0
▁소방	0
▁전사	0
가족	0
정도	0
▁제약	0
채	0
복제	0
코딩	0
▁코딩	0
기어	0
▁간섭	0
뱅크	0
▁화	0
▁경사	0
셋	0
발	0
무역	0
▁철도	0
▁도금	0
▁허위	0
입력	0
언더	0
▁호소	0
▁고속	0
발광	0
자치	0
▁둔	0
▁통로	0
비디오	0
▁제제	0
▁단어	0
▁별	0
십	0
암	0
멘	0
분리	0
▁남부	0
▁삭제	0
▁발급	0
감사	0
▁덜	0
현	0
▁진짜	0
▁스페인	0
▁도쿄	0
▁통제	0
▁순수	0
▁초대	0
▁효소	0
▁앵커	0
▁나올	0
▁에지	0
▁저렴	0
▁협조	0
다음	0
▁시위	0
한테	0
▁지진	0
체육관	0
▁소요	0
▁긴장	0
골프	0
▁항공	0
▁방해	0
▁보건	0
▁당장	0
시청	0
서열	0
▁수송	0
▁우	0
움	0
▁임원	0
▁안보	0
▁전주	0
여기	0
▁박리	0
통	0
▁취약	0
기반	0
▁직업	0
▁피스톤	0
▁간담	0
▁선호	0
▁풀이	0
▁급	0
훈련	0
▁통일	0
▁심의	0
▁적발	0
여도	0
▁보완	0
▁버전	0
께서	0
▁승부	0
▁거기	0
▁신문	0
▁댓	0
▁청춘	0
▁실천	0
▁개성	0
▁폐	0
▁당일	0
일부	0
▁포장	0
스포츠	0
역	0
포스	0
▁매도	0
▁이탈	0
수석	0
▁일대	0
총회	0
▁피크	0
협상	0
절차	0
탈	0
▁지배	0
▁식사	0
▁고급	0
모	0
▁드	0
▁연령	0
케이스	0
지체	0
메타	0
▁정전	0
지법	0
토	0
▁정하	0
체제	0
▁청약	0
▁징계	0
▁생태	0
▁힌지	0
▁진실	0
▁추석	0
▁갑자기	0
▁라디오	0
▁형광	0
▁명백	0
▁불량	0
▁매트릭스	0
▁생존	0
관광	0
▁가을	0
▁물체	0
▁옷	0
존	0
▁적정	0
▁태풍	0
틱	0
생산	0
▁고백	0
▁유량	0
▁선형	0
▁베이징	0
▁직무	0
▁플레이	0
사람	0
▁야구	0
▁충	0
탄	0
▁세라믹	0
▁사퇴	0
활성	0
단자	0
저장	0
특히	0
신청	0
▁프로토콜	0
방안	0
▁숨	0
▁축하	0
▁통증	0
▁그리	0
전쟁	0
▁널리	0
▁경과	0
플러스	0
▁드라이버	0
전환	0
▁정식	0
북	0
▁중소	0
▁빈	0
▁위성	0
▁전이	0
▁히트	0
인터넷	0
▁고발	0
▁가계	0
협의회	0
롤	0
▁하늘	0
▁연휴	0
질량	0
바람직	0
▁입구	0
▁브레이크	0
▁합리	0
▁선행	0
▁박스	0
▁연방	0
듯이	0
▁비하	0
▁쉬	0
▁사유	0
▁맨	0
국회	0
▁아이디어	0
▁하드웨어	0
▁변신	0
▁중대	0
▁하이	0
기획	0
▁다니	0
▁볼트	0
▁업데이트	0
▁좌표	0
▁녹색	0
▁원활	0
중공업	0
▁음극	0
▁품목	0
▁무려	0
▁교차	0
통상	0
성부	0
기계	0
불	0
▁스트레스	0
준비	0
▁캐나다	0
▁체크	0
▁희석	0
운용	0
▁천연	0
▁정밀	0
▁챔피언	0
▁후원	0
▁유전	0
마저	0
▁파괴	0
▁초등	0
▁대로	0
▁관세	0
▁종이	0
▁심장	0
▁봉사	0
▁균형	0
지난	0
규제	0
▁타이어	0
▁점점	0
▁계정	0
▁문헌	0
▁유연	0
▁접	0
▁체포	0
▁경력	0
▁시공	0
▁정착	0
▁발달	0
▁사드	0
▁조언	0
공기	0
▁싱가포르	0
▁리더	0
▁선도	0
지사	0
▁재미	0
▁협	0
▁확진	0
▁서류	0
▁포착	0
처분	0
압	0
▁사이즈	0
▁함수	0
▁커플링	0
▁충족	0
▁유압	0
▁현안	0
형상	0
▁관여	0
▁감	0
▁세력	0
▁왼	0
인증	0
김	0
제조	0
▁조국	0
▁도중	0
▁폴	0
동기	0
미사일	0
▁박사	0
▁하드	0
섬유	0
▁감성	0
▁덕분	0
▁토론	0
절	0
플레이트	0
▁쇼	0
업무	0
▁파견	0
▁하측	0
파크	0
▁소장	0
▁스피커	0
▁마크	0
기에	0
다운	0
▁배지	0
▁홀더	0
▁차관	0
▁수급	0
지검	0
▁잠시	0
시각	0
▁급증	0
제한	0
▁발열	0
▁클럽	0
▁단기	0
영장	0
▁연습	0
▁연인	0
▁벨트	0
▁요금	0
▁문재	0
▁압	0
▁녹화	0
다시	0
▁전위	0
▁런던	0
▁상용	0
▁합동	0
▁부처	0
▁석유	0
▁그간	0
▁다운로드	0
▁해상	0
▁개막	0
▁임기	0
▁희생	0
▁존	0
▁무슨	0
▁신임	0
▁포화	0
의장	0
▁당신	0
▁간편	0
▁포항	0
▁영입	0
▁불가피	0
▁근육	0
여부	0
랑	0
▁고위	0
▁과연	0
▁의회	0
▁신한	0
민	0
▁수성	0
▁부피	0
▁신선	0
인력	0
▁비즈니스	0
▁장식	0
▁마주	0
▁알고리즘	0
▁편광	0
▁적자	0
▁취재	0
통화	0
▁지상	0
투표	0
▁방사	0
경찰	0
▁무리	0
▁권고	0
▁문의	0
▁이메일	0
▁청소	0
▁도와	0
▁협업	0
▁제정	0
▁나사	0
▁중계	0
▁물건	0
▁남녀	0
▁틀	0
파일	0
▁부지	0
▁둘레	0
▁기상	0
▁백색	0
단위	0
박스	0
인식	0
▁가요	0
▁겔	0
전하	0
교환	0
▁산하	0
칩	0
▁적응	0
▁약세	0
평화	0
▁드럼	0
▁세우	0
계좌	0
▁소환	0
▁배관	0
▁실수	0
▁선배	0
▁태그	0
▁측벽	0
▁제고	0
▁카페	0
팩	0
전력	0
▁기분	0
▁가시	0
금	0
▁혈관	0
▁탑	0
광고	0
경우	0
▁돌입	0
▁관하	0
▁감동	0
은데	0
▁상생	0
▁규칙	0
▁커뮤니티	0
▁편집	0
안보	0
협정	0
▁명시	0
시리즈	0
판사	0
▁휠	0
▁아무	0
소재	0
▁제형	0
▁승객	0
여성	0
▁안팎	0
원자	0
▁낼	0
▁보급	0
미디어	0
▁대우	0
▁레일	0
▁태국	0
▁대처	0
확실	0
▁동생	0
▁경위	0
▁외형	0
▁재난	0
▁수록	0
▁테러	0
과장	0
특별	0
오픈	0
▁고소	0
▁출구	0
▁고도	0
비트	0
▁반경	0
▁코너	0
▁중증	0
지지	0
교환기	0
▁비닐	0
▁동계	0
청장	0
▁과시	0
레	0
삼	0
▁상관	0
범죄	0
▁서명	0
▁워싱턴	0
빔	0
▁강의	0
▁침해	0
▁게다가	0
봉	0
▁당선	0
▁모여	0
▁추구	0
▁깜짝	0
▁후면	0
계층	0
주행	0
▁훼손	0
▁오류	0
버스	0
자리	0
용액	0
체부	0
▁마찰	0
▁아프리카	0
측정	0
쉬	0
▁파트너	0
▁여유	0
▁뇌	0
▁극대	0
▁폭력	0
▁마시	0
▁위주	0
▁횟수	0
▁잔기	0
▁진화	0
▁환원	0
징	0
▁모니터	0
고객	0
▁민감	0
▁만기	0
▁연소	0
▁판사	0
▁컴백	0
튜브	0
▁명단	0
▁테	0
▁유저	0
▁상업	0
▁부근	0
▁변	0
갈	0
▁착수	0
구속	0
▁하위	0
▁즉각	0
재산	0
▁솔로	0
▁바라	0
커버	0
▁취급	0
▁불만	0
▁가교	0
니트	0
돌기	0
▁본부	0
축제	0
▁음향	0
사업자	0
▁낮추	0
▁코스	0
▁총괄	0
▁철	0
▁직선	0
▁사법	0
체험	0
▁포스	0
폰	0
▁슬라이딩	0
교통	0
▁승	0
▁추	0
▁뿌리	0
▁심볼	0
색	0
망	0
▁팽창	0
▁장르	0
해진	0
▁잇	0
▁에러	0
농도	0
평	0
▁평	0
▁중첩	0
▁변조	0
▁솔	0
▁꿀	0
▁뉴	0
바이러스	0
고서	0
▁감각	0
전기	0
▁정공	0
▁잔류	0
▁따로	0
▁도발	0
설비	0
▁총재	0
창	0
회전	0
▁지인	0
화면	0
▁특유	0
▁원전	0
종목	0
▁인자	0
유지	0
▁성명	0
인상	0
▁주연	0
펌프	0
▁모색	0
▁턴	0
▁연통	0
▁인도네시아	0
▁타자	0
▁통신망	0
▁첨단	0
용역	0
▁각자	0
▁티켓	0
▁선출	0
▁누가	0
▁수업	0
▁야기	0
콘텐츠	0
▁가사	0
▁수비	0
▁입체	0
노조	0
▁행보	0
▁굴절	0
과제	0
엠	0
▁연신	0
▁국방	0
변경	0
전체	0
요법	0
▁합병	0
평균	0
해결	0
대금	0
▁이래	0
▁동결	0
해양	0
▁부대	0
▁아이콘	0
▁부채	0
신고	0
백화점	0
▁아나운서	0
▁근본	0
▁트랙	0
▁일각	0
▁모노	0
▁캠	0
▁무시	0
▁인원	0
새	0
▁비리	0
▁체중	0
▁스토리	0
▁요건	0
▁철저	0
▁인체	0
▁피드백	0
▁영장	0
▁수율	0
단전	0
▁시인	0
마리	0
▁아빠	0
▁타임	0
▁분노	0
▁시사	0
▁정면	0
▁찬성	0
▁근처	0
선단	0
의견	0
▁대량	0
▁쇼핑	0
▁유력	0
▁증정	0
▁슈퍼	0
▁입찰	0
▁일방	0
▁목록	0
▁수위	0
유로	0
▁안타	0
▁이론	0
▁맞이	0
신문사	0
보수	0
▁도출	0
득점	0
▁기각	0
수수료	0
대통령	0
▁지명	0
▁소음	0
▁말단	0
▁음료	0
▁승강	0
▁독특	0
▁상무	0
▁녹	0
▁제일	0
▁폐기	0
▁기법	0
▁외면	0
가락	0
▁조리	0
▁농가	0
는다고	0
▁의결	0
▁백악	0
▁그러니까	0
▁비례	0
▁상금	0
▁루프	0
▁혼란	0
광부	0
▁시퀀스	0
▁신분	0
▁거두	0
▁비타민	0
영어	0
책	0
보장	0
▁액션	0
▁출산	0
재생	0
▁귀국	0
▁경구	0
▁이혼	0
▁피의자	0
자고	0
▁지내	0
든지	0
▁곡선	0
▁종교	0
▁컨트롤	0
끼리	0
▁갑	0
▁계열	0
▁도심	0
▁전역	0
▁품	0
고정	0
▁자석	0
▁변하	0
▁유선	0
▁흥행	0
▁차트	0
▁나트륨	0
▁반박	0
벽	0
표면	0
전달	0
▁옛	0
▁인출	0
▁확률	0
디스플레이	0
▁할머니	0
▁교회	0
▁열정	0
▁공조	0
▁축적	0
실리콘	0
▁둔화	0
전부	0
▁회계	0
▁층간	0
▁마스터	0
▁파리	0
▁와인	0
▁전신	0
▁상고	0
▁비전	0
▁인덱스	0
▁어깨	0
▁고장	0
구동	0
▁증명	0
▁탄력	0
▁진상	0
▁상한	0
▁수명	0
교수	0
▁가로	0
▁브리핑	0
▁뇌물	0
▁액상	0
▁농	0
▁도모	0
영화제	0
장기	0
▁쌀	0
학원	0
▁거대	0
▁민족	0
▁단점	0
하우스	0
주간	0
▁자살	0
이러	0
▁원정	0
▁외환	0
▁증인	0
▁현행	0
▁배당	0
▁패스	0
▁심지어	0
▁공원	0
의해	0
▁담배	0
▁관람	0
▁확립	0
▁배합	0
▁민	0
▁일종	0
▁아쉬움	0
전원	0
▁코치	0
극	0
▁식당	0
▁최신	0
▁지위	0
▁주인	0
▁버디	0
▁연주	0
▁덮	0
인사	0
▁원리	0
▁밀폐	0
▁그리스	0
▁신곡	0
▁의문	0
▁대거	0
▁약학	0
피해	0
▁영구	0
▁급등	0
입	0
▁당기	0
▁베	0
▁중점	0
내지	0
▁살인	0
▁성질	0
▁마약	0
▁공소	0
▁위법	0
▁서민	0
▁멕시코	0
▁진심	0
잡	0
▁벌	0
옥소	0
대사	0
▁열차	0
▁최다	0
▁도핑	0
개소	0
▁의뢰	0
▁면접	0
명령	0
▁비록	0
수준	0
▁전제	0
▁공략	0
레벨	0
▁합계	0
짜리	0
▁이점	0
▁노사	0
▁아무런	0
반도체	0
▁분쟁	0
▁비행	0
▁방어	0
▁커플	0
▁콘크리트	0
▁가해	0
▁터키	0
▁악	0
▁사기	0
▁분쇄	0
▁일제	0
▁금형	0
텀	0
▁선별	0
▁캡슐	0
▁납부	0
호텔	0
활성제	0
▁중복	0
▁신종	0
▁필리핀	0
우	0
넷	0
동작	0
▁경선	0
▁왜곡	0
▁병력	0
주식	0
▁경유	0
▁영	0
▁고압	0
▁살해	0
주민	0
▁입지	0
▁벌금	0
용품	0
네트워크	0
▁남기	0
공무원	0
▁류	0
투명	0
손	0
간담회	0
▁멀티	0
▁은퇴	0
기온	0
▁그래픽	0
▁심판	0
▁적당	0
▁전계	0
▁쓰레기	0
▁포맷	0
▁진료	0
▁재배	0
▁주체	0
▁에탄올	0
▁편안	0
복합	0
▁일환	0
재정부	0
▁인턴	0
수행	0
▁입학	0
▁여건	0
▁노후	0
▁으로	0
조군	0
▁갈수록	0
▁구독	0
▁빼	0
로드	0
▁평생	0
▁입법	0
▁본질	0
거래소	0
▁다섯	0
▁밑	0
텐	0
▁우주	0
공연	0
일반	0
▁주재	0
▁갱신	0
메시지	0
▁하강	0
▁신인	0
▁모임	0
▁동참	0
▁진보	0
▁슬라이드	0
부가	0
▁텍스트	0
▁라이트	0
▁몰드	0
내부	0
▁숲	0
연승	0
대한	0
▁철회	0
▁외모	0
머	0
▁조화	0
▁원내	0
노동	0
환	0
이드	0
쌍	0
▁펜	0
공동	0
▁라	0
▁인연	0
▁기조	0
▁반려	0
▁각국	0
▁증진	0
지표	0
▁치수	0
▁파업	0
▁업그레이드	0
지주	0
▁소폭	0
▁칼럼	0
나트륨	0
▁소아	0
연패	0
▁밥	0
▁부실	0
▁종전	0
▁민원	0
▁다운	0
▁안료	0
▁전월	0
▁칼	0
▁구별	0
▁추락	0
▁의류	0
▁마리	0
▁아날로그	0
▁예선	0
▁오해	0
▁탈락	0
▁저해	0
▁출입	0
▁콘셉트	0
▁송출	0
▁지목	0
▁내수	0
▁드라이브	0
▁강릉	0
▁자사	0
▁압도	0
점검	0
▁지문	0
잼	0
▁휴식	0
▁끼	0
▁일련	0
▁통	0
▁세기	0
창업	0
필	0
▁시정	0
또	0
여행	0
▁유무	0
▁패배	0
전류	0
▁본선	0
난	0
▁운반	0
이동	0
자본	0
월드컵	0
▁대외	0
학과	0
▁각오	0
▁터	0
▁이자	0
▁구상	0
▁입국	0
▁증언	0
▁만성	0
대응	0
▁수십	0
▁내주	0
▁태	0
부위	0
기사	0
아니	0
▁적색	0
주가	0
▁옵션	0
분해	0
▁다이	0
▁확충	0
캠프	0
공인	0
▁염증	0
▁설문	0
상체	0
국내	0
▁북부	0
▁서부	0
▁상임	0
▁조심	0
▁전세	0
▁대가	0
▁차기	0
합의	0
▁시신	0
▁복구	0
▁외관	0
규칙	0
보고서	0
▁수반	0
진흥	0
▁위축	0
활용	0
여서	0
▁추억	0
빈	0
가이드	0
허가	0
앨범	0
전형	0
대행	0
▁블레이드	0
▁자문	0
▁문건	0
▁개통	0
▁성향	0
▁농촌	0
응답	0
▁용역	0
학생	0
▁소설	0
▁상가	0
▁부합	0
▁무릎	0
▁통지	0
▁운항	0
▁막대	0
중심	0
▁혼	0
성능	0
▁하중	0
▁독	0
▁속성	0
코팅	0
▁기원	0
외부	0
이미	0
칼	0
▁수능	0
탑	0
▁셋	0
▁참사	0
▁로딩	0
▁정황	0
▁미군	0
▁클래식	0
증가	0
배치	0
▁시그널	0
따라서	0
▁이목	0
회관	0
요금	0
▁파손	0
▁원유	0
▁목숨	0
▁캐스팅	0
▁제휴	0
케어	0
▁점포	0
▁망	0
지대	0
▁코트	0
▁증기	0
▁비서	0
▁지향	0
▁접지	0
조체	0
사례	0
수신	0
▁당하	0
본체	0
고용	0
▁록	0
구간	0
▁척	0
▁연합	0
▁띄	0
▁개재	0
경찰청	0
▁무죄	0
▁격차	0
▁공직	0
자유	0
▁방치	0
▁담보	0
▁평탄	0
팀장	0
▁역전	0
포럼	0
▁일원	0
▁과장	0
▁기후	0
▁지출	0
보건	0
▁결의	0
▁산정	0
▁합	0
▁등판	0
▁플러그	0
▁북측	0
▁뚜렷	0
▁전투	0
▁특화	0
▁인공	0
구멍	0
▁자발	0
린	0
▁터널	0
▁워드	0
진단	0
▁고향	0
짐	0
함유	0
▁합격	0
▁수색	0
▁잎	0
▁당연	0
나노	0
▁착	0
▁특집	0
▁칼슘	0
주기	0
렌즈	0
미터	0
▁띠	0
타점	0
상공	0
운	0
▁깨	0
따라	0
▁연애	0
부처	0
▁겨냥	0
▁사연	0
공학	0
샷	0
칸	0
▁싸움	0
▁계측	0
▁명절	0
▁조회	0
▁당분	0
지점	0
▁너	0
티오	0
▁동향	0
설치	0
▁입원	0
▁개체	0
▁시판	0
광주	0
실점	0
이제	0
▁컨설팅	0
효소	0
잡이	0
맨	0
▁잠재	0
▁용제	0
▁환상	0
조작	0
▁무관	0
▁이득	0
▁신중	0
▁매니저	0
▁공포	0
▁연극	0
인간	0
패드	0
토록	0
▁출국	0
▁다루	0
특성	0
일기	0
실적	0
항공	0
▁그치	0
▁게스트	0
▁신축	0
▁논문	0
▁공천	0
▁애정	0
순환	0
▁청원	0
▁명의	0
▁작전	0
▁조달	0
▁조각	0
▁환영	0
업종	0
▁해군	0
▁재단	0
▁써	0
▁음반	0
▁질화	0
▁캠프	0
염	0
▁연금	0
▁부각	0
▁카트리지	0
▁백신	0
▁아티스트	0
▁잠	0
▁촛	0
▁모형	0
유기	0
▁배달	0
고리	0
정신	0
▁궁금	0
건조	0
밴드	0
▁후배	0
▁스튜디오	0
극장	0
▁시나리오	0
▁폭염	0
▁연봉	0
▁구획	0
▁세로	0
꾼	0
수개	0
▁나중	0
▁진전	0
▁존중	0
역사	0
▁중기	0
게이트	0
▁표명	0
▁통산	0
▁시일	0
선언	0
학회	0
부호	0
▁털	0
▁전무	0
▁차질	0
▁복호	0
▁병렬	0
▁평판	0
▁날개	0
▁개헌	0
▁자국	0
▁라이브	0
▁병행	0
▁컨테이너	0
▁상상	0
▁대답	0
▁수리	0
▁수면	0
▁깨끗	0
▁경주	0
조합	0
▁표제	0
▁시세	0
책임	0
▁심한	0
▁신입	0
▁수축	0
센	0
수요	0
▁면제	0
▁조항	0
사무소	0
▁신라	0
▁플래시	0
▁구름	0
▁예전	0
촬영	0
상승	0
쇄	0
▁내면	0
▁도구	0
▁전공	0
▁레버	0
▁사무	0
▁흑자	0
단말	0
체육	0
▁시계	0
이유	0
▁아예	0
▁내외	0
▁문구	0
▁역임	0
▁협회	0
▁수동	0
▁심화	0
▁영양	0
▁점착	0
▁국채	0
돌	0
교류	0
강도	0
▁치매	0
▁국장	0
▁도약	0
▁담체	0
▁기둥	0
▁줄기	0
배우	0
정지	0
큐	0
▁시너지	0
연합회	0
▁허	0
지도	0
▁춤	0
▁과세	0
버튼	0
▁경	0
▁클러치	0
▁선전	0
▁붕괴	0
▁선단	0
랭킹	0
▁떼	0
설명	0
▁직렬	0
특정	0
▁혈청	0
트랜지스터	0
▁민생	0
▁권장	0
▁양산	0
교사	0
▁유아	0
▁흥미	0
▁방열	0
현상	0
▁일관	0
▁홀로	0
▁쥐	0
▁엠	0
▁파형	0
공헌	0
롤리	0
▁주한	0
▁전도	0
▁당한	0
▁정화	0
▁용법	0
에요	0
▁입수	0
▁고교	0
▁급락	0
▁경매	0
모든	0
▁압출	0
▁격리	0
▁상의	0
매	0
아파트	0
▁추첨	0
음악	0
▁모이	0
▁출동	0
▁한도	0
▁재발	0
장소	0
▁시리아	0
▁도광	0
▁애니메이션	0
▁갭	0
▁별개	0
심리	0
요청	0
클릭	0
압력	0
▁예의	0
▁승용	0
▁수렴	0
화재	0
▁실정	0
위한	0
▁배정	0
이란	0
▁승진	0
▁표지	0
▁포즈	0
곤	0
▁단장	0
▁발산	0
용매	0
연대	0
지요	0
▁광장	0
▁핫	0
▁호응	0
▁허브	0
추진	0
▁청	0
▁배려	0
▁연대	0
▁벗	0
▁다층	0
▁허리	0
마트	0
▁유족	0
▁행진	0
팝	0
당시	0
▁계	0
▁상환	0
▁중공	0
▁체육	0
홈런	0
▁운송	0
▁개장	0
농구	0
▁인장	0
▁추경	0
▁쿠폰	0
▁전담	0
감지	0
한지	0
▁운명	0
오염	0
▁연예	0
▁탐색	0
▁맥주	0
▁경보	0
사전	0
▁간부	0
총장	0
▁창조	0
▁한글	0
▁고개	0
가공	0
▁마그네슘	0
▁팩	0
▁표기	0
솔	0
검찰	0
▁의상	0
▁와서	0
일자	0
▁변속	0
▁문학	0
그러나	0
▁환	0
▁타단	0
▁행	0
랜드	0
보증	0
▁바인더	0
쓰	0
▁급여	0
사단	0
▁시내	0
▁네덜란드	0
철도	0
▁청색	0
▁지불	0
▁콜	0
▁가리	0
이타	0
선물	0
▁레	0
▁무수	0
이런	0
▁보일	0
박물관	0
재정	0
▁사물	0
▁유가	0
▁과일	0
접속	0
▁편입	0
▁생애	0
▁결심	0
▁본문	0
▁철강	0
▁번역	0
▁간주	0
▁연설	0
커	0
동시	0
▁소지	0
▁절곡	0
▁세제	0
공부	0
▁당황	0
▁소성	0
는다면	0
▁배송	0
▁간접	0
▁구형	0
▁균등	0
인치	0
용부	0
부채	0
▁격려	0
안내	0
▁볼록	0
온라인	0
▁소위	0
▁직	0
▁스위스	0
정비	0
▁납품	0
소장	0
▁국면	0
▁위탁	0
▁준공	0
타워	0
▁스틸	0
▁실태	0
▁교정	0
▁방영	0
▁침투	0
에이트	0
풀	0
▁오프라인	0
▁집안	0
▁댄스	0
▁명품	0
▁대립	0
▁체력	0
▁기인	0
▁결	0
목	0
▁시중	0
비닐	0
▁염료	0
필드	0
▁폭로	0
상부	0
이전	0
▁강판	0
▁집권	0
뉘	0
▁면담	0
▁먼	0
▁재현	0
▁중순	0
각각	0
▁하여	0
▁바이	0
저항	0
▁시원	0
▁조율	0
▁변위	0
태양	0
두께	0
검	0
▁상온	0
▁급격	0
▁편지	0
▁스택	0
변환	0
의식	0
수당	0
▁만일	0
▁실업	0
▁강연	0
협	0
접촉	0
▁발진	0
▁수학	0
▁조례	0
▁침체	0
디지털	0
예산	0
▁벌써	0
▁독성	0
한데	0
▁피복	0
▁릴레이	0
▁옥	0
▁한류	0
▁최악	0
▁탑승	0
▁격벽	0
희	0
채권	0
▁돼지	0
▁사흘	0
▁무산	0
▁가전	0
▁위장	0
구나	0
▁배면	0
▁향	0
비교	0
▁포럼	0
마스크	0
▁수여	0
▁육군	0
▁접점	0
▁설득	0
참여	0
▁가중	0
▁복	0
▁용	0
▁정원	0
▁일면	0
▁혈압	0
리스트	0
▁영광	0
▁의거	0
유통	0
▁랩	0
▁강렬	0
▁왕복	0
화제	0
감독원	0
▁자치	0
▁거절	0
▁운	0
▁중반	0
▁광역	0
▁컵	0
▁점도	0
팔	0
▁피치	0
▁아웃	0
▁고조	0
수소	0
▁덕	0
서부	0
▁지휘	0
소리	0
▁디코더	0
▁요	0
▁보복	0
▁검정	0
틀	0
소송	0
▁헤더	0
▁대조	0
▁놀이	0
탁	0
목적	0
▁격자	0
▁극성	0
▁자제	0
▁솔직	0
▁집합	0
송	0
해요	0
스위치	0
자마자	0
아직	0
▁주자	0
▁시급	0
▁무상	0
▁생물	0
▁미립	0
▁여지	0
▁조제	0
광장	0
▁군대	0
▁아기	0
▁조만	0
▁주간	0
▁협박	0
손실	0
▁서서	0
판결	0
▁공익	0
▁테마	0
▁요지	0
설계	0
▁직류	0
▁오가	0
▁반성	0
▁보증	0
▁지능	0
▁관할	0
▁퇴직	0
▁여사	0
▁고전	0
신경	0
▁봉	0
▁페스티벌	0
▁모서리	0
십시오	0
예방	0
▁영하	0
▁살균	0
교회	0
▁재직	0
턱	0
▁먼지	0
▁잠정	0
학습	0
▁양면	0
제재	0
▁경신	0
▁여파	0
▁든	0
케이	0
재화	0
▁규격	0
최고	0
락	0
▁목사	0
▁관해	0
▁공판	0
▁전진	0
오버	0
▁상영	0
몸체	0
▁체류	0
경로	0
다면서	0
투자자	0
▁매개	0
▁횡	0
▁정맥	0
▁체인	0
타임	0
▁야외	0
포트	0
변이	0
▁휴가	0
▁안심	0
▁안건	0
벤	0
▁화성	0
트랙	0
▁세미나	0
▁탈퇴	0
▁전동	0
▁공인	0
▁종종	0
▁누리	0
▁소수	0
▁이기	0
▁시프트	0
상담	0
▁저온	0
▁이력	0
▁항의	0
▁호출	0
▁오프셋	0
세력	0
제작	0
▁크로스	0
▁좌	0
▁노이즈	0
▁말레이시아	0
고등학교	0
목부	0
▁미술	0
▁배수	0
▁신화	0
▁추모	0
▁내역	0
칭	0
▁유료	0
▁흔	0
▁메달	0
콜	0
디자인	0
▁톱	0
▁행렬	0
▁투쟁	0
▁군인	0
▁화물	0
▁호평	0
▁니	0
▁야간	0
베	0
▁저면	0
타자	0
▁위로	0
▁이적	0
▁기금	0
순	0
▁성립	0
▁고문	0
주사	0
▁현저	0
▁정한	0
▁입건	0
▁카운터	0
취	0
▁해체	0
문서	0
▁뼈	0
▁저자	0
제약	0
▁난민	0
▁곤란	0
▁육아	0
▁모션	0
청문회	0
전송	0
▁도체	0
▁클러스터	0
전문가	0
▁양식	0
▁던지	0
▁약제	0
▁열풍	0
▁정해	0
▁전장	0
▁관계없	0
임대	0
▁신발	0
▁칭찬	0
▁추격	0
▁멀리	0
▁성막	0
▁스웨덴	0
▁스케줄	0
순이익	0
비서관	0
경쟁	0
감소	0
▁흔들	0
▁진로	0
직원	0
▁직교	0
하우징	0
▁외곽	0
▁회피	0
▁강사	0
▁요철	0
▁샘플링	0
위해	0
▁임무	0
▁자성	0
▁평범	0
▁사내	0
▁퍼	0
▁재학	0
▁판별	0
다만	0
협의	0
균	0
타수	0
▁철거	0
급여	0
▁위안	0
▁재차	0
▁사라지	0
상거래	0
▁죄	0
▁뒷	0
▁쟁점	0
▁경도	0
▁도내	0
▁이스라엘	0
▁환급	0
위험	0
▁분지	0
대학원	0
▁편차	0
▁짚	0
클럽	0
▁범	0
▁건수	0
간격	0
▁규명	0
▁뒤집	0
▁울	0
증시	0
쿼터	0
▁추산	0
스타일	0
▁사출	0
래	0
저축	0
▁오랫	0
▁동등	0
▁견인	0
▁응시	0
질문	0
청년	0
인구	0
▁발목	0
깔	0
▁칸	0
▁배상	0
단장	0
화학식	0
▁계절	0
▁더블	0
▁예외	0
▁예금	0
▁감축	0
▁타율	0
▁성사	0
▁완충	0
▁다채	0
▁양단	0
▁이소	0
▁형제	0
답	0
▁엄격	0
▁염색	0
함께	0
▁세운	0
개인	0
▁아마	0
▁포괄	0
일자리	0
▁철학	0
▁민정	0
▁부서	0
의사	0
▁김치	0
▁투영	0
▁냄새	0
세상	0
▁푸	0
▁저축	0
▁출장	0
▁서구	0
▁죄송	0
▁오피스텔	0
▁채무	0
▁사후	0
▁페이스트	0
차트	0
완화	0
평등	0
▁수백	0
때문	0
▁우위	0
▁발신	0
▁횡령	0
▁황색	0
▁대피	0
▁자택	0
▁라운드	0
▁확신	0
시실	0
▁야생	0
▁고인	0
▁보충	0
헤드	0
▁센	0
▁방역	0
발전소	0
▁채취	0
▁세균	0
▁러브	0
▁처치	0
▁슈팅	0
▁타깃	0
▁메모	0
▁실종	0
▁지형	0
▁블로그	0
▁산림	0
도서관	0
▁국	0
▁전직	0
▁출혈	0
▁시약	0
▁전액	0
네트	0
제거	0
구체	0
▁유죄	0
▁범주	0
▁동양	0
유리	0
▁비추	0
▁매립	0
▁승점	0
루타	0
▁상원	0
인원	0
▁야권	0
▁무효	0
행동	0
▁속한	0
▁공진	0
정의	0
혈증	0
▁뚜껑	0
▁무인	0
▁하방	0
페이지	0
▁방한	0
비리	0
▁소집	0
산화	0
▁꾸준	0
▁취	0
랩	0
▁관행	0
▁전선	0
▁체	0
캡	0
▁현역	0
▁게시	0
배상	0
▁전단	0
▁탈출	0
농단	0
모양	0
▁정무	0
▁제동	0
▁랭킹	0
▁스핀	0
▁난방	0
▁어르신	0
대역	0
▁막판	0
▁유포	0
▁추후	0
▁관절	0
실험	0
노즐	0
▁체감	0
▁무장	0
▁억울	0
생성	0
▁대목	0
▁저지	0
실록	0
▁처방	0
▁투약	0
▁기밀	0
▁석탄	0
▁수확	0
▁성숙	0
행	0
▁매치	0
▁접목	0
▁동점	0
여량	0
▁전격	0
▁연이	0
▁판문점	0
▁원가	0
▁소모	0
▁탄탄	0
▁제로	0
▁해안	0
농협	0
▁기름	0
▁습도	0
▁훌륭	0
▁약화	0
▁발의	0
▁증	0
▁인명	0
동력	0
촉매	0
표준	0
해당	0
▁외신	0
▁론	0
▁사료	0
▁압착	0
이후	0
▁전설	0
분자	0
▁창의	0
물가	0
▁강요	0
▁공보	0
▁상실	0
추가	0
▁위생	0
▁선체	0
영업	0
▁고수	0
▁분획	0
▁정량	0
건축	0
소비	0
▁완공	0
▁국적	0
▁녹음	0
▁프린터	0
먹	0
푸	0
▁지름	0
▁중쇄	0
▁빈도	0
▁단행	0
▁탭	0
식별	0
파이프	0
▁당내	0
공공	0
▁석	0
▁차폐	0
초등	0
▁선제	0
▁적립	0
▁까지	0
▁흔적	0
▁미모	0
▁창립	0
▁메일	0
▁재고	0
▁잉글랜드	0
▁혈중	0
▁동네	0
▁후문	0
▁플레이오프	0
발표회	0
교	0
▁연내	0
▁착신	0
구매	0
▁증식	0
▁노리	0
브레인	0
▁응급	0
▁수거	0
▁부패	0
▁케이	0
▁휘발	0
▁염소	0
▁기도	0
▁자라	0
▁차체	0
▁매진	0
코어	0
푸드	0
▁프린트	0
관계자	0
▁몫	0
▁상정	0
뱅킹	0
▁극장	0
▁로맨스	0
노동부	0
▁기질	0
▁중화	0
▁하원	0
규정	0
▁발간	0
텐트	0
▁알파	0
도전	0
회계	0
주파수	0
▁혁명	0
▁묘사	0
품	0
꽃	0
실린더	0
▁공세	0
▁여신	0
인권	0
남자	0
기금	0
▁생길	0
▁때때	0
주입	0
▁디자이너	0
▁안녕	0
▁발송	0
▁놀	0
부대	0
부동산	0
▁헬스	0
▁스케일	0
▁서해	0
황	0
▁여권	0
▁조별	0
▁이례	0
▁발탁	0
▁다이어트	0
증후군	0
▁가짜	0
▁하차	0
▁시뮬레이션	0
▁파지	0
방전	0
▁수영	0
▁소년	0
창조	0
▁잔	0
▁하천	0
피리	0
▁면모	0
레일	0
혈압	0
근로	0
▁유행	0
차별	0
▁핸들	0
내역	0
▁아무리	0
▁고령	0
립	0
▁본래	0
화소	0
▁진영	0
▁팁	0
▁재벌	0
▁전당	0
▁부스	0
▁공화	0
▁변성	0
노총	0
▁문장	0
▁유학	0
대우	0
매도	0
▁분비	0
▁거점	0
▁미안	0
▁의의	0
배선	0
▁질의	0
▁세탁	0
▁자식	0
▁후기	0
▁방위	0
▁딱	0
▁부활	0
▁학원	0
▁에어컨	0
▁기호	0
▁공구	0
▁파격	0
▁크리스마스	0
▁스태프	0
계수	0
▁상인	0
▁추측	0
▁입점	0
▁투기	0
주도	0
▁그라운드	0
▁호조	0
▁차장	0
▁바퀴	0
산화물	0
육	0
▁의학	0
▁침지	0
상금	0
시도	0
▁심혈	0
▁견해	0
▁발령	0
▁내성	0
메모리	0
▁수습	0
▁법리	0
▁기쁨	0
▁더미	0
▁원자로	0
▁지질	0
▁계단	0
▁배럴	0
▁중도	0
▁침입	0
▁인테리어	0
▁극단	0
▁탁월	0
▁톤	0
▁연상	0
봉사	0
윤	0
▁고기	0
▁선회	0
▁견고	0
아동	0
무기	0
▁잡음	0
카메라	0
검출	0
▁카운트	0
▁수령	0
▁실망	0
▁이면	0
부부	0
▁오목	0
▁데이트	0
▁레이스	0
공보	0
외환	0
참조	0
에스	0
▁총회	0
▁장벽	0
▁윤리	0
▁금품	0
▁시동	0
여건	0
빛	0
과거	0
▁카테고리	0
체결	0
▁파일럿	0
자책점	0
▁출근	0
강화	0
▁강경	0
▁철수	0
▁누설	0
▁고가	0
▁할로	0
▁에이스	0
▁기입	0
▁강행	0
회복	0
▁이듬	0
▁경질	0
▁타석	0
▁원천	0
중합체	0
▁삽	0
▁진주	0
여시	0
밀도	0
▁체적	0
▁텔레비전	0
▁도민	0
▁토로	0
중계	0
▁찬	0
▁타원	0
▁폰	0
▁출생	0
▁컨베이어	0
▁치아	0
해제	0
▁대칭	0
터미널	0
▁지그	0
▁사립	0
▁해법	0
▁발포	0
▁절친	0
밤	0
▁요약	0
▁포지션	0
▁특혜	0
▁애초	0
스프링	0
영	0
▁락	0
작가	0
▁소결	0
▁근	0
유치원	0
▁절삭	0
▁효력	0
▁조세	0
내년	0
드레스	0
▁가방	0
▁원통	0
▁시술	0
▁수중	0
▁분량	0
▁베스트	0
구장	0
우수	0
결	0
디스크	0
▁과감	0
▁소상	0
▁리셋	0
벨트	0
이미지	0
승인	0
번지	0
▁예매	0
▁지침	0
놀	0
▁당원	0
▁뱅크	0
▁실효	0
▁상시	0
▁리더십	0
▁정작	0
분류	0
걸	0
▁적재	0
▁몰리	0
▁스피드	0
▁과잉	0
▁끝단	0
구청장	0
담보	0
▁파티	0
▁익숙	0
▁독점	0
▁유상	0
외교	0
▁오디션	0
▁바이어스	0
▁각기	0
▁틈	0
▁풍경	0
자기	0
▁국소	0
▁토양	0
▁테두리	0
▁탄산	0
▁도서	0
행복	0
▁매월	0
▁설사	0
▁사모	0
▁해설	0
▁사슬	0
▁상회	0
▁진지	0
▁개척	0
▁불참	0
자면	0
코스	0
▁다짐	0
▁접종	0
공시	0
분양	0
▁연수	0
▁이건	0
▁건전	0
▁클릭	0
▁국경	0
▁상관없	0
사원	0
▁내륙	0
▁치명	0
▁포스터	0
▁해경	0
▁대륙	0
조립	0
▁이식	0
▁상류	0
▁법령	0
마크	0
잘	0
신용	0
다양	0
직포	0
▁고대	0
흐름	0
유체	0
▁필	0
크기	0
▁작곡	0
▁방북	0
▁박물	0
상환	0
▁대리	0
▁경품	0
▁고양이	0
▁수험	0
농업	0
▁음주	0
▁샷	0
매김	0
▁공군	0
담당	0
무대	0
▁고시	0
연	0
▁확	0
▁열전	0
점수	0
▁증류	0
▁균열	0
▁만화	0
▁거짓	0
레이	0
보도	0
▁직물	0
▁서술	0
물량	0
▁제치	0
▁프랜차이즈	0
▁생일	0
브랜드	0
타이어	0
▁언니	0
▁원작	0
▁하류	0
▁객관	0
경영자	0
▁메커니즘	0
▁신혼	0
▁에스	0
▁열연	0
▁끊임없	0
▁인민	0
▁오직	0
캐스트	0
▁병역	0
일정	0
▁장악	0
업자	0
▁반환	0
유도	0
▁강성	0
주석	0
▁농장	0
공제	0
▁보육	0
가수	0
▁농민	0
▁기공	0
▁복제	0
▁황제	0
▁플러스	0
▁창작	0
▁전적	0
▁마이너스	0
▁상주	0
▁탐지	0
▁카세트	0
▁부식	0
▁터미널	0
▁요법	0
특이	0
▁짐	0
▁검거	0
▁정서	0
▁어른	0
▁훈훈	0
▁청산	0
▁감상	0
극본	0
▁공방	0
▁피막	0
▁인류	0
▁너트	0
보관	0
▁신부	0
▁볼륨	0
▁열매	0
을수록	0
▁열화	0
소비자	0
엔진	0
▁중독	0
▁대단	0
철	0
으니까	0
▁폐렴	0
▁아르헨티나	0
▁해고	0
▁주름	0
▁정정	0
▁이라크	0
무선	0
▁치유	0
령	0
수술	0
▁발주	0
집행	0
통로	0
▁열기	0
▁간극	0
▁재능	0
▁명목	0
▁유산	0
연기	0
▁융	0
▁박차	0
▁일괄	0
▁단락	0
용어	0
▁발병	0
기지	0
서로	0
▁응축	0
▁청탁	0
조성물	0
▁전수	0
▁대행	0
▁활력	0
▁숙박	0
▁동구	0
토크	0
▁송풍	0
▁내구	0
▁대변	0
▁타당	0
▁강점	0
▁냉	0
▁일찍	0
집회	0
바디	0
▁우세	0
▁종영	0
▁해킹	0
▁조도	0
하부	0
▁보컬	0
향후	0
증자	0
재판소	0
▁금전	0
▁재원	0
끝	0
노드	0
▁출사	0
▁착공	0
▁경비	0
▁유익	0
▁이슬람	0
융합	0
▁터빈	0
▁흡연	0
▁격	0
▁혈장	0
▁경쇄	0
▁항균	0
▁스팀	0
▁메이크업	0
▁장중	0
▁프로필	0
▁구제	0
▁제압	0
법안	0
▁실링	0
▁네트	0
▁적폐	0
▁사찰	0
해외	0
연장	0
▁무렵	0
욕	0
▁대장	0
▁과실	0
▁부자	0
▁아픔	0
가득	0
▁굴곡	0
▁해임	0
종류	0
▁입시	0
출원	0
대주주	0
스텝	0
베스트	0
▁농구	0
청사	0
톨	0
▁군수	0
▁증세	0
▁드림	0
▁마운드	0
▁선착	0
▁협정	0
▁기지	0
랄	0
▁공존	0
▁연일	0
▁대대	0
▁다량	0
면세	0
사법	0
노인	0
▁연루	0
▁견제	0
스테로이드	0
▁프리즘	0
▁농림	0
▁셔터	0
취재	0
부착	0
▁냉동	0
▁할리우드	0
합	0
▁아마존	0
▁플라스크	0
▁숙성	0
요일	0
▁브라우저	0
배출	0
▁대금	0
넥	0
▁병용	0
▁임부	0
▁코미디	0
▁주류	0
▁여수	0
라이트	0
코일	0
▁소금	0
▁외치	0
▁땀	0
▁키스	0
시점	0
▁예보	0
▁그려	0
▁과태	0
▁선진	0
▁관중	0
▁칼라	0
형체	0
▁과다	0
▁복사	0
기존	0
수출	0
▁착색	0
▁측근	0
▁결성	0
호기	0
▁매물	0
소스	0
확산	0
▁직권	0
운전	0
할인	0
▁입경	0
회수	0
유가	0
▁상해	0
▁기저	0
▁타인	0
▁하면	0
진통제	0
보상	0
▁리포트	0
학년도	0
▁고양	0
▁수질	0
▁유감	0
▁침전	0
갑	0
▁책정	0
▁프로듀서	0
세토	0
▁공고	0
확대	0
통공	0
▁워낙	0
▁숙주	0
▁타선	0
▁우한	0
▁결실	0
▁한창	0
사상	0
합병	0
리스	0
야드	0
동일	0
미군	0
▁유니폼	0
▁보편	0
▁온수	0
▁클램프	0
모노	0
▁합산	0
정제	0
▁간판	0
지정	0
▁긴밀	0
예정	0
▁고지	0
▁동맹	0
▁토너	0
변형	0
느냐는	0
기소	0
▁원본	0
▁야	0
▁고생	0
축산	0
▁급수	0
▁논평	0
타입	0
▁분열	0
▁아카데미	0
▁베타	0
▁과량	0
폭력	0
처음	0
가정	0
매치	0
노트	0
▁연쇄	0
그리고	0
▁중견	0
▁끈	0
▁흉기	0
▁산란	0
▁거칠	0
▁상표	0
▁쾌적	0
▁응집	0
▁잔여	0
▁산지	0
전국	0
▁글자	0
▁모인	0
남북	0
▁알콜	0
▁동종	0
▁붐	0
▁오버	0
▁택배	0
전선	0
통해	0
▁엔트리	0
▁용지	0
의학	0
▁조류	0
하지만	0
▁단식	0
보조	0
▁검지	0
▁공백	0
▁당첨	0
▁숙소	0
▁만료	0
▁컷	0
처장	0
▁중재	0
녀	0
기재	0
민족	0
▁합작	0
▁성상	0
볼트	0
▁정국	0
통제	0
▁동아	0
수처	0
림	0
▁당량	0
개편	0
▁상방	0
▁좌석	0
▁국산	0
▁불교	0
▁거세	0
▁플랫폼	0
택시	0
부담	0
변동	0
▁준수	0
마케팅	0
▁염두	0
▁십	0
▁오븐	0
조명	0
▁복권	0
충전	0
▁지면	0
▁시속	0
▁크림	0
▁주방	0
▁우유	0
▁골격	0
▁기포	0
▁닭	0
▁싸	0
박람회	0
▁악재	0
▁동행	0
▁갈색	0
▁학술	0
▁보전	0
▁손님	0
시절	0
역량	0
통신망	0
▁복무	0
종시	0
▁차분	0
톱	0
통신부	0
▁환산	0
균형	0
▁환형	0
▁소문	0
▁범인	0
적어도	0
요원	0
델	0
▁봉지	0
폴	0
▁편향	0
연료	0
▁크롬	0
▁직면	0
▁박수	0
드레	0
턴	0
컨	0
▁천천	0
보고	0
▁안경	0
교실	0
▁모자	0
▁출판	0
▁현직	0
▁인코더	0
군수	0
▁고스란	0
▁재활	0
▁스코어	0
▁수강	0
▁사우디	0
▁에피소드	0
▁관내	0
▁의제	0
냐고	0
대변인	0
▁사인	0
▁신원	0
▁자진	0
범	0
가장	0
▁계조	0
수상	0
유아	0
자연	0
▁국한	0
▁수혜	0
▁중립	0
램	0
▁인슐린	0
슛	0
▁스윙	0
▁매크로	0
▁바코드	0
연속	0
베이스	0
러시아	0
특징	0
▁답답	0
▁습식	0
먼지	0
▁항소	0
▁구토	0
▁탄도	0
▁세무	0
▁이견	0
▁권역	0
례	0
▁크다	0
▁건의	0
▁대박	0
피스	0
▁액화	0
▁빌딩	0
지식	0
▁필러	0
▁굽	0
밀	0
맞춤	0
▁측은	0
벌	0
▁타이머	0
▁육	0
▁메타	0
▁김정	0
▁조향	0
유입	0
▁일가	0
왜	0
▁슬라이더	0
특위	0
배관	0
▁단차	0
▁프로모터	0
▁밝기	0
▁개관	0
얼	0
▁법칙	0
화부	0
▁계란	0
▁무늬	0
▁트럭	0
▁발부	0
▁지리	0
뉴	0
▁가게	0
▁알레르기	0
▁유쾌	0
▁침	0
헌	0
대화	0
▁수년	0
▁칼륨	0
▁히	0
강전	0
▁주축	0
▁붙이	0
향	0
▁캔	0
▁서식	0
▁분화	0
▁힙합	0
가왕	0
▁구호	0
▁수량	0
느라	0
▁육상	0
복수	0
옥사	0
▁소켓	0
차관	0
지상	0
▁파트	0
집단	0
▁시야	0
▁수수	0
세종	0
▁며칠	0
구비	0
▁거울	0
혼합물	0
바이	0
보안	0
▁혈당	0
▁아이디	0
▁치과	0
▁실용	0
심판	0
주인	0
▁생생	0
▁구도	0
▁박람	0
유사	0
셉	0
▁근절	0
▁공주	0
▁민심	0
▁툴	0
슬	0
▁미흡	0
▁환류	0
▁마모	0
▁일본인	0
▁맥락	0
▁형질	0
▁유럽연합	0
희망	0
▁신약	0
▁종가	0
힘	0
균일	0
레버	0
▁징후	0
▁비대	0
▁표결	0
▁라벨	0
▁내각	0
컴퓨터	0
▁주당	0
▁자칫	0
결혼	0
▁능동	0
▁백성	0
방해	0
▁선포	0
블랙	0
▁해수	0
▁총수	0
채용	0
▁디젤	0
▁불가	0
▁감면	0
로봇	0
▁탈당	0
▁복지부	0
▁치킨	0
섬	0
▁분무	0
▁엘리베이터	0
▁보이스	0
분말	0
그런	0
▁도장	0
공유	0
나무	0
병증	0
▁공감대	0
▁감량	0
▁천공	0
▁기량	0
▁키보드	0
남부	0
▁모범	0
▁종결	0
당하	0
▁국고	0
▁채팅	0
▁존경	0
▁맥	0
라서	0
▁우정	0
▁동남아	0
▁벽면	0
▁파주	0
▁폭탄	0
▁밀집	0
▁침착	0
▁즐거움	0
감염	0
▁팝	0
▁존재감	0
▁생리	0
▁정합	0
▁골자	0
▁행태	0
▁커맨드	0
▁시멘트	0
소속	0
▁변천	0
▁의자	0
▁반입	0
▁엘	0
▁다이아몬드	0
▁입대	0
▁감수	0
기본	0
▁침대	0
밥	0
말단	0
자문	0
▁채소	0
치가	0
목표	0
엄마	0
▁나름	0
동체	0
경쟁력	0
▁명성	0
▁단단	0
메달	0
▁오름세	0
▁벤	0
▁부적절	0
▁출자	0
▁과열	0
▁여전	0
▁상권	0
▁출처	0
대상자	0
▁반해	0
▁종자	0
보통	0
▁전속	0
▁유예	0
캠퍼스	0
▁침몰	0
▁탈수	0
▁낫	0
자석	0
유출	0
카페	0
▁가축	0
▁메신저	0
▁장력	0
▁비아	0
▁실체	0
▁덕트	0
▁유망	0
▁청장	0
▁도박	0
원인	0
▁소량	0
▁영웅	0
▁안다	0
▁에코	0
▁줌	0
논	0
▁법관	0
토지	0
착	0
▁객실	0
차이	0
수입	0
▁권선	0
▁학문	0
작전	0
미드	0
▁밤새	0
▁명분	0
▁행운	0
요인	0
야당	0
▁도덕	0
▁공제	0
▁풍성	0
▁개량	0
▁소멸	0
▁타결	0
▁안출	0
면부	0
침	0
▁밀리	0
▁라고	0
▁절약	0
빅	0
▁추위	0
작동	0
▁근대	0
▁취한	0
▁오빠	0
▁삭감	0
▁매트	0
▁컬렉션	0
▁본관	0
▁소거	0
▁고충	0
찬	0
▁조인트	0
▁기류	0
회원	0
군사	0
▁욕심	0
▁종단	0
음성	0
발표	0
▁약정	0
▁벨	0
분자량	0
▁깔끔	0
▁콩	0
▁삼진	0
▁사양	0
▁드레스	0
건물	0
웨이	0
중학교	0
▁흑	0
▁스타디움	0
학기	0
▁면허	0
▁가이드라인	0
▁감탄	0
▁교대	0
수도	0
▁오존	0
▁법조	0
▁계통	0
▁유관	0
▁꽤	0
▁밀접	0
▁양보	0
▁배후	0
분쟁	0
도어	0
▁구강	0
해석	0
▁육박	0
▁우호	0
▁무력	0
▁수장	0
▁짜	0
구조물	0
▁대본	0
칼륨	0
▁원금	0
억제	0
졸	0
▁명명	0
사유	0
드림	0
▁결선	0
▁바깥	0
남용	0
▁교원	0
▁갤러리	0
▁니트	0
아웃	0
전시	0
▁서면	0
▁휴	0
▁오랜만	0
편성	0
▁소망	0
▁궤도	0
▁유물	0
▁컨디션	0
▁정례	0
▁스프레이	0
▁직쇄	0
▁이모	0
▁입금	0
▁논쟁	0
▁당당	0
승점	0
알코올	0
램프	0
홍	0
품질	0
▁풍력	0
사졸	0
등기	0
능	0
▁상자	0
▁전분	0
직접	0
▁떨	0
교체	0
▁다툼	0
▁암모니아	0
경화	0
▁중개	0
▁먹이	0
▁대두	0
▁눈치	0
저하	0
▁가끔	0
▁대개	0
적용	0
▁각주	0
주의	0
▁시티	0
▁색소	0
▁모래	0
▁극심	0
▁입단	0
규명	0
▁대세	0
▁당업	0
▁개요	0
▁국감	0
▁재계	0
플레이	0
▁북구	0
▁경감	0
▁성별	0
▁레이더	0
▁적법	0
▁감찰	0
기초	0
▁화합	0
거부	0
원전	0
▁만찬	0
▁목격	0
▁카리스마	0
▁뉴질랜드	0
그린	0
재난	0
전망	0
▁지붕	0
▁굳이	0
빙	0
▁칠	0
상표	0
▁오차	0
사기	0
우주	0
담배	0
유럽	0
엘	0
매매	0
▁나흘	0
▁기성	0
실질	0
▁왜냐하면	0
단백질	0
▁광선	0
완전	0
▁점심	0
▁아세안	0
▁유독	0
▁출간	0
신탁	0
▁자정	0
▁낚시	0
▁롱	0
복	0
▁큐	0
항목	0
▁상판	0
▁지주	0
증착	0
▁인삼	0
▁별명	0
▁원단	0
시드	0
▁국부	0
보이	0
▁무색	0
▁임하	0
▁끼움	0
문자	0
자격	0
▁병사	0
주자	0
▁주전	0
▁교황	0
위안	0
▁점진	0
▁인센티브	0
▁생계	0
처벌	0
▁살짝	0
방문	0
알루미늄	0
▁등기	0
반사	0
▁가산	0
▁백금	0
▁실감	0
▁근황	0
죄	0
계열	0
산염	0
▁장군	0
▁신작	0
▁위대	0
▁효	0
조달	0
▁과징	0
▁규탄	0
▁공업	0
항체	0
▁급감	0
▁수법	0
모두	0
미팅	0
좀	0
▁이념	0
▁취향	0
▁감기	0
포르	0
▁한은	0
촉진	0
파워	0
약물	0
헥사	0
▁포트폴리오	0
▁지장	0
▁특강	0
▁타워	0
▁실전	0
▁후퇴	0
친	0
▁진폭	0
▁남용	0
당신	0
재판	0
▁교역	0
▁목재	0
▁대면	0
▁문체	0
▁정점	0
▁살피	0
▁때로	0
엑스	0
▁창문	0
▁속해	0
▁산다	0
▁차선	0
▁흙	0
▁제국	0
▁몰래	0
변호사	0
부총리	0
▁급속	0
▁개소	0
▁그저	0
▁스캐닝	0
▁공단	0
우승	0
▁세련	0
선거법	0
▁몽골	0
▁과민	0
▁열악	0
▁페달	0
공동체	0
▁상식	0
▁시상	0
▁프로그래밍	0
▁보행	0
어떤	0
▁누름	0
▁리플	0
▁포부	0
촌	0
차단	0
▁섹터	0
▁인성	0
▁소염	0
▁경량	0
스크린	0
▁해지	0
▁무한	0
▁섬세	0
▁낭비	0
▁곁	0
합성	0
▁오사카	0
▁부리	0
▁픽업	0
▁공론	0
▁내비게이션	0
청와대	0
▁유적	0
주주	0
정권	0
인프라	0
▁요원	0
터치	0
소녀	0
▁빵	0
▁신차	0
▁청사	0
▁환기	0
▁외무	0
▁어찌	0
▁악취	0
▁이색	0
▁질서	0
정보원	0
가입	0
플랫	0
▁여섯	0
불량	0
▁표본	0
▁입담	0
▁소독	0
▁화장	0
점유	0
▁갓	0
▁염수	0
▁폼	0
▁시드	0
▁가닥	0
의약품	0
▁클립	0
진행	0
화성	0
▁만만	0
▁재해	0
해운	0
▁마다	0
▁사격	0
진출	0
▁감자	0
▁위조	0
근로자	0
콘서트	0
▁비극	0
정원	0
진짜	0
▁달콤	0
▁대입	0
각도	0
▁허락	0
▁월급	0
▁모발	0
어느	0
패션	0
▁레스토랑	0
판단	0
▁소오	0
▁재킷	0
▁습관	0
▁픽	0
▁곽	0
최	0
가요	0
▁바르	0
▁흑연	0
부탄	0
▁벨기에	0
비중	0
▁선명	0
▁양도	0
▁완	0
▁피트	0
▁피로	0
전용	0
▁석방	0
▁한번	0
▁그럼	0
료	0
▁염산	0
캡슐	0
▁상수	0
▁취미	0
▁처지	0
스케이팅	0
▁변이	0
최대	0
주면	0
▁옛날	0
▁심도	0
▁보일러	0
▁여인	0
▁우회	0
▁침묵	0
▁일명	0
▁그릇	0
와이어	0
▁할아버지	0
이것	0
▁태아	0
인하	0
▁심경	0
▁센스	0
연출	0
▁회생	0
▁단리	0
▁송금	0
면역	0
▁호환	0
▁교실	0
▁함침	0
▁컨소시엄	0
동맹	0
▁창구	0
▁독서	0
견	0
▁절실	0
성과	0
▁과목	0
▁드릴	0
▁골드	0
▁석출	0
▁리세	0
테이블	0
▁이별	0
사장	0
▁변론	0
▁지혜	0
▁헌신	0
▁로비	0
이소	0
▁항만	0
▁산학	0
▁실명	0
유부	0
학부	0
동향	0
모르	0
규	0
▁약자	0
▁특사	0
요구	0
▁기세	0
▁중시	0
여름	0
▁정세	0
텔	0
▁청취	0
▁페이스	0
▁젖	0
▁토	0
리드	0
▁엄중	0
▁우대	0
▁이집트	0
용지	0
▁응모	0
▁조업	0
▁호르몬	0
▁곡면	0
▁호스	0
원대	0
▁그리드	0
증상	0
▁음파	0
▁오토	0
▁심정	0
자동	0
수송	0
▁공극	0
고교	0
낼	0
▁공짜	0
혁	0
▁제자	0
▁영토	0
원료	0
▁용적	0
▁로그	0
▁낙하	0
▁피아노	0
흡수	0
▁언	0
▁라미	0
담	0
▁성실	0
만주	0
매우	0
미아	0
니스	0
리조트	0
▁몰딩	0
텍스	0
▁기증	0
▁잔존	0
▁차익	0
화상	0
▁토큰	0
절부	0
파트	0
▁학대	0
▁팽팽	0
▁안개	0
▁퇴진	0
둘	0
▁피처	0
▁시편	0
▁자명	0
패스	0
▁용출	0
▁다정	0
▁기한	0
멤버십	0
▁약하	0
▁제스처	0
펀트	0
▁콘덴서	0
가소	0
부진	0
▁스캔들	0
▁한꺼번	0
워	0
에다	0
▁안보리	0
원소	0
▁민사	0
▁모시	0
모임	0
맘	0
▁더위	0
경보	0
▁실외	0
▁송치	0
우위	0
▁작사	0
차장	0
▁노화	0
▁폭소	0
▁정성	0
▁평년	0
양성	0
▁호재	0
작품	0
▁주조	0
▁수조	0
▁자꾸	0
▁정극	0
예선	0
▁혹시	0
테일	0
▁남측	0
생물	0
▁승차	0
그것	0
▁케어	0
▁혼인	0
▁엑	0
▁교장	0
▁총력	0
고는	0
너무	0
빌딩	0
▁비치	0
▁국비	0
화물	0
케이블	0
▁학자	0
▁절개	0
▁순도	0
검색	0
▁통장	0
생태	0
전처	0
▁내열	0
▁욕설	0
▁붓	0
▁걸음	0
마당	0
아빠	0
만약	0
▁천식	0
▁사외	0
▁응고	0
▁외벽	0
독일	0
▁대치	0
▁양사	0
홍보	0
▁단층	0
▁청정	0
▁글라스	0
▁매수세	0
▁재화	0
종이	0
하위	0
▁증강	0
법상	0
▁학과	0
근	0
▁기적	0
▁핑크	0
▁권유	0
으려고	0
▁파문	0
보유	0
공화국	0
다수	0
당한	0
유치	0
▁병합	0
▁라는	0
▁연초	0
▁호수	0
면허	0
▁랙	0
▁불화	0
워킹	0
▁연성	0
▁커뮤니케이션	0
▁인양	0
▁하우스	0
▁권위	0
▁정통	0
▁표출	0
경험	0
▁정산	0
▁유속	0
저널	0
펄스	0
▁내벽	0
▁총액	0
관능	0
▁포유	0
▁그만	0
▁근방	0
▁총기	0
▁해방	0
▁무사	0
▁걸림	0
▁로그인	0
▁가난	0
▁은폐	0
희롱	0
현황	0
▁투구	0
약품	0
▁인형	0
▁수시	0
▁아르바이트	0
▁산물	0
▁배분	0
▁사각	0
▁등극	0
▁증액	0
▁독려	0
▁포획	0
정말	0
▁건너	0
시행	0
▁도막	0
▁차종	0
▁투사	0
▁대여	0
▁천장	0
▁외화	0
▁튀	0
▁극히	0
식물	0
▁양질	0
의무	0
초기	0
해소	0
손해	0
▁후단	0
▁사임	0
여당	0
향상	0
잉	0
▁신흥	0
▁댐	0
▁항구	0
▁광전	0
▁다발	0
▁탈착	0
캠	0
▁척추	0
▁도주	0
조성	0
▁밴	0
▁다행	0
휠	0
▁리프트	0
▁라면	0
▁쿠션	0
▁이종	0
▁도료	0
▁빈번	0
▁화해	0
비전	0
▁아일랜드	0
헬스	0
인자	0
▁주역	0
▁외출	0
공업	0
▁믿음	0
▁실물	0
▁선원	0
▁임용	0
▁졸	0
혼합	0
▁꼬리	0
▁기점	0
▁명문	0
내일	0
▁방통	0
▁최강	0
▁구미	0
▁무척	0
▁침수	0
▁외경	0
감시	0
▁가담	0
북부	0
어스	0
질서	0
문학	0
▁소매	0
▁후회	0
▁감도	0
분할	0
▁코레	0
▁부유	0
▁중추	0
▁그야	0
억제제	0
리바운드	0
선생	0
▁휘	0
▁폴란드	0
▁혼입	0
개념	0
▁전라남도	0
▁패치	0
▁동서	0
▁리조트	0
▁화질	0
▁기하	0
▁진압	0
▁실형	0
유동	0
학	0
통계	0
▁최상	0
▁영동	0
▁피리	0
▁그립	0
▁결단	0
배구	0
▁염려	0
주의보	0
▁행해	0
▁유진	0
상장	0
▁극찬	0
▁친분	0
언	0
▁트라이	0
▁축사	0
합계	0
▁광경	0
▁장병	0
▁가세	0
▁비자	0
모씨	0
▁감당	0
▁창고	0
▁어댑터	0
비시	0
농가	0
어치	0
▁누나	0
투쟁	0
▁정형	0
아래	0
▁부극	0
▁창단	0
▁워크숍	0
▁창당	0
▁고집	0
▁왁스	0
▁내경	0
▁남구	0
▁겨우	0
▁라이브러리	0
▁액수	0
▁결속	0
▁스테이	0
덕	0
▁메가	0
회의소	0
▁월세	0
▁누출	0
▁잭	0
개시	0
▁여왕	0
▁등재	0
▁종로	0
▁이거	0
▁연체	0
▁방수	0
▁계승	0
▁욕	0
▁주형	0
▁종사	0
▁환호	0
▁회상	0
변	0
▁고안	0
접수	0
▁워	0
▁박테리아	0
▁포집	0
▁혈소판	0
▁건식	0
▁받침	0
▁일선	0
▁과립	0
유전자	0
▁어선	0
▁전복	0
▁부임	0
▁취해	0
▁다큐멘터리	0
▁간소	0
▁파라	0
▁숨기	0
▁법제	0
▁장사	0
수급	0
▁두각	0
▁관건	0
멤버	0
코트	0
개방	0
▁치밀	0
▁소액	0
▁신재	0
▁스탠드	0
▁샘	0
▁그렇지	0
▁접전	0
혈관	0
널	0
▁윤곽	0
▁부양	0
▁진한	0
▁서빙	0
사령부	0
▁지폐	0
예측	0
영국	0
▁궁극	0
▁진학	0
▁출현	0
장사	0
벨	0
단독	0
▁주부	0
▁장수	0
▁해산	0
▁타이	0
▁모금	0
▁도관	0
비밀	0
노선	0
창출	0
▁인종	0
▁강구	0
태평양	0
방어	0
복면	0
기회	0
▁가령	0
▁리콜	0
▁새끼	0
▁터치스크린	0
과세	0
▁리듬	0
▁상속	0
▁거품	0
▁커서	0
메일	0
▁표창	0
▁내정	0
▁문맥	0
▁기운	0
전이	0
▁화폐	0
입장	0
▁주춤	0
▁심근	0
원자력	0
▁납치	0
▁해역	0
▁켜	0
첫	0
▁상습	0
▁승격	0
상자	0
▁소명	0
▁미팅	0
▁역학	0
▁보답	0
잔	0
정밀	0
▁슬픔	0
개정	0
특보	0
▁황금	0
▁가맹	0
▁마디	0
▁미얀마	0
▁인덕	0
트라이	0
아들	0
▁구배	0
▁부시	0
▁적시	0
▁캠퍼스	0
취업	0
▁증설	0
▁파생	0
토론	0
▁교섭	0
▁조짐	0
수산	0
▁원수	0
▁최후	0
▁밸런스	0
▁기아	0
더블	0
혜택	0
길이	0
센스	0
룰	0
▁안면	0
검증	0
동의	0
▁공로	0
▁인플루엔자	0
▁보석	0
▁미미	0
▁위촉	0
▁잔액	0
지속	0
▁바늘	0
바다	0
▁블랙리스트	0
인조	0
▁멸균	0
슈퍼	0
▁체질	0
부모	0
▁티셔츠	0
▁실점	0
오일	0
▁헝가리	0
보험료	0
▁콘택트	0
너스	0
▁태평양	0
▁설탕	0
▁유화	0
건수	0
미술관	0
기일	0
▁코믹	0
▁소치	0
▁트레이닝	0
▁일자	0
▁돌풍	0
▁퀴즈	0
으려	0
노동자	0
스리	0
▁휴일	0
▁연안	0
뒤	0
해선	0
지연	0
▁균	0
적자	0
마이크	0
▁악기	0
▁수산	0
첨가	0
눈	0
도움	0
소설	0
▁지령	0
배당	0
▁아세톤	0
▁시비	0
▁토끼	0
증진	0
▁차등	0
자형	0
▁헥산	0
연소	0
충격	0
서류	0
▁당사	0
▁마늘	0
▁유성	0
▁든든	0
세월	0
숲	0
연계	0
단체장	0
▁베테랑	0
사제	0
체인	0
터널	0
▁포르투갈	0
산소	0
▁후손	0
투수	0
당과	0
▁저조	0
▁로고	0
▁적하	0
드릴	0
▁논	0
▁인서	0
원단	0
연수	0
발현	0
▁외상	0
▁비결	0
▁간략	0
이노베이션	0
편의	0
▁정교	0
▁파이	0
원회	0
돼지	0
▁범용	0
▁효성	0
▁신년	0
▁관료	0
▁평등	0
경색	0
▁분주	0
▁선로	0
▁헥사	0
만족	0
▁읍	0
▁아산	0
▁슛	0
터부	0
마음	0
티티	0
▁중성	0
▁사면	0
▁파크	0
▁두루	0
▁축합	0
▁열거	0
▁공작	0
▁리턴	0
부지	0
열차	0
▁너비	0
▁고점	0
대강	0
▁양파	0
▁폐수	0
▁나스닥	0
▁질주	0
방출	0
부서	0
사태	0
▁열람	0
인터뷰	0
▁일찌감치	0
▁샤워	0
▁기동	0
▁맨체스터	0
▁전산	0
▁약사	0
▁간사	0
리브	0
▁라이너	0
기한	0
▁이수	0
▁쐐기	0
▁모뎀	0
▁파산	0
▁금연	0
▁거동	0
허브	0
냉각	0
▁케이크	0
▁유인	0
▁학계	0
자극	0
으려는	0
▁장난	0
▁앵	0
▁평형	0
일지	0
▁구경	0
소통	0
▁이성	0
▁촉각	0
▁전작	0
▁향기	0
미술	0
관한	0
▁바이어	0
커피	0
매출	0
▁오페라	0
▁항암	0
고시	0
▁스페이스	0
▁단수	0
▁진도	0
▁드디어	0
▁한중	0
▁배리	0
웃음	0
▁마비	0
▁인입	0
포장	0
가의	0
참	0
▁샌프란시스코	0
컷	0
절연	0
▁중력	0
▁상공	0
지급	0
▁멜로디	0
▁단가	0
▁간염	0
홀더	0
▁정오	0
▁사냥	0
팁	0
▁한방	0
▁조지	0
▁바위	0
▁마트	0
▁불펜	0
우드	0
▁구청	0
▁스키	0
▁분출	0
▁제의	0
자신	0
예약	0
▁레이아웃	0
▁심해	0
▁보류	0
단기	0
▁학업	0
▁강풍	0
▁낙폭	0
▁한파	0
▁결별	0
▁각지	0
▁쇼트	0
▁확고	0
▁일축	0
▁퇴적	0
▁역설	0
▁호투	0
첨단	0
▁백업	0
▁고의	0
▁강좌	0
▁감마	0
▁위약	0
털	0
▁피겨	0
리튬	0
▁판시	0
▁소진	0
▁파도	0
높이	0
단면	0
▁광축	0
어린이	0
연도	0
교육감	0
▁사원	0
▁습기	0
합리	0
상품권	0
▁명소	0
사인	0
대기	0
칼슘	0
▁렌	0
피해자	0
짓	0
현실	0
▁위력	0
▁오찬	0
▁정답	0
▁펜스	0
▁중형	0
▁미스	0
▁세팅	0
노동조합	0
둥이	0
출연	0
제기	0
▁슬립	0
▁하한	0
▁파기	0
▁후임	0
▁리본	0
▁천재	0
좌표	0
▁품종	0
▁부터	0
통일	0
단과	0
▁선점	0
▁법무	0
▁위임	0
▁안산	0
▁저서	0
▁푸드	0
인돌	0
▁축산	0
▁가뭄	0
스토리	0
발언	0
▁우아	0
▁암시	0
▁좌절	0
침체	0
▁크레인	0
한도	0
▁제반	0
▁집광	0
▁과금	0
추출	0
▁승계	0
수율	0
가상	0
▁오로지	0
꿈	0
청산	0
겨울	0
태	0
▁학위	0
태그	0
▁관제	0
▁오스트리아	0
▁꼴	0
▁골목	0
추	0
▁시한	0
▁공표	0
낮	0
기억	0
▁영세	0
▁수천	0
▁자궁	0
울	0
지시	0
▁수감	0
▁외식	0
▁체내	0
▁공채	0
상호	0
▁교감	0
▁마땅	0
중단	0
▁그릴	0
▁감속	0
▁크랙	0
곤란	0
▁구원	0
▁점프	0
▁브러시	0
▁관장	0
검장	0
▁자재	0
냉	0
유형	0
상업	0
▁달걀	0
▁간장	0
▁통행	0
보좌관	0
▁요양	0
▁신조	0
송부	0
▁구두	0
입부	0
▁번영	0
▁유혹	0
▁흡인	0
▁자립	0
▁타일	0
다이	0
약식	0
▁호전	0
▁설레	0
▁라이벌	0
▁흡기	0
▁슬로건	0
지출	0
▁낙찰	0
분포	0
충분	0
검토	0
석유	0
▁실리	0
맥주	0
체가	0
모일	0
▁필라멘트	0
▁악용	0
▁퇴장	0
▁콜레스테롤	0
트랩	0
▁유세	0
카운트	0
군요	0
▁에이	0
▁기화	0
정수	0
▁잠깐	0
▁한우	0
혐의	0
음식	0
▁다지	0
▁곱	0
▁공영	0
▁골수	0
▁권익	0
▁정유	0
▁복부	0
맛	0
▁훌쩍	0
삼진	0
디바이스	0
▁턱	0
▁껍질	0
▁치즈	0
▁반격	0
▁납	0
▁해요	0
▁균질	0
▁행장	0
▁지대	0
▁대지	0
▁징수	0
▁에어	0
▁충주	0
피고인	0
▁두려움	0
한자	0
▁정시	0
장착	0
분과	0
▁함몰	0
▁수호	0
▁와중	0
자율	0
▁폐암	0
▁덴마크	0
▁차동	0
광학	0
▁세븐	0
▁전임	0
▁초콜릿	0
▁저압	0
▁그대	0
▁기침	0
▁익명	0
겸	0
디아	0
▁해리	0
▁흑색	0
▁가죽	0
▁퓨즈	0
돔	0
대칭	0
라디오	0
접합	0
요건	0
실업	0
물품	0
▁소원	0
▁슬라이스	0
▁점령	0
▁평일	0
▁식이	0
▁소주	0
▁힐	0
상대	0
▁퇴출	0
▁단정	0
메뉴	0
동단	0
▁반납	0
모집	0
▁단원	0
▁아마추어	0
▁반등	0
벡터	0
▁부종	0
▁아레나	0
힐	0
▁경관	0
▁게놈	0
▁산재	0
인도	0
▁노트	0
▁램	0
▁비수	0
법률	0
▁공용	0
▁일예	0
▁말기	0
▁징	0
회의실	0
▁본점	0
▁연비	0
▁인선	0
▁각별	0
▁릴	0
외국인	0
▁레인	0
▁저점	0
▁짐작	0
실내	0
▁불신	0
▁당뇨	0
▁패러다임	0
추천	0
확장	0
▁계시	0
▁똑같	0
▁아스	0
▁모호	0
▁어쨌든	0
▁재심	0
▁굿	0
▁축선	0
▁컬	0
▁낙관	0
▁젤	0
▁예년	0
▁파우더	0
▁편견	0
▁동화	0
놀이	0
드럼	0
▁신상	0
▁보태	0
▁키패드	0
이랑	0
▁건데	0
▁유류	0
다니	0
▁고립	0
▁차림	0
▁셀프	0
참고	0
수축	0
▁단서	0
▁반론	0
▁경연	0
테스트	0
▁식욕	0
▁소변	0
삽입	0
▁메카	0
▁루	0
▁렌더링	0
▁부응	0
▁순방	0
수수	0
▁백제	0
▁전구	0
인과	0
▁급식	0
▁구인	0
공식	0
▁에어로졸	0
▁고구려	0
▁플랜트	0
▁무덤	0
단의	0
합부	0
▁위배	0
▁선반	0
백만	0
▁염화	0
▁반하	0
▁마진	0
▁계곡	0
▁울리	0
▁곤충	0
럭	0
산액	0
▁육안	0
서브	0
▁해시	0
▁기리	0
갈등	0
▁출하	0
독립	0
▁몰입	0
▁스크랩	0
▁교량	0
▁잡지	0
▁욕구	0
▁사형	0
덕트	0
▁보스	0
선부	0
육성	0
▁횡단	0
▁사설	0
환부	0
진영	0
통과	0
주변	0
픽셀	0
▁줄곧	0
출구	0
청원	0
나프탈렌	0
공고	0
▁뱅킹	0
▁사죄	0
날개	0
▁최장	0
끼	0
▁바이트	0
▁막내	0
▁각광	0
▁상봉	0
▁손목	0
▁판로	0
▁콜라겐	0
▁아무래도	0
▁매번	0
▁공문	0
▁독보	0
▁오리지널	0
▁학력	0
▁동명	0
▁짝	0
▁추이	0
▁실사	0
▁테니스	0
▁자막	0
응	0
▁완만	0
▁화답	0
슈퍼맨	0
프로젝트	0
▁드라이	0
오후	0
▁국어	0
개부	0
▁풍미	0
▁사우디아라비아	0
▁일당	0
▁촉발	0
▁희	0
▁단절	0
▁나간	0
중간	0
▁급성	0
▁고액	0
▁매뉴얼	0
▁트로피	0
▁고심	0
▁연하	0
크릴	0
분사	0
▁양해	0
▁거액	0
주소	0
▁칠레	0
▁수당	0
▁안드로이드	0
프랑스	0
▁양심	0
▁순조	0
구청	0
▁전념	0
▁신기	0
봄	0
▁예수	0
▁문양	0
헌법	0
▁말초	0
머리	0
▁황토	0
▁용서	0
페스티벌	0
▁나열	0
루프	0
하이	0
▁조속	0
▁쇼트트랙	0
▁충당	0
▁카라	0
▁일간	0
▁우편	0
▁반출	0
▁로켓	0
정렬	0
▁보스턴	0
▁굴	0
▁해운	0
려던	0
▁교제	0
근무	0
▁청각	0
▁도보	0
▁경상남도	0
▁역세	0
▁임박	0
고법	0
▁업소	0
▁미용	0
훼손	0
옵션	0
▁투광	0
분배	0
▁흥분	0
▁도시락	0
훈	0
서경	0
통장	0
형제	0
분산	0
몸	0
▁폭우	0
▁석사	0
▁트레이드	0
출처	0
조기	0
▁주니어	0
▁무겁	0
박막	0
▁군민	0
입찰	0
검진	0
▁찬반	0
▁블로킹	0
▁포인터	0
▁조카	0
면도	0
▁벽체	0
▁약액	0
▁복조	0
▁가온	0
▁멘	0
▁정관	0
정화	0
구단	0
▁편심	0
▁강인	0
▁스크롤	0
일단	0
도민	0
▁룰	0
▁본회	0
람	0
▁입술	0
▁열흘	0
▁태연	0
▁전라북도	0
▁시력	0
▁제천	0
▁종속	0
캐리어	0
▁버너	0
▁공헌	0
▁대부	0
▁발길	0
여러	0
▁원조	0
▁성취	0
▁한복	0
단속	0
▁성원	0
▁산책	0
지청	0
친화	0
단가	0
▁방제	0
▁후진	0
▁일차	0
세금	0
키스	0
▁오토바이	0
▁농사	0
▁국외	0
▁양형	0
폐	0
▁운수	0
부들	0
▁광산	0
▁용리	0
앰	0
▁캄보디아	0
▁식량	0
▁여정	0
▁역류	0
▁냉기	0
주체	0
▁승소	0
▁피자	0
▁분담	0
▁출제	0
직경	0
살인	0
▁하회	0
중합	0
웹	0
존재	0
이자	0
▁기생	0
이야기	0
▁직각	0
▁비유	0
▁융점	0
▁판교	0
▁증여	0
칠	0
▁고부	0
은지	0
▁자매	0
미만	0
▁전승	0
자체	0
▁세수	0
▁직구	0
▁무방	0
주요	0
시작	0
▁당정	0
▁딴	0
▁액세서리	0
▁여객	0
▁부수	0
전방	0
컨설팅	0
▁유추	0
▁장례	0
가열	0
▁실습	0
픽	0
▁일행	0
테러	0
▁반죽	0
▁파쇄	0
포름	0
▁티오	0
▁요오드	0
호주	0
▁분광	0
▁작물	0
건전	0
비르	0
▁발라드	0
▁템플	0
▁창설	0
▁펀치	0
조국	0
▁중진	0
▁서양	0
▁돔	0
▁냉방	0
▁베네수엘라	0
임의	0
실기	0
▁조종	0
센트	0
▁영예	0
▁부친	0
▁역동	0
부족	0
▁사령	0
▁주머니	0
취소	0
▁해변	0
반대	0
▁환수	0
▁민중	0
▁직결	0
광역시	0
실행	0
강사	0
▁입맛	0
▁필기	0
▁소실	0
보복	0
▁가솔린	0
한화	0
주연	0
▁판재	0
▁헤	0
▁용품	0
▁새삼	0
보전	0
▁지성	0
샤프트	0
▁잔사	0
▁노르웨이	0
▁비로소	0
형사	0
수집	0
플라이	0
구부	0
▁연중	0
사드	0
자식	0
▁벤치	0
연애	0
▁되풀	0
▁발화	0
성향	0
▁뭘	0
▁시연	0
음료	0
국립	0
접종	0
▁친화	0
진이	0
학급	0
▁가용	0
▁상보	0
면접	0
▁벌크	0
▁떡	0
▁속속	0
▁제사	0
▁통전	0
쓰레기	0
리터	0
▁공명	0
▁철근	0
▁객원	0
▁영감	0
전통	0
▁원점	0
식당	0
▁이민	0
▁워너	0
고도	0
▁재편	0
▁박탈	0
▁한자	0
▁고형	0
위반	0
▁업적	0
강하	0
▁소극	0
▁화력	0
▁광물	0
▁다우	0
워드	0
▁국세	0
▁업로드	0
▁납득	0
녹취	0
▁충실	0
▁시차	0
수용	0
▁가결	0
▁욕망	0
럼	0
▁지각	0
그런데	0
간대	0
▁포수	0
▁푸시	0
▁신탁	0
역할	0
▁스캐너	0
▁카지노	0
▁부속	0
▁뻔	0
컬	0
▁의약	0
절감	0
▁지갑	0
이라도	0
▁옥상	0
민주주의	0
▁특색	0
▁석영	0
모스	0
증서	0
민간	0
▁민관	0
▁재임	0
추출물	0
▁광량	0
▁사나이	0
▁누락	0
▁선장	0
그림	0
총괄	0
▁근원	0
▁비준	0
▁동선	0
▁자력	0
배양	0
▁스프	0
▁경호	0
여고	0
다리	0
▁농담	0
▁원판	0
시립	0
▁평평	0
▁루트	0
▁곡물	0
▁화두	0
▁오렌지	0
▁남미	0
직업	0
▁흑인	0
한정	0
▁까닭	0
▁놀라움	0
▁혐오	0
스키	0
▁패킹	0
▁외장	0
▁저부	0
바른	0
▁배설	0
▁합법	0
▁그래	0
동네	0
▁생육	0
▁우즈베키스탄	0
▁신비	0
로프	0
매장	0
▁익	0
▁더구나	0
피부	0
▁플라이	0
▁통치	0
침해	0
▁퇴근	0
▁가문	0
▁리포터	0
▁고강	0
▁감쇠	0
▁구사	0
▁납입	0
지분	0
▁핸드	0
▁전한	0
▁개조	0
▁결핍	0
▁총량	0
▁장외	0
우선	0
▁망간	0
저감	0
▁압입	0
▁탤런트	0
▁조처	0
▁저급	0
▁전량	0
인생	0
▁평활	0
에탄올	0
▁발음	0
▁청렴	0
▁피니언	0
▁공무	0
▁바둑	0
▁입양	0
▁편평	0
클론	0
▁마라톤	0
▁폐업	0
복무	0
▁공법	0
▁도래	0
▁대항	0
▁모스크바	0
▁조용	0
전당	0
스테인	0
▁번지	0
▁폭풍	0
하늘	0
▁동문	0
확보	0
수영	0
▁동정	0
▁고비	0
▁서방	0
▁퇴임	0
▁마당	0
지침	0
▁정적	0
보존	0
▁마일리지	0
▁미끄럼	0
▁발족	0
▁주권	0
▁사옥	0
▁연임	0
▁민선	0
▁대미	0
행진	0
▁귀환	0
남녀	0
▁태권	0
▁퍼센트	0
▁양념	0
오프라인	0
품목	0
▁집필	0
굿	0
▁투석	0
성기	0
문화재	0
▁생선	0
▁책상	0
▁인플레이션	0
▁스님	0
특수	0
▁미달	0
▁상점	0
▁꽉	0
▁우울	0
▁가늠	0
아자	0
러브	0
▁스타트	0
개입	0
횟수	0
▁추종	0
▁겉	0
▁수목	0
어선	0
▁제발	0
▁원피스	0
▁왕자	0
▁상쇄	0
▁마이크로	0
▁트랩	0
▁한인	0
▁브로드	0
간접	0
▁장인	0
수료	0
풍	0
송신	0
▁참전	0
▁포용	0
강판	0
패키지	0
▁안무	0
전공	0
▁연달	0
▁우산	0
윤리	0
▁후드	0
▁동지	0
중견	0
▁국영	0
▁전열	0
▁영혼	0
▁결렬	0
▁증감	0
손상	0
▁웜	0
▁유네스코	0
▁브라운	0
히터	0
▁언더	0
▁교민	0
▁내연	0
▁만점	0
인방	0
▁만회	0
연예	0
▁한눈	0
▁이어폰	0
베트남	0
▁포도	0
권단	0
호스	0
▁의외	0
▁사직	0
기타	0
익	0
누구	0
▁교과	0
▁루머	0
▁미분	0
▁번식	0
▁교복	0
독	0
▁어색	0
▁김장	0
▁검진	0
▁출토	0
러닝	0
▁보빈	0
질소	0
▁부검	0
바지	0
기상	0
로스	0
▁장미	0
▁송환	0
▁수컷	0
죽	0
배터리	0
영향	0
▁모의	0
운동장	0
▁단호	0
▁식구	0
▁가루	0
▁기용	0
▁구해	0
원가	0
▁인문	0
소형	0
▁전례	0
원칙	0
▁립	0
▁공범	0
▁동경	0
▁미네랄	0
▁감산	0
▁전성	0
▁벼	0
▁결산	0
이론	0
▁황당	0
▁선조	0
▁붕소	0
가입자	0
▁쇄	0
▁정류	0
영리	0
▁약품	0
포체	0
▁요동	0
▁불황	0
▁성금	0
▁상반	0
도청	0
채무	0
▁모델링	0
예고	0
▁인조	0
▁빈소	0
▁형평	0
▁탐	0
▁커브	0
스톱	0
▁체온	0
▁교직	0
표현	0
사용자	0
▁실책	0
바퀴	0
에프	0
▁광저우	0
▁합치	0
못	0
▁여가	0
▁강아지	0
가전	0
▁호감	0
청춘	0
▁핀란드	0
귀	0
▁계류	0
▁판타지	0
▁도가니	0
지향	0
▁미스터리	0
▁연도	0
▁쿠키	0
▁특급	0
▁국왕	0
▁모욕	0
최종	0
▁프로젝터	0
▁다스	0
▁국악	0
▁풍속	0
▁스타일링	0
▁발랄	0
▁고등	0
걸음	0
▁가톨릭	0
현직	0
소정	0
▁예열	0
▁동상	0
국정	0
▁청순	0
▁외피	0
▁재선	0
바람	0
▁학사	0
아연	0
▁줄줄	0
구리	0
▁중고	0
▁돌보	0
▁마사지	0
▁정직	0
▁건지	0
▁파급	0
▁오케스트라	0
▁아까	0
▁머	0
으려면	0
▁틈새	0
▁일화	0
▁베일	0
▁수월	0
소위	0
▁휨	0
▁영문	0
▁희귀	0
▁절제	0
조부	0
▁적가	0
징용	0
▁곡률	0
▁펄	0
입체	0
으시	0
창고	0
▁탈취	0
▁공청	0
폐기물	0
▁들이	0
▁지반	0
민국	0
▁안구	0
▁항해	0
▁개개	0
▁함정	0
▁믹서	0
현미경	0
공모	0
▁광택	0
기술원	0
렙	0
▁장남	0
▁외기	0
▁봉쇄	0
연설	0
제어기	0
기법	0
▁강해	0
▁특위	0
▁다가	0
▁남해	0
▁고착	0
식사	0
▁내밀	0
폐지	0
▁변압	0
아침	0
파장	0
▁배신	0
▁림	0
▁소신	0
레저	0
▁러	0
▁강타	0
목록	0
▁망막	0
▁깔	0
리라	0
▁레코드	0
복사	0
상술	0
▁주먹	0
▁방면	0
▁연질	0
▁기종	0
▁그레이	0
▁자카르타	0
한편	0
▁요크	0
▁나이트	0
조약	0
▁차광	0
고무	0
사무	0
▁수식	0
려다	0
▁전향	0
▁효모	0
▁전락	0
▁모재	0
▁혀	0
선형	0
▁즉석	0
▁패소	0
의미	0
저희	0
예비	0
▁약점	0
▁유수	0
▁비위	0
계산	0
▁블라인드	0
▁피력	0
웨	0
▁지체	0
프로세서	0
일시	0
수학	0
▁만전	0
▁지환	0
▁압수	0
▁반문	0
▁처우	0
요리	0
▁실증	0
부하	0
▁후자	0
▁쿠바	0
▁암컷	0
▁아스피린	0
▁장마	0
입구	0
▁애틋	0
▁두부	0
▁증량	0
부상	0
▁화산	0
▁품격	0
▁세분	0
▁본연	0
동원	0
선발	0
▁신도	0
▁스승	0
컨텐츠	0
▁신념	0
혼	0
▁시골	0
▁별세	0
▁대원	0
▁빡	0
▁가드	0
볼넷	0
▁신주	0
어음	0
▁동국	0
정정	0
▁부결	0
▁선관위	0
▁조이	0
▁복면	0
▁수순	0
▁사명	0
▁시군	0
적절	0
트럭	0
배기	0
▁과기	0
▁밭	0
▁일기	0
▁폴더	0
▁재치	0
히트	0
▁등등	0
운송	0
콜레스테롤	0
일치	0
배열	0
▁엄정	0
▁상사	0
사령관	0
▁분실	0
휘	0
▁법학	0
▁감광	0
▁윤활	0
▁조약	0
▁불길	0
복권	0
알파	0
▁습윤	0
나이트	0
품안	0
▁소각	0
▁셔츠	0
▁쇄신	0
젤	0
안테나	0
대체	0
유발	0
인터페이스	0
▁세액	0
▁신앙	0
▁배임	0
카바	0
▁여력	0
▁쇼크	0
▁좌파	0
▁추운	0
▁국군	0
▁감행	0
금형	0
▁악성	0
▁자릿	0
▁놈	0
부패	0
주거	0
▁그림자	0
아카데미	0
학위	0
▁웨이브	0
▁보좌	0
▁뮤	0
▁뮌헨	0
액체	0
▁주지	0
선박	0
▁장내	0
▁출품	0
▁기습	0
▁광명	0
▁보습	0
▁엉뚱	0
수정	0
아버지	0
수사대	0
대해	0
▁급전	0
딸	0
오전	0
하루	0
▁담지	0
가액	0
▁홍삼	0
세이브	0
▁조종사	0
이어서	0
▁이너	0
상선	0
▁동맥	0
▁불복	0
▁맘	0
▁동아리	0
▁모순	0
여론	0
함량	0
▁버섯	0
작년	0
▁크랭크	0
환원	0
▁실려	0
▁멜론	0
▁하이라이트	0
과목	0
▁질타	0
정기	0
여대	0
▁마산	0
매입	0
넌	0
쿠폰	0
급식	0
▁귀가	0
▁실록	0
▁기탁	0
라니	0
기체	0
▁워킹	0
▁타협	0
미디	0
▁단열	0
▁모레	0
주문	0
고급	0
권리	0
▁변호	0
▁며느리	0
핑크	0
추적	0
고속	0
▁탐사	0
인단	0
▁보트	0
▁직급	0
둔	0
불법	0
트릴	0
운행	0
▁삼각	0
▁겸용	0
▁학	0
▁인디	0
▁신나	0
▁드래그	0
토론회	0
▁정계	0
농장	0
파운드	0
▁주총	0
▁빙	0
▁일탈	0
도금	0
▁오리	0
전주	0
보고회	0
▁서포터	0
▁의석	0
▁나비	0
▁배구	0
방학	0
▁듀오	0
▁환불	0
▁승자	0
▁구한	0
판정	0
알콜	0
성공	0
▁중학	0
보강	0
방사	0
▁간식	0
▁손자	0
접착	0
▁송수	0
▁요부	0
전사	0
▁토마토	0
▁농성	0
▁황사	0
▁수은	0
▁연차	0
▁직위	0
▁다각	0
▁커터	0
공격	0
▁땜납	0
▁질산	0
아라	0
예금	0
대신	0
▁알뜰	0
유래	0
▁승마	0
▁만곡	0
▁강자	0
▁고추	0
시위	0
▁트로트	0
공주	0
▁복통	0
▁딸기	0
▁농지	0
신뢰	0
▁레저	0
발급	0
▁노벨	0
액정	0
▁정자	0
▁다변	0
▁관로	0
▁수락	0
▁일부러	0
부여	0
나이	0
브리핑	0
본인	0
▁비방	0
▁숙련	0
▁결집	0
▁불행	0
▁탈모	0
비즈	0
▁재즈	0
▁기숙	0
▁통공	0
▁하프	0
▁종일	0
▁치안	0
▁번갈	0
▁튼튼	0
▁피스	0
혜	0
▁태극	0
▁방산	0
▁향수	0
정체	0
안녕	0
공천	0
▁잔디	0
벨벳	0
전계	0
▁공립	0
▁입문	0
▁올리브	0
▁간직	0
할로	0
▁막말	0
▁상층	0
▁골고루	0
▁광복	0
▁불변	0
▁해병	0
▁파티션	0
신규	0
껏	0
락톤	0
내기	0
▁막강	0
▁인위	0
▁재건	0
코더	0
출마	0
▁가혹	0
게끔	0
잎	0
▁관문	0
수직	0
▁화염	0
▁대접	0
▁인과	0
▁탄압	0
복시	0
▁풍선	0
부종	0
▁말리	0
▁오른발	0
투과	0
바닥	0
간부	0
▁빈혈	0
▁형법	0
▁포크	0
▁하수	0
자녀	0
▁짜릿	0
▁나일론	0
▁폭락	0
▁튜닝	0
▁농약	0
이송	0
업소	0
전위	0
▁합하	0
이너	0
이브	0
귤	0
▁측쇄	0
▁악수	0
▁패스워드	0
양식	0
▁해치	0
▁성수	0
보정	0
듀스	0
▁열창	0
▁포상	0
사면	0
▁교훈	0
▁사방	0
▁해저	0
▁살포	0
▁파단	0
▁씨앗	0
▁옹호	0
완료	0
▁합당	0
▁최우	0
▁총격	0
환율	0
▁형편	0
조세	0
▁연한	0
아내	0
▁바지	0
▁두껍	0
▁출루	0
▁이바지	0
▁택지	0
▁스톱	0
▁진통	0
그러	0
▁량	0
▁모방	0
학자	0
▁수돗	0
▁성당	0
재의	0
▁외력	0
사슬	0
▁점막	0
▁겸비	0
▁스티커	0
▁매니폴드	0
판독	0
▁추론	0
합금	0
▁부연	0
▁과반	0
▁특가	0
압부	0
말기	0
자재	0
사격	0
▁로크	0
▁특례	0
롬	0
라이브	0
여과	0
▁동월	0
혹은	0
▁참배	0
▁통풍	0
▁다이어그램	0
▁엉덩이	0
▁연골	0
치킨	0
전담	0
▁한식	0
▁가급적	0
▁표방	0
▁펀	0
▁암살	0
▁정현	0
함수	0
▁동박	0
연령	0
▁스테인리스	0
▁관능	0
▁패러디	0
해상	0
▁절정	0
대선	0
▁월간	0
▁대검	0
▁트림	0
양자	0
▁특보	0
본명	0
▁왕실	0
대원	0
차지	0
▁계량	0
▁디테일	0
▁비장	0
압축	0
▁조장	0
▁개원	0
파티	0
▁신생	0
정산	0
▁독재	0
▁항산	0
대장	0
▁억	0
▁애교	0
매각	0
웨이퍼	0
▁유보	0
▁자유로이	0
계약서	0
종료	0
▁호퍼	0
▁차명	0
▁오너	0
▁해커	0
▁누	0
엽	0
댄스	0
▁탁	0
▁순회	0
▁보훈	0
강의	0
▁아메리카	0
피크	0
스틸	0
▁피우	0
불안	0
▁분과	0
▁변제	0
매일	0
▁관례	0
섭	0
▁탄수화	0
▁착한	0
▁누수	0
정확	0
▁지친	0
▁과자	0
실태	0
▁고농	0
추후	0
굴절	0
▁캠핑	0
▁거실	0
▁일곱	0
원부	0
▁매트리스	0
기부	0
변수	0
▁페어	0
▁지경	0
초간	0
▁부도	0
바로	0
부면	0
▁자화	0
춤	0
마그네슘	0
▁귀신	0
▁원호	0
▁분단	0
관리법	0
▁밸	0
▁타구	0
▁내포	0
환전	0
공구	0
▁유착	0
▁사표	0
수학식	0
▁독소	0
라켓	0
▁미터	0
▁어업	0
▁명곡	0
▁콜롬비아	0
▁연재	0
▁모유	0
▁귀족	0
휴가	0
단일	0
표주	0
▁편찬	0
▁식용	0
관심	0
파고	0
농축	0
▁주상	0
리더	0
언니	0
▁막상	0
화력	0
페어	0
▁미성년	0
장벽	0
▁본토	0
▁상륙	0
▁꼼꼼	0
▁극우	0
▁교부	0
▁파동	0
도입	0
▁입상	0
▁엑스	0
뮤	0
▁동조	0
▁집착	0
조금	0
▁보직	0
▁브리지	0
▁기해	0
▁섭외	0
▁격렬	0
비서	0
▁대승	0
▁감옥	0
▁혈전	0
유량	0
▁상큼	0
빈도	0
▁버킷	0
▁중위	0
▁가한	0
▁캐스터	0
▁전경련	0
▁고치	0
▁클리닝	0
피란	0
우먼	0
▁덩어리	0
▁액적	0
▁추궁	0
▁발작	0
발사	0
▁이주	0
▁숙제	0
▁체액	0
▁변비	0
▁강진	0
공중	0
▁제트	0
하락	0
인수	0
▁호가	0
▁연맹	0
▁원안	0
▁네거티브	0
▁사육	0
▁슬	0
▁적대	0
휴직	0
▁하트	0
보훈	0
▁골절	0
매트	0
▁이뇨	0
▁가미	0
미니	0
성명	0
교섭	0
철학	0
베어링	0
▁내재	0
남편	0
현안	0
▁경련	0
▁선미	0
▁펌웨어	0
▁엄	0
▁착각	0
▁휠체어	0
▁실세	0
▁결장	0
화장품	0
조회	0
맥	0
▁비법	0
사부	0
부도	0
▁직영	0
▁알선	0
출하	0
▁대차	0
▁사극	0
▁얼	0
▁참모	0
▁탐방	0
차익	0
▁뾰족	0
유산	0
▁테슬라	0
산단	0
▁퇴원	0
▁기수	0
배지	0
표지	0
종양	0
시료	0
▁대담	0
노래	0
▁속옷	0
▁라이	0
▁트랜잭션	0
▁장성	0
▁벤츠	0
▁직속	0
▁세단	0
▁만세	0
▁노면	0
▁노란	0
▁캐비닛	0
▁호우	0
▁도난	0
▁등락	0
▁제소	0
▁보합	0
▁보이콧	0
▁남아	0
공약	0
▁썩	0
▁휴스턴	0
▁방콕	0
열부	0
▁주시	0
▁도마	0
▁가만	0
대교	0
화기	0
앤드	0
▁남한	0
▁회색	0
석부	0
입시	0
북미	0
위성	0
▁토너먼트	0
▁사귀	0
▁무언	0
당원	0
▁조문	0
▁친절	0
그때	0
▁간질	0
▁사단	0
▁친근	0
킨	0
푼	0
▁점성	0
▁착륙	0
▁체코	0
이득	0
▁대수	0
▁원문	0
▁영위	0
▁파열	0
▁자백	0
▁컨셉	0
▁환전	0
▁보물	0
▁냉수	0
고체	0
주차장	0
감정	0
▁청문	0
부스	0
여군	0
샘플	0
갭	0
▁성화	0
▁신예	0
▁로프	0
▁주둔	0
▁열간	0
▁메이커	0
▁분식	0
▁기득	0
롱	0
진료	0
▁양주	0
대형	0
▁고로	0
▁여주	0
▁담합	0
▁득표	0
▁문명	0
▁착체	0
▁접시	0
▁봉투	0
▁반군	0
▁속내	0
▁서초	0
▁심야	0
▁출격	0
진동	0
연동	0
▁오프닝	0
폐쇄	0
사체	0
▁독창	0
발행	0
▁노치	0
코치	0
▁한시	0
▁준하	0
▁아르	0
성형	0
▁니즈	0
▁페인트	0
▁자속	0
▁견본	0
▁소관	0
▁수표	0
청주	0
▁비누	0
▁아이스	0
마련	0
▁미연	0
▁단연	0
하키	0
테이프	0
▁원년	0
▁발동	0
▁두드러기	0
베타	0
▁카트	0
▁홍수	0
▁디저트	0
▁햇	0
▁퍼트	0
욱	0
국토	0
▁글씨	0
▁카자흐스탄	0
혈구	0
▁교재	0
구직	0
▁관전	0
▁선상	0
▁국기	0
▁만끽	0
▁유방	0
띠	0
버퍼	0
수업	0
동포	0
어촌	0
보스	0
▁파행	0
▁장려	0
▁사제	0
▁정년	0
▁서보	0
▁미수	0
▁개교	0
척수	0
경력	0
▁장갑	0
▁리프	0
▁제지	0
▁빈곤	0
▁심층	0
실제	0
재질	0
▁브이	0
▁도울	0
소원	0
생각	0
부정	0
▁묵	0
댐	0
모형	0
▁절환	0
계획서	0
▁멋	0
▁라이선스	0
▁화석	0
▁킹	0
▁도저	0
▁약관	0
▁공습	0
도구	0
▁와이퍼	0
미스터	0
▁호랑이	0
아주	0
▁국도	0
▁언덕	0
관객	0
▁언젠가	0
▁거취	0
▁염원	0
▁물의	0
▁도청	0
중지	0
▁정차	0
▁정립	0
▁탄화	0
▁편곡	0
▁원위	0
소음	0
▁세심	0
광원	0
항만	0
▁불발	0
▁급변	0
▁공학	0
마우스	0
▁유서	0
▁기승	0
▁도통	0
▁배추	0
한미	0
건대	0
▁영원	0
▁약국	0
▁기차	0
▁반기	0
▁동전	0
기대	0
▁귀추	0
▁수제	0
▁앤드	0
제안	0
상사	0
경비	0
▁스틱	0
▁국빈	0
호르몬	0
이벤트	0
관리자	0
▁열광	0
▁압류	0
합동	0
▁회식	0
▁바짝	0
▁활기	0
부인	0
▁어쩌면	0
▁함양	0
▁박모	0
평소	0
▁말미	0
▁하계	0
▁애도	0
하여	0
▁벚	0
이스트	0
▁스폰서	0
▁린	0
▁정문	0
어린	0
적외선	0
염기	0
▁속초	0
▁지소	0
▁문신	0
폭부	0
▁중산	0
▁마운트	0
첩	0
스페인	0
혈당	0
▁디즈니	0
▁영주	0
평면	0
▁흥	0
플랜트	0
▁봉합	0
▁장방	0
▁고마움	0
▁재물	0
▁살충제	0
관은	0
▁시구	0
삽	0
중앙지	0
▁패리티	0
▁스테레오	0
▁수문	0
▁강재	0
▁서한	0
▁엘리트	0
▁연고	0
계속	0
▁혼잡	0
▁소품	0
연전	0
이나마	0
▁추방	0
조각	0
▁극도	0
▁강북	0
통증	0
▁정경	0
노출	0
▁입성	0
금지법	0
▁보너스	0
▁캐리	0
▁모음	0
▁인격	0
▁병변	0
홍콩	0
▁단문	0
▁리스	0
▁회화	0
▁나란	0
▁달래	0
▁선비	0
▁용납	0
지하철	0
▁백인	0
▁이관	0
▁관영	0
▁자처	0
▁양대	0
▁활짝	0
▁불매	0
▁교	0
▁우월	0
활동비	0
인재	0
▁모티브	0
▁궤적	0
▁세리	0
▁초고	0
▁근간	0
▁펄프	0
▁기피	0
▁변색	0
▁유휴	0
▁카피	0
▁입각	0
▁속출	0
시내	0
▁계급	0
▁비산	0
급부	0
▁보잉	0
▁래	0
▁늦추	0
▁조상	0
빵	0
▁침략	0
▁왕국	0
내수	0
대차	0
권력	0
▁도자	0
▁도피	0
가을	0
▁가려	0
▁원동	0
강제	0
▁저류	0
외측	0
▁였	0
부티	0
▁인치	0
아세안	0
▁롤링	0
▁복장	0
▁구직	0
▁독거	0
▁모험	0
▁기미	0
▁내전	0
사업단	0
▁상설	0
▁자질	0
▁파키스탄	0
▁게이지	0
무늬	0
▁러닝	0
▁기저귀	0
▁현명	0
결국	0
▁노예	0
▁가설	0
기념관	0
▁유대	0
출혈	0
악	0
▁경합	0
▁고사	0
세븐	0
▁체납	0
마진	0
▁회선	0
탄성	0
▁저런	0
▁지우	0
▁남짓	0
▁동굴	0
▁세밀	0
수요자	0
▁분체	0
▁하층	0
조항	0
용제	0
택지	0
생략	0
▁동포	0
폐부	0
▁탐구	0
▁냉장	0
가루	0
▁색채	0
▁귀속	0
약상	0
체로	0
▁양육	0
▁갑상	0
식각	0
고발	0
▁불허	0
정글	0
특집	0
결체	0
▁수유	0
입공	0
마스터	0
언어	0
마력	0
탭	0
▁후유	0
▁아찔	0
▁염의	0
부작	0
▁식감	0
▁침범	0
웅	0
▁건국	0
▁투병	0
▁체조	0
폭탄	0
사자	0
▁토기	0
▁의구	0
▁집진	0
▁행적	0
▁송구	0
가칭	0
잭	0
▁텔	0
크림	0
직무	0
마비	0
지회	0
어라	0
▁인터럽트	0
슬롯	0
▁생식	0
▁위암	0
▁토론토	0
▁뒤지	0
▁옥사	0
누	0
정리	0
연습	0
캔	0
▁환매	0
▁외래	0
▁일조	0
▁교내	0
▁용강	0
▁시니어	0
헬기	0
▁양수	0
기생충	0
증명서	0
▁물음	0
▁모식	0
▁재회	0
▁푹	0
▁샌드위치	0
▁폭언	0
태세	0
▁남산	0
실화	0
▁적분	0
부회장	0
박사	0
마일	0
레이저	0
▁토목	0
당량	0
계망	0
▁연탄	0
혼자	0
▁묘	0
잇	0
남미	0
▁표절	0
▁우물	0
나사	0
▁근사	0
조례	0
▁각계	0
너트	0
테이트	0
통부	0
▁컬링	0
▁기장	0
▁해수욕	0
전술	0
▁라텍스	0
▁통학	0
▁발레	0
재해	0
▁탈세	0
그녀	0
▁간절	0
▁결핵	0
▁랜드	0
대안	0
▁실크	0
▁열량	0
▁혼련	0
▁윈도	0
▁무용	0
▁동남	0
자전거	0
교부	0
▁종동	0
▁이체	0
구축	0
▁웨	0
▁세일	0
▁내시	0
▁오버랩	0
▁변명	0
▁미르	0
관절	0
▁해독	0
▁포진	0
중소	0
밀착	0
냉장고	0
소유	0
▁사막	0
▁서원	0
▁프로펠러	0
▁당대	0
소문	0
▁도리	0
▁부력	0
컬러	0
▁비단	0
▁탈피	0
농	0
▁원시	0
비행	0
▁로터리	0
나마	0
▁멤버십	0
▁널	0
▁감격	0
▁특권	0
지진	0
▁화분	0
심의	0
▁공룡	0
사정	0
▁이닝	0
▁매몰	0
진공	0
▁예민	0
엔지니어링	0
▁소홀	0
▁중년	0
▁단숨	0
▁끔찍	0
메인	0
▁습득	0
▁스풀	0
▁동위	0
▁델	0
투입	0
제제	0
▁무난	0
득	0
안심	0
▁충성	0
▁점등	0
염산염	0
▁평상	0
▁리얼리티	0
▁파인	0
▁막걸리	0
▁다이얼	0
기후	0
시계	0
▁담화	0
클래식	0
▁반찬	0
이크	0
관장	0
▁군부	0
▁민법	0
이민	0
순서	0
▁돌발	0
▁방학	0
▁번복	0
▁항복	0
▁페루	0
부담금	0
▁입당	0
▁아저씨	0
개동	0
▁강소	0
▁공수	0
좌	0
교반	0
▁원로	0
▁하청	0
▁파이프라인	0
비상	0
▁루틴	0
이름	0
서원	0
▁싱어	0
체조	0
▁성주	0
▁미주	0
▁홀딩	0
▁측위	0
▁슈트	0
▁점선	0
▁첩보	0
▁퀸	0
▁근위	0
▁각막	0
▁보람	0
순수	0
고문	0
▁환승	0
예시	0
▁수세	0
그루	0
▁한발	0
구균	0
▁익히	0
▁오만	0
▁그거	0
▁재전송	0
▁돌연	0
기념	0
▁축전	0
적합	0
▁계신	0
내륙	0
▁사멸	0
실현	0
암호	0
▁이재	0
조사단	0
▁북상	0
▁둥글	0
▁초월	0
통사	0
계단	0
출자	0
바꿈	0
▁심문	0
▁방정	0
▁시집	0
이야말로	0
▁불로	0
수화물	0
▁극한	0
▁화사	0
파이	0
▁금강	0
관세	0
▁등산	0
세끼	0
형부	0
공판	0
수분	0
분위기	0
▁신성	0
▁마침	0
▁신병	0
아제	0
땅	0
▁고군	0
▁기단	0
▁방화	0
▁간행	0
분투	0
▁인터내셔널	0
▁바이알	0
▁서적	0
지인	0
강당	0
▁삼국	0
▁급기야	0
▁격화	0
▁풍	0
▁근데	0
하강	0
▁친숙	0
▁개국	0
▁전폭	0
▁주범	0
셀러	0
▁화가	0
으러	0
▁형량	0
▁재외	0
약정	0
▁합참	0
▁방울	0
▁면치	0
격	0
▁분진	0
▁꾸미	0
청문	0
▁넉넉	0
▁난항	0
▁미혼	0
공감	0
초과	0
▁서늘	0
격차	0
▁한결	0
▁방대	0
물림	0
▁궤양	0
▁호칭	0
실습	0
▁선글라스	0
▁북방	0
▁찬사	0
커넥터	0
▁사자	0
입법	0
스펜서	0
▁여타	0
쌀	0
원래	0
▁튜너	0
꼴	0
아일랜드	0
▁자선	0
▁팔레스타인	0
▁하룻	0
▁명함	0
킥	0
▁시가	0
사옥	0
▁저력	0
▁앰프	0
▁취항	0
그대	0
궤양	0
▁산모	0
▁계파	0
▁매직	0
▁판례	0
웃	0
▁트렁크	0
실리카	0
▁활	0
곡선	0
보육	0
▁착안	0
써	0
비즈니스	0
통운	0
콩	0
발효	0
▁방과	0
▁왕조	0
▁콜로	0
▁배타	0
▁수고	0
▁완주	0
리트	0
▁배틀	0
완	0
본원	0
▁생전	0
▁영아	0
체크	0
특례	0
실천	0
담회	0
▁주저	0
▁가려움	0
▁자란	0
▁아이언	0
▁구애	0
▁필두	0
허용	0
▁강국	0
▁둥지	0
▁오징어	0
▁넘버	0
▁강관	0
총액	0
▁아토피	0
의류	0
▁경미	0
▁점토	0
▁물성	0
▁자르	0
▁강호	0
소증	0
▁긴축	0
▁요하	0
레인	0
▁논지	0
소프트웨어	0
▁추돌	0
가령	0
▁세율	0
▁탈환	0
▁육류	0
▁째	0
학술	0
▁리비아	0
▁약해	0
기조	0
어업	0
▁양당	0
▁발암	0
▁의정	0
사물	0
▁허벅지	0
▁승압	0
▁잔량	0
▁금방	0
▁앰	0
레이스	0
플라스틱	0
이달	0
예전	0
▁애완	0
▁공안	0
▁견지	0
기본법	0
▁악의	0
청소	0
▁보디	0
폭행	0
무엇	0
세액	0
▁화살	0
서장	0
▁직진	0
로맨스	0
경구	0
▁거꾸로	0
구현	0
발생기	0
▁육체	0
▁심신	0
고등	0
▁후예	0
이해	0
▁안성	0
직구	0
▁홍채	0
인승	0
▁우량	0
계정	0
▁인스트	0
▁백두	0
▁마개	0
미리	0
▁비료	0
▁글리	0
▁고공	0
▁스탬프	0
▁저속	0
에이	0
수록	0
▁우체	0
배송	0
방위	0
▁접견	0
▁조롱	0
▁초안	0
수평	0
▁진다	0
▁범퍼	0
▁서브시스템	0
▁패딩	0
취득	0
▁결재	0
가운데	0
줌	0
▁통역	0
정공	0
변조	0
▁기울	0
가동	0
▁재량	0
▁고상	0
▁토종	0
압연	0
▁고래	0
형식	0
▁심폐	0
거의	0
▁마블	0
▁이튿	0
▁타점	0
▁직관	0
당장	0
▁노브	0
▁냉정	0
습관	0
▁장래	0
학대	0
▁개표	0
▁완승	0
▁비만	0
▁딜러	0
전막	0
▁우안	0
▁변질	0
사업비	0
▁미처	0
복구	0
▁독감	0
▁무고	0
▁견조	0
땜	0
납부	0
▁만루	0
덮개	0
▁진흥	0
▁증원	0
▁와이	0
커뮤니케이션	0
▁메토	0
▁조망	0
▁모기	0
매니저	0
▁엑스포	0
▁나이지리아	0
▁육지	0
▁닷새	0
사관	0
이행	0
목재	0
▁버스트	0
▁휴업	0
▁법규	0
분위	0
▁부류	0
▁학기	0
수명	0
역시	0
▁대권	0
오토	0
▁열선	0
오해	0
▁수화	0
▁좌안	0
▁친척	0
글리	0
▁임차	0
▁파운드	0
▁장편	0
▁퇴행	0
▁엄청	0
▁제이	0
타당	0
▁리터	0
▁파면	0
어시스트	0
▁구금	0
▁오락	0
▁다듬	0
구도	0
스페이스	0
▁금고	0
▁엔트로피	0
▁관형	0
급기	0
▁국물	0
▁몰두	0
콜라	0
▁융자	0
권한	0
▁오버레이	0
▁소견	0
재배	0
검출기	0
▁헤딩	0
▁도깨비	0
▁틸러	0
성적	0
▁양립	0
▁해발	0
치부	0
연산	0
한가	0
▁마취	0
▁키메라	0
▁민속	0
▁보리	0
▁제왕	0
▁궤	0
퀸	0
접점	0
▁어시스트	0
순간	0
▁열망	0
▁가습	0
▁가역	0
▁식단	0
▁집적	0
▁손질	0
▁굴욕	0
▁승률	0
▁표피	0
▁해충	0
▁바닷	0
민정	0
▁리메이크	0
▁소나기	0
샘	0
대만	0
미스	0
▁야채	0
▁호황	0
▁초보	0
수신자	0
단량체	0
의존	0
커플링	0
편광	0
▁드래프트	0
▁서점	0
흡착	0
개년	0
차선	0
▁저변	0
련	0
계통	0
뮤지컬	0
▁퇴사	0
▁곰팡	0
▁빌미	0
▁마스터스	0
▁우연	0
▁글리세린	0
▁엔지니어	0
마녀	0
▁여진	0
▁석권	0
▁냉간	0
▁점거	0
▁배율	0
해라	0
계면	0
▁익산	0
그래픽	0
이사장	0
▁스릴러	0
연부	0
휘도	0
▁빗	0
세제	0
▁척도	0
▁제법	0
다지	0
▁서기	0
시당	0
▁지루	0
▁당진	0
▁고루	0
획득	0
▁망명	0
▁손길	0
취약	0
하드	0
▁노릇	0
실은	0
▁자계	0
▁매설	0
▁딱딱	0
▁마신	0
도당	0
▁인준	0
청탁	0
▁번거	0
▁차라리	0
▁이를	0
플러그	0
▁면세	0
▁관성	0
▁박판	0
테면	0
산디	0
랙	0
다중	0
제국	0
사냥	0
▁노골	0
▁교도	0
▁교란	0
중독	0
스튜디오	0
▁만장	0
해고	0
레아	0
헤	0
▁아랍	0
▁충청북도	0
탄산	0
▁시흥	0
▁수료	0
재무	0
직장	0
소방	0
▁친정	0
▁선방	0
▁극본	0
장력	0
▁빌라	0
표기	0
수조	0
물론	0
문화유산	0
▁정할	0
이샤	0
▁아역	0
▁잔인	0
▁절박	0
▁아키텍처	0
▁진솔	0
▁델타	0
자세	0
배럴	0
챔피언	0
▁입소	0
▁필자	0
편지	0
▁허혈	0
토기	0
창업자	0
▁예결	0
나인	0
▁귀농	0
▁수계	0
뇌	0
▁절망	0
힌지	0
특별시	0
감각	0
소식	0
읍	0
판부	0
▁피곤	0
▁남매	0
제시	0
▁이완	0
로딩	0
▁축복	0
▁카르	0
연상	0
▁마스킹	0
▁어필	0
▁연삭	0
▁존속	0
▁채운	0
▁경진	0
▁유한	0
린트	0
▁팩스	0
▁역점	0
▁기내	0
▁로스	0
떼	0
▁강간	0
상단	0
▁야심	0
▁원숭이	0
▁난이	0
▁콘솔	0
연제	0
▁국책	0
▁결여	0
장단	0
▁스텐	0
▁스냅	0
▁겸손	0
▁지탱	0
▁장담	0
▁억압	0
▁천만	0
갤러리	0
붐	0
▁판넬	0
▁반지	0
소생	0
막이	0
용투	0
▁플로	0
▁벤트	0
낯	0
▁기이	0
가로	0
방역	0
▁현존	0
▁다단	0
▁각인	0
대하	0
▁도형	0
전단	0
▁마니아	0
▁대의	0
▁복직	0
냉매	0
▁텐트	0
검찰청	0
요양	0
그라운드	0
▁학회	0
▁스코틀랜드	0
▁기형	0
위하	0
기둥	0
어머니	0
김치	0
▁초록	0
▁공휴	0
▁주면	0
세정	0
▁교양	0
▁반란	0
▁산간	0
▁광도	0
▁랠리	0
▁수심	0
▁미사	0
▁집속	0
객체	0
프리미엄	0
▁도정	0
▁예배	0
▁철폐	0
▁식기	0
▁스무	0
▁절편	0
탕	0
얼굴	0
▁투신	0
▁태세	0
▁폐색	0
▁안주	0
▁보어	0
▁심벌	0
파괴	0
▁로밍	0
사과	0
연구회	0
▁단조	0
▁발상	0
▁은닉	0
▁사의	0
더러	0
국지	0
▁소동	0
▁공석	0
훈장	0
▁내진	0
▁음색	0
▁사소	0
▁알파벳	0
선정	0
▁전철	0
저광	0
▁승화	0
볕	0
성실	0
▁잔치	0
▁무더기	0
미일	0
▁도공	0
▁브로커	0
조리	0
공작	0
긴급	0
회생	0
대왕	0
출시	0
▁고갈	0
▁본드	0
▁측방	0
정형	0
▁동요	0
▁증자	0
▁온열	0
▁숙명	0
부이	0
▁칼로리	0
몽	0
▁아이오	0
설립	0
▁태반	0
▁접경	0
▁부설	0
▁전셋	0
로즈	0
멸	0
대가	0
행체	0
▁옵	0
▁텃	0
더욱	0
▁불상	0
▁출고	0
휴대	0
▁풍기	0
래스	0
▁홀로그램	0
▁당권	0
▁항로	0
▁유이	0
▁자루	0
▁씩	0
▁근래	0
▁책무	0
▁산악	0
▁장교	0
▁커튼	0
▁중전	0
▁사체	0
▁듀엣	0
탁수	0
▁쉼	0
▁시애틀	0
측벽	0
▁수긍	0
▁마루	0
▁추상	0
단식	0
권익	0
매트릭스	0
▁선재	0
스타트	0
확률	0
교원	0
기분	0
먼저	0
▁학살	0
리소그래피	0
▁싱	0
▁세이브	0
인정	0
▁양궁	0
▁호모	0
출발	0
▁제대	0
프로세스	0
벤트	0
▁옹	0
▁멧	0
총리	0
▁구민	0
▁만지	0
악화	0
▁공언	0
행장	0
▁시드니	0
▁두통	0
▁거푸	0
▁김천	0
▁풋	0
인민	0
▁웨브	0
▁켈리	0
법령	0
다조	0
▁그물	0
캐스팅	0
▁벽화	0
외곽	0
그래프	0
신단	0
▁그랑프리	0
일체	0
▁다이아	0
▁성황	0
▁식염	0
타로	0
마티스	0
▁중세	0
▁스파이	0
▁행성	0
▁비키니	0
▁장학	0
▁따위	0
▁충원	0
밀러	0
역대	0
투과성	0
크로스	0
▁우뚝	0
우측	0
다스	0
이거	0
▁미드	0
▁강철	0
▁겁	0
잉크	0
▁란	0
▁매스	0
▁경증	0
▁안치	0
▁페어링	0
가게	0
▁요가	0
병우	0
경고	0
아산	0
위상	0
부측	0
▁예견	0
각서	0
▁통기	0
법칙	0
▁고구마	0
▁화끈	0
상품명	0
▁부득이	0
▁장입	0
▁성경	0
▁원룸	0
▁첩	0
▁고고	0
▁헌	0
▁항일	0
촉식	0
광물	0
상가	0
▁문항	0
백과	0
▁파울	0
상작	0
▁협동	0
▁외과	0
회동	0
▁개그	0
▁검역	0
▁스커트	0
연기자	0
제출	0
수력	0
▁억류	0
▁족	0
녹색	0
▁백분	0
도서	0
▁초연	0
▁결점	0
수량	0
본드	0
장이	0
규소	0
▁주원	0
▁왕성	0
폐수	0
▁보름	0
▁국익	0
▁전라도	0
편집자	0
▁견학	0
▁훈	0
배향	0
▁전광	0
▁포위	0
▁팽	0
비어	0
▁합착	0
▁아스팔트	0
▁고열	0
양국	0
▁레인지	0
▁달달	0
체전	0
라틴	0
▁밀링	0
▁푼	0
▁배척	0
결부	0
▁마르	0
▁심상	0
진입	0
▁인계	0
▁신세	0
▁판형	0
▁미량	0
▁모노클	0
▁자태	0
▁중상	0
▁간암	0
▁월가	0
논리	0
신화	0
대결	0
매개	0
▁판명	0
▁위헌	0
시안	0
▁추행	0
▁수압	0
임원	0
▁삼가	0
▁도식	0
▁넓	0
중요	0
▁자생	0
▁거장	0
▁의향	0
▁깜찍	0
▁고배	0
정량	0
▁잔뜩	0
흡입	0
▁넥	0
루스	0
▁리모컨	0
▁역습	0
스코어	0
▁정장	0
최소	0
▁바보	0
▁클로닝	0
▁마마	0
▁유역	0
▁승려	0
▁역내	0
비타민	0
▁레바논	0
사업장	0
▁수액	0
양물	0
도포	0
피트	0
굴	0
▁크로아티아	0
▁중원	0
▁순항	0
▁함부로	0
사이즈	0
인물	0
남성	0
▁랜	0
▁혼성	0
간탄	0
▁고작	0
느냐고	0
▁신랑	0
▁지오	0
위대	0
▁휴지	0
▁수탁	0
▁한데	0
▁무능	0
▁영리	0
출신	0
▁콜라	0
학적	0
추정	0
▁괴물	0
▁공산	0
▁하전	0
객	0
이라든지	0
▁부동	0
▁어류	0
▁면밀	0
▁의대	0
▁느슨	0
▁생장	0
브레이크	0
▁손익	0
▁적임	0
당해	0
▁실상	0
▁모친	0
송이	0
▁귀중	0
▁격상	0
▁저술	0
▁녹지	0
▁결말	0
▁자민	0
흥청	0
▁결손	0
▁풍요	0
▁경쾌	0
▁곰	0
상생	0
추행	0
브라질	0
▁깃	0
▁분장	0
▁위태	0
▁성찰	0
▁멸종	0
▁정복	0
▁핑계	0
시멘트	0
▁스케일링	0
인척	0
▁로즈	0
수다	0
대리	0
▁아우	0
▁재연	0
수치	0
▁알바	0
▁의리	0
▁세법	0
▁도둑	0
수위	0
▁신형	0
▁신사	0
▁대국	0
촉	0
▁원만	0
▁모텔	0
▁회귀	0
▁멀티플렉서	0
▁구치	0
도와	0
▁그램	0
▁속보	0
진실	0
캐나다	0
내장	0
▁리우데자네이루	0
▁이마	0
▁평점	0
조화	0
▁항생	0
▁이의	0
▁이진	0
염증	0
형광	0
장상	0
▁무전	0
융점	0
▁벼슬	0
신장	0
호수	0
증거	0
▁맛보	0
파업	0
▁유골	0
▁그루	0
전반	0
오빠	0
▁연행	0
▁벙커	0
▁의복	0
민원	0
▁양일	0
▁재기	0
▁사은	0
전도	0
치유	0
교대	0
가압	0
플래시	0
▁페이로드	0
지자체	0
▁총칭	0
▁언행	0
장면	0
▁텐션	0
▁쭉	0
▁천주	0
허	0
▁초당	0
▁연화	0
▁정조	0
경관	0
발굴	0
▁찌	0
재부	0
배정	0
이날	0
솜	0
▁보금	0
커플	0
▁오산	0
▁어젯	0
▁자행	0
▁유실	0
▁너스레	0
▁젤리	0
▁결착	0
▁비점	0
▁개회	0
▁수차	0
▁세관	0
결산	0
다시피	0
▁차주	0
▁요르단	0
▁미묘	0
예상	0
전설	0
▁듯이	0
▁보궐	0
▁등가	0
▁렌터카	0
돋움	0
역세	0
▁거미	0
▁강변	0
▁위스키	0
조류	0
▁잉여	0
▁연승	0
편식	0
시알	0
중처	0
옛	0
▁사학	0
퍼센트	0
▁동거	0
인용	0
으라고	0
상인	0
▁미비	0
고려	0
▁적성	0
실무	0
▁왕위	0
송금	0
▁낭독	0
텍스트	0
바이트	0
▁직종	0
▁완구	0
잘못	0
반경	0
▁차륜	0
▁드롭	0
습도	0
▁쿠웨이트	0
실과	0
▁래트	0
▁종편	0
▁검체	0
불가	0
▁검경	0
▁축조	0
거점	0
박리	0
▁색조	0
단원	0
응력	0
▁암종	0
▁신자	0
▁자수	0
공법	0
▁씹	0
▁두피	0
▁강등	0
▁마이너	0
▁도파	0
▁밴쿠버	0
시공	0
▁공액	0
▁원서	0
▁즉위	0
반전	0
밀리그램	0
핵심	0
▁온천	0
▁공평	0
▁전할	0
▁동체	0
문장	0
▁에프	0
파로	0
▁동공	0
▁의병	0
▁불쾌	0
▁선곡	0
▁업주	0
▁심포지엄	0
저기	0
주시	0
▁탁구	0
▁통틀	0
▁대타	0
▁음모	0
최초	0
▁진위	0
▁서리	0
▁보령	0
▁전립	0
획관	0
엑스포	0
▁원사	0
▁열애	0
원사	0
리퍼	0
대박	0
징역	0
▁수박	0
꿈치	0
▁우여	0
곡절	0
▁방미	0
맞	0
제로	0
▁방중	0
▁플롯	0
▁좌익	0
▁일별	0
비아	0
▁피칭	0
▁후쿠시마	0
원리	0
서민	0
▁수억	0
▁승패	0
▁이분	0
해상도	0
반복	0
티켓	0
▁피그	0
▁전가	0
▁발대	0
측근	0
하인	0
예능	0
물리	0
유해	0
▁플랩	0
▁시책	0
▁또래	0
트랜스	0
▁우발	0
부당	0
▁절벽	0
냥	0
구제	0
부피	0
시마	0
선행	0
▁묘화	0
▁역부족	0
▁어둠	0
▁홍역	0
▁서지	0
구독	0
▁임야	0
▁목욕	0
▁납세	0
▁텐	0
핫	0
▁속여	0
역학	0
▁미약	0
▁울림	0
▁요망	0
신속	0
▁첨예	0
▁무명	0
▁레지	0
▁정쟁	0
착면	0
타제	0
▁성지	0
▁아조	0
선도	0
▁혼수	0
햄	0
이탈리아	0
법관	0
대중	0
평생	0
영양	0
고령	0
축물	0
절단	0
▁우루과이	0
스타디움	0
▁반감	0
소년	0
▁파란	0
필지	0
▁처형	0
▁만취	0
할당	0
탄핵	0
▁참작	0
▁빨간	0
▁집무	0
▁능선	0
싸움	0
▁수온	0
클라이언트	0
▁단추	0
무효	0
▁관철	0
▁몰락	0
뇨	0
국악	0
라든지	0
▁감리	0
경사	0
▁선율	0
▁롬	0
▁승산	0
▁친서	0
▁승기	0
극판	0
▁천둥	0
▁질투	0
▁내림	0
옥탄	0
증대	0
▁보온	0
▁헌정	0
▁교착	0
▁도루	0
동해	0
▁피아니스트	0
컨트롤러	0
▁종식	0
▁욕실	0
▁선적	0
▁무패	0
▁사위	0
순도	0
▁장부	0
▁타이완	0
결함	0
▁오인	0
▁가치세	0
▁대표제	0
▁온전	0
▁식탁	0
임시	0
▁특활	0
▁수취	0
▁참신	0
투석	0
▁고취	0
진보	0
▁낭만	0
▁트랜스퍼	0
진주	0
▁새우	0
기이	0
▁개월	0
어디	0
온수	0
▁검은	0
▁즈음	0
가시	0
공대	0
추세	0
사범	0
고고	0
방면	0
▁역치	0
인산	0
지질	0
▁편법	0
▁용탕	0
▁골다공	0
▁천명	0
논의	0
▁독주	0
공세	0
종금	0
타이	0
대상물	0
▁마이애미	0
▁총무	0
점포	0
항원	0
▁인파	0
▁간헐	0
▁직격	0
▁기일	0
▁하의	0
▁옥외	0
관통	0
던데	0
▁자취	0
블레이드	0
▁본능	0
발달	0
▁수교	0
▁도매	0
수득	0
▁와셔	0
▁숏	0
위생	0
합량	0
개별	0
캐스터	0
▁여우	0
▁던	0
▁린스	0
▁취합	0
▁풍자	0
▁낙점	0
경선	0
제표	0
▁접대	0
우레	0
▁크라운	0
경연	0
밸	0
▁골재	0
인해	0
▁쯤	0
▁넷	0
▁출금	0
▁방류	0
▁매회	0
충	0
▁천정	0
구인	0
나들목	0
유효	0
▁간호	0
▁변기	0
돌출부	0
시사회	0
▁화기애애	0
▁외압	0
플레이오프	0
사위	0
▁당면	0
그래	0
▁속이	0
잔량	0
규격	0
▁식생	0
▁보탬	0
▁아리랑	0
밑	0
▁지옥	0
▁총체	0
▁격돌	0
버전	0
▁페리	0
▁여고	0
▁너머	0
▁우상	0
원공	0
▁순찰	0
▁준위	0
▁태운	0
나졸	0
▁달인	0
▁자연스레	0
▁강서	0
▁초속	0
연락	0
▁라운지	0
▁맞벌	0
▁상여	0
▁얼룩	0
▁소파	0
▁객석	0
수리	0
안착	0
▁명실	0
▁퍼레이드	0
▁코터	0
▁일교	0
▁며	0
▁포근	0
플로	0
분경	0
특검	0
과잉	0
부탄올	0
▁마냥	0
▁애절	0
▁어긋남	0
절대	0
▁도선	0
▁동성	0
▁묘소	0
닉스	0
▁비소	0
▁여느	0
닐슨	0
경부	0
체능	0
대수	0
▁예우	0
오디오	0
부시	0
명예	0
세로	0
▁데스크	0
군인	0
▁교시	0
▁학부	0
▁풋풋	0
애인	0
▁녀석	0
▁당론	0
▁여덟	0
▁난관	0
▁펜션	0
▁단선	0
▁강압	0
▁매연	0
▁하사	0
▁혁	0
▁공전	0
▁배역	0
▁질감	0
▁스테로이드	0
▁북서	0
▁직책	0
상황실	0
매직	0
금회	0
▁연정	0
▁의전	0
▁신영	0
▁방점	0
노소	0
▁묵묵	0
▁천막	0
▁담임	0
▁무마	0
판넬	0
▁간결	0
사망	0
▁쿠데타	0
▁스크루	0
▁엄지	0
▁청하	0
가드	0
가변	0
입국	0
▁일몰	0
▁헌혈	0
▁시안	0
▁아미	0
▁세간	0
▁기선	0
▁기립	0
랜	0
▁급제	0
▁완수	0
▁스트라이커	0
▁동사	0
▁초유	0
▁쌀쌀	0
정규직	0
▁거나	0
▁제철	0
▁파이버	0
▁초빙	0
▁디아	0
▁회부	0
▁안마	0
아조	0
▁설화	0
▁페로	0
▁여드름	0
프로펜	0
▁달력	0
▁차차	0
▁출소	0
▁층상	0
▁참관	0
불화	0
▁단풍	0
체중	0
▁안지	0
▁다목	0
상무	0
부양	0
▁모녀	0
학력	0
▁그늘	0
앙	0
팽창	0
남대	0
▁발리	0
▁조경	0
▁어촌	0
▁암석	0
▁니코틴	0
▁차수	0
산림	0
▁구로	0
▁낙마	0
각종	0
▁모토	0
포터	0
▁꼴찌	0
▁철원	0
▁겸임	0
▁촉촉	0
▁바나나	0
▁윙	0
▁스톡	0
▁경직	0
▁콘센트	0
▁신빙	0
▁황달	0
▁현물	0
편한	0
상보	0
▁아홉	0
농촌	0
▁불문	0
▁담담	0
▁진리	0
국면	0
리가	0
▁강당	0
개설	0
스메	0
정전	0
▁소소	0
▁희박	0
황제	0
▁회관	0
한강	0
▁비표	0
▁유교	0
▁해내	0
▁동방	0
▁창건	0
사료	0
는구나	0
▁차입	0
▁새로이	0
전면	0
▁어차피	0
▁꾸리	0
▁인맥	0
▁녹이	0
▁무혐	0
▁초산	0
중대	0
▁젤라틴	0
던지	0
▁싹	0
배수	0
▁만연	0
현금	0
▁세공	0
▁최단	0
하단	0
▁팬츠	0
수렴	0
▁운세	0
▁쇄도	0
▁숯	0
▁포일	0
집중	0
길래	0
▁이불	0
의도	0
▁헬륨	0
▁제습	0
▁엔지니어링	0
클러스터	0
정착	0
다이아	0
▁스파크	0
카인	0
황금	0
관사	0
▁넉	0
백신	0
▁편한	0
분권	0
▁모멘트	0
▁아디	0
깊이	0
파인	0
감도	0
▁구장	0
▁배드민턴	0
▁쾌거	0
▁마실	0
▁트래킹	0
▁유령	0
▁소박	0
▁표층	0
▁상피	0
▁개칭	0
▁미녀	0
▁차액	0
▁애매	0
▁감금	0
▁추대	0
하트	0
도심	0
▁갯벌	0
적금	0
▁시조	0
▁팔레트	0
▁대마	0
▁프로그래머	0
▁성우	0
의혹	0
답니다	0
표적	0
술폰	0
▁흑백	0
▁사당	0
▁블라디미르	0
종래	0
▁경상도	0
▁직행	0
▁퍼팅	0
▁토사	0
격리	0
▁할부	0
▁도데	0
경위	0
하중	0
▁이윤	0
셀프	0
▁두뇌	0
▁식재	0
▁고분	0
▁공교	0
융	0
▁서른	0
▁발스	0
▁레이블	0
상국	0
사도	0
실력	0
▁차감	0
▁민자	0
벽면	0
잠	0
▁시국	0
▁누비	0
선진	0
▁진작	0
▁말투	0
▁휴전	0
받침	0
▁마법	0
▁양반	0
▁관직	0
변인	0
▁프리	0
▁뿌듯	0
화법	0
인플루엔자	0
▁여군	0
권역	0
▁쌍방	0
▁혹	0
다발	0
▁반시	0
▁우레	0
그렇게	0
▁용수	0
▁생소	0
▁편파	0
주차	0
강좌	0
▁거행	0
누가	0
연수원	0
신종	0
지판	0
▁첨	0
주공	0
공화	0
밭	0
▁증축	0
▁서운	0
▁낙태	0
▁주무	0
복귀	0
▁라디에이터	0
목소리	0
▁나이프	0
아세	0
▁영재	0
▁내압	0
▁월화	0
이외	0
연마	0
▁경청	0
심장	0
홀로	0
▁여운	0
▁배아	0
띔	0
동월	0
피스톤	0
▁고층	0
▁퍼즐	0
▁증빙	0
▁포문	0
▁굴착	0
안료	0
▁영농	0
▁천사	0
저당	0
▁산타	0
▁불분명	0
▁야산	0
접착제	0
▁과언	0
주위	0
▁변한	0
▁사리	0
덧	0
▁헬멧	0
▁살림	0
종교	0
▁청결	0
체대	0
아스	0
▁내피	0
산출	0
▁유모	0
▁아치	0
교정	0
약칭	0
라이	0
▁만능	0
환기	0
▁점주	0
▁서정	0
▁지음	0
별로	0
육상	0
근육	0
▁다공	0
선판	0
▁파라다이스	0
플랜지	0
▁어기	0
가짜	0
▁창호	0
천지	0
▁오이	0
▁뚝	0
▁악마	0
수첩	0
출산	0
몇	0
▁항온	0
문단	0
기공	0
▁울트라	0
스위스	0
마디	0
호가	0
장려금	0
▁라임	0
▁승선	0
용접	0
다제	0
▁통관	0
▁사범	0
▁췌장	0
▁집약	0
▁스탠딩	0
▁기색	0
▁대각	0
동학	0
▁역도	0
▁배급	0
서기	0
출판	0
의제	0
▁전치	0
개구	0
▁레몬	0
관찰	0
▁개리	0
외국	0
▁시호	0
▁반칙	0
▁알제리	0
▁잣	0
연신	0
▁공관	0
▁칫	0
논란	0
▁인광	0
▁정월	0
▁여심	0
▁빙상	0
▁추리	0
▁감히	0
▁탐침	0
도약	0
▁패럴림픽	0
▁파편	0
왕국	0
▁필연	0
논문	0
▁자음	0
인쇄	0
그날	0
▁상법	0
▁멍	0
출동	0
몰드	0
신약	0
유전	0
수습	0
노사	0
▁교번	0
적정	0
▁감초	0
▁지지부진	0
민생	0
▁학창	0
▁변해	0
포식	0
▁악역	0
▁완결	0
▁엠보싱	0
세린	0
세라믹	0
마찰	0
▁선풍	0
▁고평	0
산기	0
▁유람	0
▁팽윤	0
▁습지	0
▁테일	0
▁왕비	0
▁지극	0
▁역외	0
군청	0
▁뱀	0
▁꺼리	0
싱어	0
도지사	0
▁우파	0
▁선폭	0
▁와류	0
▁펀칭	0
▁간혹	0
▁차츰	0
포기	0
고지	0
콘크리트	0
탄생	0
▁케이지	0
에칭	0
▁혼선	0
해경	0
▁대남	0
▁복싱	0
▁강동	0
▁회신	0
▁추월	0
사립	0
▁색감	0
각주	0
▁선의	0
▁산술	0
▁쿡	0
수성	0
▁극동	0
▁완치	0
▁알짜	0
▁추징	0
▁격납	0
▁어음	0
▁버터	0
▁햄버거	0
▁음력	0
▁가금	0
연관	0
반송	0
각부	0
▁너희	0
무자	0
▁열림	0
화장실	0
으	0
▁단골	0
동유	0
▁피난	0
질병	0
코미디	0
▁파병	0
▁전염	0
위탁	0
▁프런트	0
▁시승	0
▁트레일러	0
국방	0
플레이스	0
▁동산	0
▁홍반	0
▁씁쓸	0
아기	0
테리	0
▁간신	0
▁감쇄	0
주말	0
초점	0
▁콤팩트	0
▁억지	0
우산	0
독성	0
▁사파이어	0
▁훈장	0
기인	0
▁학점	0
▁생수	0
▁우크라이나	0
▁거시	0
▁시럽	0
이자이	0
▁조형	0
관제	0
▁복강	0
침대	0
▁소론	0
▁스몰	0
라든가	0
▁늪	0
사양	0
▁노사정	0
▁섭씨	0
인접	0
청약	0
▁스파이크	0
▁람	0
은가	0
▁수만	0
클러치	0
▁석면	0
유엔	0
험	0
아메리카	0
▁딘	0
▁어치	0
▁주선	0
▁명암	0
▁효자	0
▁차려	0
남방	0
불명	0
▁매기	0
▁섭	0
동아리	0
▁묵직	0
도핑	0
소시	0
사막	0
투합	0
▁구석	0
▁일렬	0
▁폐사	0
연휴	0
▁양말	0
▁획정	0
노일	0
측정기	0
▁광속	0
항쟁	0
▁후계	0
▁항변	0
▁몰수	0
▁후륜	0
입량	0
▁선동	0
▁권총	0
공조	0
▁원망	0
▁표류	0
닷	0
▁운운	0
▁수련	0
▁가성	0
▁골반	0
▁사지	0
▁회견	0
확정	0
▁적중	0
▁환송	0
▁이룩	0
▁이변	0
비자	0
수체	0
지소	0
▁비즈	0
▁전매	0
접대	0
신다	0
궤도	0
과열	0
▁점멸	0
거기	0
▁품위	0
동구	0
포로	0
전화기	0
▁기권	0
천안	0
▁치마	0
둔화	0
구호	0
판재	0
▁선량	0
▁패권	0
▁전경	0
▁감액	0
비례	0
태국	0
세탁	0
▁신변	0
▁위자	0
약학	0
주부	0
▁방망이	0
마감	0
▁요령	0
▁경색	0
▁굳건	0
▁운임	0
▁자손	0
수립	0
인형	0
▁사신	0
▁혹독	0
▁장세	0
벽부	0
▁불응	0
간섭	0
▁삼겹	0
원조	0
▁텅	0
▁역경	0
중개	0
▁발발	0
▁브로마이드	0
▁산부인	0
첨	0
▁단국	0
수부	0
페이스	0
충돌	0
▁발라	0
▁난수	0
▁각질	0
안건	0
더라면	0
경계	0
▁매너	0
▁입항	0
인분	0
▁참담	0
부전	0
▁가부	0
▁통째	0
지기	0
정규	0
감찰	0
▁꼼수	0
융해	0
▁육수	0
▁서남	0
▁물씬	0
▁원액	0
트론	0
▁성동	0
▁국지	0
페달	0
별부	0
▁장모	0
실패	0
고사	0
▁조임	0
▁플라스마	0
▁온화	0
▁발제	0
탈출	0
시인	0
중동	0
▁섀시	0
▁생후	0
단순	0
제물	0
▁스크래치	0
드라이브	0
▁당근	0
추경	0
강수	0
양극	0
목사	0
묘	0
▁촘촘	0
성우	0
테니스	0
이라든가	0
▁상동	0
개폐	0
▁신하	0
▁기압	0
▁가연	0
▁비박	0
전해질	0
특화	0
▁개각	0
▁명료	0
▁치중	0
▁처장	0
노실	0
▁한지	0
▁비화	0
▁궁중	0
▁질책	0
생기	0
상실	0
▁흥미진진	0
▁의총	0
총선	0
▁테라스	0
요령	0
▁형국	0
▁광로	0
염수	0
아홀	0
아이템	0
지그	0
불편	0
▁파이팅	0
▁감응	0
▁적금	0
▁모태	0
착한	0
미녀	0
용해	0
아프리카	0
관부	0
▁교보	0
작성	0
▁이모티콘	0
▁사본	0
▁찌꺼기	0
위주	0
▁사수	0
노력	0
불후	0
▁액면	0
▁도킹	0
▁모티프	0
궁	0
▁유난	0
▁노고	0
▁하남	0
▁서랍	0
▁경협	0
▁벼랑	0
복식	0
의결	0
의자	0
▁장축	0
▁뺨	0
여신	0
▁연립	0
▁이고	0
▁모스	0
노광	0
▁생필	0
보험금	0
▁카바	0
치사	0
브이	0
상세	0
소개서	0
▁오퍼레이터	0
▁사칭	0
원유	0
입도	0
▁습격	0
▁톨	0
▁복식	0
▁훗	0
취량	0
우한	0
꼬	0
▁니들	0
택배	0
▁체형	0
▁평론	0
둘레	0
성인	0
▁악몽	0
▁복도	0
피아	0
▁망상	0
▁하순	0
▁경악	0
공하	0
▁무안	0
▁파종	0
▁재혼	0
▁겸하	0
▁웅장	0
▁고난	0
전투	0
▁향년	0
토스	0
와인	0
▁초석	0
▁하소연	0
▁우라늄	0
▁가르침	0
▁항아리	0
▁별장	0
▁결상	0
▁얼라	0
▁리바운드	0
경련	0
사퇴	0
▁고노	0
지재	0
도체	0
증폭	0
▁냉전	0
▁대열	0
▁신보	0
로켓	0
녹	0
항상	0
▁기전	0
▁승승	0
장구	0
데이트	0
가닥	0
▁트레이너	0
철강	0
▁요트	0
▁망언	0
▁코디	0
▁스트레칭	0
▁군단	0
세일	0
▁율	0
▁샐러드	0
▁저널	0
착체	0
불교	0
대북	0
▁변모	0
메달리스트	0
▁혼재	0
▁어민	0
중립	0
▁산적	0
▁주중	0
질화	0
▁진열	0
▁분수	0
무용	0
맹	0
▁킬	0
▁피험	0
▁동래	0
▁좌전	0
▁광대	0
▁자치부	0
▁여럿	0
▁혈류	0
조예	0
▁만주	0
음반	0
수납	0
수주	0
미세	0
▁망치	0
▁재앙	0
▁공예	0
▁향료	0
▁포로	0
혈청	0
▁미크론	0
체수	0
혈액	0
배달	0
검정	0
▁매끈	0
▁타수	0
상하	0
액션	0
그리	0
▁지민	0
▁문인	0
보디	0
▁침식	0
강변	0
글라스	0
▁가점	0
활력	0
▁열세	0
▁잔잔	0
▁주심	0
▁울타리	0
공서	0
▁실화	0
▁훅	0
▁차후	0
▁구절	0
▁좌완	0
▁논술	0
▁허물	0
▁개연	0
▁담백	0
연극	0
▁초저	0
▁굵직	0
만화	0
▁순익	0
보트	0
▁짠	0
▁푸짐	0
▁건선	0
▁초전	0
▁홀드	0
▁근력	0
▁곧장	0
음향	0
▁마녀	0
잉글랜드	0
▁수전	0
▁아세	0
▁경각	0
▁안장	0
▁킥	0
▁관념	0
▁도도	0
휴게소	0
늦	0
▁샴푸	0
▁발하	0
항공기	0
▁만두	0
파트너	0
여종	0
만기	0
▁금기	0
렉스	0
▁피검	0
▁예리	0
제회	0
▁드로잉	0
많이	0
골드	0
▁탈기	0
▁제수	0
▁실기	0
▁화자	0
통하	0
▁따름	0
▁소급	0
▁헐	0
포크	0
▁정우	0
고유	0
▁스킬	0
인턴	0
▁송달	0
▁양양	0
▁리허설	0
▁로케이션	0
추석	0
차림	0
청정	0
▁예원	0
▁뉴런	0
운수	0
압박	0
▁폭설	0
▁포자	0
▁분압	0
라스	0
출물	0
▁북경	0
▁신드롬	0
결구	0
▁주일	0
청소기	0
화보	0
미사	0
▁시제	0
▁타진	0
서명	0
▁어미	0
▁난간	0
▁피지	0
근접	0
▁허술	0
터빈	0
▁소울	0
▁파노라마	0
후방	0
포드	0
▁가왕	0
적층	0
경도	0
▁덱	0
증세	0
▁발인	0
성당	0
▁포르	0
▁배석	0
▁결방	0
토출	0
▁철판	0
▁낙후	0
부사	0
▁절묘	0
볶이	0
약국	0
취록	0
오차	0
▁리시버	0
▁내사	0
▁짜증	0
▁안과	0
▁봉입	0
▁발색	0
▁침강	0
▁우전	0
창구	0
▁고요	0
▁사뭇	0
▁면상	0
▁로열티	0
▁정액	0
승리	0
▁아이덴티티	0
▁마구	0
▁간과	0
▁적격	0
▁입도	0
▁음압	0
▁시종	0
▁스트라이크	0
▁계주	0
▁앵글	0
일관	0
▁비염	0
획단	0
▁한옥	0
파라	0
고은	0
▁개업	0
트레인	0
배분	0
▁톡	0
▁태자	0
▁은혜	0
▁웃기	0
▁호일	0
▁동북	0
▁가옥	0
▁프리뷰	0
▁밀레	0
▁주스	0
▁병태	0
▁유제	0
▁예기	0
옵	0
▁순직	0
▁머릿	0
▁줄거리	0
수능	0
▁도우미	0
▁미숙	0
▁쇠	0
자분	0
관념	0
▁쥔	0
▁점퍼	0
▁된장	0
▁우드	0
▁안전장치	0
▁국수	0
▁흡사	0
▁발사대	0
집권	0
▁규범	0
▁건가	0
아미	0
소환	0
▁피로감	0
▁행방	0
▁죄질	0
▁갱	0
▁반투명	0
주파	0
▁휴게	0
발진	0
여객	0
▁각하	0
▁저격	0
▁요격	0
▁확연히	0
▁내로	0
필러	0
▁해남	0
▁시립	0
▁가마	0
▁햄	0
▁편중	0
앵커	0
자이	0
▁감식	0
▁원산	0
▁간첩	0
▁숙원	0
크레인	0
▁실측치	0
▁패전	0
▁광센서	0
동결	0
▁학자금	0
돌출	0
▁귀한	0
사주	0
스톡	0
▁유기체	0
▁튀김	0
▁염이	0
▁위너	0
주제	0
▁불의	0
▁진척	0
재물	0
▁안내문	0
▁투표소	0
▁플로어	0
▁소유주	0
▁도끼	0
▁인화	0
▁모씨	0
▁유신	0
▁인적	0
▁궁전	0
용융	0
▁항응고제	0
툴	0
단절	0
▁황산마그네슘	0
▁발포제	0
케이싱	0
▁통신비	0
프레스	0
상면	0
▁부반송파	0
▁묘역	0
납	0
▁케냐	0
로지	0
경과	0
밀봉	0
▁은밀	0
▁당좌	0
천연	0
▁특기	0
▁대인	0
▁출항	0
▁진해	0
파리	0
인기	0
▁용병	0
산증	0
▁호반	0
▁노숙	0
▁민망	0
▁기록물	0
▁협소	0
▁이나	0
▁전보	0
▁가인	0
▁난연성	0
▁약칭	0
▁무드	0
미수	0
▁전력선	0
▁연례	0
▁벤치마킹	0
▁한라산	0
▁소행	0
▁패혈증	0
▁설전	0
▁에너지원	0
▁뇌혈관	0
구요	0
▁분별	0
변국	0
▁수작업	0
▁고질	0
공여	0
▁정론	0
▁인스턴트	0
시아닌	0
단다	0
▁유머	0
▁위례	0
홀드	0
임상	0
▁유정	0
▁위급	0
▁마술	0
축소	0
홍반	0
▁군데	0
▁쏠림	0
▁자아	0
▁포옹	0
▁여액	0
▁보성	0
언제	0
용사	0
▁등받이	0
선임	0
▁사선	0
▁월등히	0
▁진균	0
▁상급	0
▁구독자	0
▁죽인	0
▁무궁화	0
쓰리	0
우편	0
그간	0
▁인질	0
습자	0
별도	0
▁전위차	0
중도	0
연예인	0
▁녹는점	0
▁생강	0
균수	0
▁조직원	0
점제	0
동계	0
급구	0
▁천하	0
▁일침	0
재활	0
▁멸망	0
▁관용	0
▁폐해	0
▁완제품	0
보사	0
실온	0
효	0
▁석고	0
이웃	0
개헌	0
▁진동자	0
평판	0
▁온실	0
적폐	0
▁전자책	0
▁유충	0
폴리스	0
인회	0
진제	0
▁밸러스트	0
▁저렇게	0
▁향미	0
▁용융물	0
▁업자	0
▁디시	0
▁청자	0
▁발아	0
마루	0
▁이남	0
▁목걸이	0
▁가까스로	0
▁폭포	0
▁상청	0
정액	0
▁전언	0
도박	0
세탄	0
응고	0
▁금융업	0
이중	0
교포	0
룬	0
▁선대	0
▁개도	0
▁배부	0
▁고조파	0
▁빈자리	0
▁부엌	0
▁종점	0
▁흡광	0
▁지그재그	0
세율	0
▁비거리	0
관로	0
▁시트콤	0
▁공정성	0
▁뉴딜	0
▁병진	0
▁폐막	0
▁원기둥	0
몫	0
▁측판	0
▁도용	0
▁서사	0
▁나치	0
▁리치	0
▁정회	0
▁세미	0
주심	0
▁화백	0
▁실선	0
품종	0
▁퇴치	0
징수	0
▁수영복	0
▁대작	0
성막	0
▁승부차기	0
▁농부	0
지로	0
▁가산점	0
▁대포	0
▁선처	0
▁시효	0
▁하루빨리	0
▁기생충	0
감면	0
▁동갑내기	0
▁지배력	0
제원	0
▁턱없이	0
▁거래처	0
▁넌	0
복원	0
분열	0
구름	0
실세	0
▁르네상스	0
창작	0
▁시련	0
▁빨래	0
▁남극	0
▁인포	0
반고	0
▁승합차	0
니켈	0
저런	0
재개	0
▁냉난방	0
▁본청	0
▁원반	0
신체	0
드라이버	0
▁르노	0
한류	0
▁잔혹	0
▁불식	0
▁스크립트	0
▁마아	0
▁셔틀	0
후반	0
▁약식	0
▁똑똑	0
▁정모	0
약관	0
명소	0
▁책자	0
▁간세포	0
점막	0
일간	0
▁경리	0
시한	0
퍼스	0
공통	0
재로	0
▁스킵	0
▁검열	0
보안법	0
▁전환점	0
▁기본급	0
녹화	0
▁불사	0
▁말소	0
▁자긍심	0
▁낙하산	0
불소	0
남매	0
▁탈북자	0
▁아세트아미노펜	0
공무	0
조제	0
▁디트로이트	0
성동	0
▁자유투	0
루이스	0
보건소	0
당사자	0
▁학급	0
▁입력축	0
회차	0
명단	0
▁용사	0
전한	0
진부	0
▁내국	0
수의	0
약자	0
▁완패	0
▁핸들링	0
▁숙지	0
▁제빙	0
▁가감	0
▁인대	0
았었	0
시그널	0
▁복리	0
▁술자리	0
▁냄비	0
약간	0
보이스	0
▁노볼락	0
▁명도	0
▁최고위	0
▁시뮬레이터	0
▁부쩍	0
▁구이	0
외국어	0
▁어학	0
▁대마초	0
▁유전율	0
▁근무자	0
나미	0
의뢰	0
산지	0
농민	0
▁보존제	0
번역	0
▁설립자	0
▁리플렉터	0
시물	0
▁수뇌부	0
캐릭터	0
세탁기	0
망간	0
▁전자기파	0
▁지중해	0
▁전곡	0
▁무성	0
▁쿼드	0
펀치	0
▁정부군	0
해설	0
이즈	0
▁중심점	0
▁산맥	0
▁대체물	0
▁윗부분	0
▁컬렉터	0
▁청중	0
▁구면	0
▁유능	0
▁스리랑카	0
▁시체	0
진화	0
지리	0
▁단합	0
▁포름산	0
탐	0
쿠션	0
▁재테크	0
컨트롤	0
▁돌진	0
▁이치	0
압착	0
▁과속	0
▁군주	0
▁방글라데시	0
아크	0
▁분절	0
▁명예훼손	0
▁소회	0
▁동심	0
▁경정	0
▁뭉치	0
▁예탁	0
▁펄스폭	0
▁자전	0
수칙	0
▁부원장	0
▁기계식	0
▁비관	0
▁항산화제	0
콜린	0
▁뇌파	0
경매	0
싱글	0
소유자	0
▁제패	0
▁녹내장	0
▁주유	0
접	0
▁기념관	0
▁교통량	0
▁초임계	0
대략	0
▁곤	0
▁컷오프	0
▁씨름	0
▁사촌	0
▁하자	0
▁취약점	0
▁충고	0
미트	0
▁구출	0
증식	0
▁카복실산	0
▁척수	0
구입	0
▁췌장암	0
▁전립선암	0
▁어서	0
상수	0
▁폭주	0
▁와일드카드	0
재원	0
고기	0
▁직립	0
탁조	0
▁유명세	0
▁겸직	0
세관	0
▁자의	0
전파	0
▁저항기	0
▁학술지	0
▁통쾌	0
국어	0
▁검찰청	0
▁절전	0
세척	0
▁소방청	0
공학부	0
▁춘추관	0
아세톤	0
▁녹록	0
구분	0
▁지휘관	0
▁경복궁	0
복판	0
광체	0
가든	0
인출	0
▁파월	0
주류	0
중부	0
▁평지	0
증기	0
내측	0
정성	0
▁신진	0
▁의례	0
▁히스토그램	0
▁사행	0
▁비강	0
실사	0
음식점	0
▁편도	0
▁참패	0
▁복당	0
▁통폐합	0
▁비축	0
누적	0
▁도프	0
▁은은	0
마약	0
▁다자	0
▁특조	0
전철	0
▁대장정	0
▁핸드오프	0
▁의과	0
▁원두	0
▁대명사	0
사와	0
전소	0
▁주소지	0
전증	0
▁특약	0
▁쿼터	0
▁콤비	0
▁엄선	0
▁대류	0
포린	0
▁온스	0
▁방광	0
▁태양열	0
진정	0
▁무지개	0
▁음량	0
▁천문학	0
증명	0
도우	0
▁역상	0
▁연원	0
▁어리	0
▁대통령령	0
▁표지판	0
▁판도	0
▁진동판	0
▁도하	0
▁가두	0
이토	0
▁막론	0
▁정가	0
▁용감	0
▁난소	0
▁공과	0
▁종축	0
여단	0
▁조현	0
▁의아	0
▁명심	0
법정	0
지능	0
단편	0
▁공작물	0
▁의논	0
면판	0
▁토스	0
▁출범식	0
▁유통망	0
▁에티오피아	0
▁열수	0
▁욕조	0
비치	0
▁화천	0
▁조영제	0
기아	0
▁방부제	0
▁협찬	0
부자	0
▁제물	0
▁가소	0
공방	0
▁혈세	0
▁어마어마	0
▁남서쪽	0
▁자작곡	0
루미	0
▁저주	0
방울	0
▁전입	0
▁저절로	0
▁상소	0
▁애칭	0
▁열대야	0
▁구실	0
▁골프공	0
위협	0
▁다당류	0
즙	0
타격	0
선배	0
▁다이빙	0
▁입장료	0
부실	0
▁식초	0
쥐	0
▁연혁	0
▁궁	0
▁병실	0
▁슬기	0
▁관찰자	0
전혀	0
냄새	0
▁모세	0
▁슈퍼마켓	0
마치	0
광역	0
스틱	0
자살	0
▁지구촌	0
▁액자	0
▁완파	0
▁이븐	0
▁마땅히	0
▁발표회	0
카바졸	0
▁국보	0
▁합계액	0
▁과전류	0
▁완도	0
▁내의	0
▁직조	0
▁난동	0
▁무인기	0
주한	0
▁그리스도	0
민회	0
▁단상	0
▁대웅	0
▁오스테나이트	0
▁게임기	0
▁무제	0
이력	0
달리	0
▁세르비아	0
강연	0
▁조모	0
조옥	0
왜곡	0
오른쪽	0
▁고인돌	0
▁개점	0
▁갈래	0
경협	0
▁국제공항	0
▁실생활	0
▁스테이크	0
▁창사	0
▁소용	0
빙상	0
▁소방대원	0
기독교	0
재벌	0
▁격파	0
▁문법	0
▁더더욱	0
▁수혈	0
▁급급	0
▁착오	0
▁충청도	0
급체포	0
▁예쁘다	0
▁상등	0
▁정석	0
▁라이닝	0
▁애인	0
게나	0
이치	0
뭐	0
▁영상물	0
▁탄화물	0
▁반열	0
▁액화천연가스	0
▁삼중	0
▁자유도	0
▁포워드	0
▁비우	0
옆	0
부과	0
▁이스트	0
농성	0
괴물	0
▁동창	0
▁함성	0
▁입사각	0
명세서	0
▁당직자	0
교시	0
▁강수	0
이건	0
▁쇠퇴	0
▁바이올린	0
▁양분	0
▁매료	0
▁한국사	0
▁체불	0
입경	0
▁천지	0
▁보임	0
▁스케이팅	0
▁풀타임	0
▁당혹	0
바위	0
개성	0
▁흡입력	0
▁고졸	0
패럴림픽	0
▁톡톡	0
▁식수	0
컨베이어	0
▁통신업	0
▁선교	0
입학	0
▁제주특별자치도	0
▁신학	0
▁소란	0
▁아프가니스탄	0
▁감지기	0
▁솜씨	0
▁표시기	0
▁누드	0
캠페인	0
▁깊숙이	0
▁대리운전	0
▁가열기	0
▁전대	0
누나	0
▁경총	0
▁타개	0
▁코끼리	0
▁정박	0
▁매개체	0
▁협심증	0
▁성대	0
▁한의사	0
▁가면	0
저부	0
▁본명	0
▁진성	0
경정	0
▁중앙당	0
▁수자원	0
▁해산물	0
▁분취	0
▁염산염	0
환식	0
▁제제화	0
▁부팅	0
▁색인	0
▁자중	0
▁집결	0
▁프레젠테이션	0
▁환경영향평가	0
▁잠금장치	0
▁현관	0
명품	0
▁입안	0
▁이성체	0
▁번개	0
▁음란물	0
▁세계관	0
▁기틀	0
압출	0
장학금	0
▁무기질	0
▁맞은편	0
▁모터쇼	0
▁특전	0
▁기자재	0
▁이양	0
피부염	0
▁감세	0
▁샤시	0
▁요정	0
멕시코	0
화도	0
▁흐뭇	0
출액	0
역가	0
양호	0
▁중장	0
부기	0
▁폐열	0
우리나라	0
▁이동상	0
▁립스틱	0
접시	0
그리드	0
전적	0
▁당도	0
▁호실	0
▁부디	0
▁킬러	0
인듐	0
주의자	0
▁일생	0
▁엑스레이	0
취지	0
독재	0
▁공복	0
▁공권력	0
▁고화	0
근거	0
▁서거	0
파견	0
▁옥소	0
▁관악	0
▁어린아이	0
인덱스	0
▁폭격	0
▁대장염	0
▁허리케인	0
▁지부	0
▁송전	0
▁난감	0
▁무주	0
▁선뜻	0
▁서훈	0
집체	0
▁매혹	0
비드	0
뚜껑	0
▁생사	0
▁웬만	0
▁관상	0
도장	0
▁부전	0
▁선취점	0
▁방증	0
수산물	0
▁나들이	0
▁시이	0
▁순번	0
▁스물	0
▁영변	0
▁성관	0
스테이	0
로라	0
수신기	0
파형	0
동생	0
▁시찰	0
▁반정부	0
▁제곱	0
▁인공위성	0
▁작업장	0
코르	0
▁친선	0
연말	0
▁취입	0
▁회기	0
▁신율	0
▁열사	0
치즈	0
물체	0
▁파탄	0
▁리베이트	0
▁병무청	0
시정	0
▁에세이	0
바늘	0
▁산입	0
▁지평	0
▁창간	0
▁판매점	0
▁예루살렘	0
옥산	0
가계	0
시장법	0
▁관습	0
▁북동쪽	0
육아	0
▁마닐라	0
▁도수	0
▁대동	0
행렬	0
다공성	0
전법	0
던가	0
▁편익	0
▁방조	0
코스닥	0
▁초선	0
부사장	0
▁노동계	0
공지	0
▁복역	0
오니	0
▁샌디에이고	0
▁트랜스포머	0
동자	0
체하	0
관람	0
▁연구실	0
▁거처	0
족기	0
▁감미	0
▁다방면	0
▁조연	0
▁연패	0
▁치부	0
▁사도	0
▁국방위원회	0
▁민원인	0
군단	0
이용자	0
소수자	0
▁줄무늬	0
▁보수당	0
저녁	0
마라톤	0
모니터	0
펜틸기	0
스피커	0
무스	0
릴레이	0
▁미들웨어	0
▁속마음	0
투기	0
▁꼭대기	0
▁자연수	0
잡지	0
▁외인	0
▁도전자	0
▁모체	0
상이	0
찌	0
▁부탄	0
개질	0
▁굳건히	0
이체	0
▁청룡	0
뼈	0
▁스킨십	0
▁국내선	0
▁제언	0
스웨덴	0
▁청도	0
강력	0
▁연직	0
▁신문사	0
▁면내	0
▁내실	0
▁분극	0
▁텔레비	0
▁고운	0
요오	0
데뷔	0
▁사채	0
▁기꺼이	0
주관	0
▁홍익	0
▁아냐	0
참사	0
▁흡열	0
▁유적지	0
단결	0
▁전륜	0
▁항쟁	0
▁복숭아	0
▁배뇨	0
▁전처	0
▁부풀	0
▁물색	0
▁각료	0
마의	0
▁합창	0
▁열혈	0
▁번들	0
▁휴직	0
▁산행	0
▁멜라닌	0
▁발한	0
▁향토	0
회가	0
▁회사원	0
한국인	0
▁히알루론산	0
▁포석	0
▁부녀	0
▁토치	0
▁사투리	0
▁발가락	0
▁녹조	0
소감	0
▁대성	0
보급	0
▁정품	0
탈륨	0
▁점자	0
중기	0
▁방금	0
▁연사	0
▁특산물	0
▁지하철역	0
▁공해	0
▁공차	0
▁대등	0
▁통칭	0
▁반사기	0
▁호화	0
▁혈	0
▁공소사실	0
원고	0
▁항문	0
▁앙상블	0
영웅	0
▁상근	0
▁두어	0
▁취직	0
▁미공개	0
▁부두	0
▁트레드	0
출입	0
날로	0
▁모모	0
▁소용돌이	0
▁역행	0
▁군집	0
정맥	0
코너	0
▁주교	0
▁펜싱	0
▁행인	0
▁무균	0
▁재일	0
▁부흥	0
▁현미	0
▁잔해	0
▁채굴	0
▁동호회	0
▁퓨전	0
휴	0
으리라	0
▁핸드볼	0
▁백지	0
▁성토	0
▁구슬	0
▁상하부	0
▁항고	0
▁표창장	0
▁통통	0
▁승부수	0
▁재수사	0
항진	0
▁세터	0
▁이용료	0
스프	0
▁수용자	0
수면	0
오히려	0
▁교차점	0
발레	0
▁투과도	0
▁심리학	0
계획안	0
나토	0
취부	0
확	0
▁체격	0
▁떨림	0
▁스트레인	0
▁전반전	0
▁시식	0
출장	0
▁수로	0
▁각선미	0
괴	0
▁청동기	0
▁음란	0
▁채집	0
▁설악산	0
▁바스켓	0
▁산발	0
포티	0
▁리타	0
▁괴사	0
▁매개변수	0
▁잔여물	0
▁부영	0
▁수배	0
▁존엄	0
▁코카	0
닭	0
▁자이로	0
호흡	0
연봉	0
이식	0
리치	0
사거리	0
▁역전패	0
▁효용	0
공물	0
▁사계절	0
무슨	0
▁서문	0
▁레이크	0
▁목조	0
▁관중석	0
▁금상	0
산전	0
구민	0
▁물방울	0
약제	0
우유	0
▁모종	0
결의	0
▁어휘	0
우려	0
▁역회전	0
▁이목구비	0
놈	0
▁판촉	0
회피	0
▁일손	0
▁나달	0
금고	0
▁프로판	0
갈륨	0
▁마음가짐	0
작부	0
▁예치	0
스트로	0
▁불용성	0
기호	0
▁불쾌감	0
▁디카르복실산	0
▁담수	0
▁당직	0
▁수변	0
▁내통	0
▁앞날	0
▁각급	0
▁보라	0
▁유배	0
차기	0
▁해프닝	0
▁골짜기	0
과액	0
▁창의력	0
▁번번이	0
▁위증	0
▁동인	0
자단	0
▁심려	0
고양이	0
▁축구장	0
▁가든	0
수용액	0
▁참기름	0
쿵	0
싱가포르	0
루트	0
법규	0
▁폭파	0
▁공분	0
▁고소인	0
▁리보	0
대인	0
▁오열	0
▁눈썹	0
▁노약자	0
취급	0
▁초고속	0
▁스크램블	0
▁삼촌	0
▁대위	0
▁다산	0
트기	0
▁정글	0
▁마곡	0
소르	0
백색	0
▁남동생	0
▁세입	0
▁중앙선	0
▁금년	0
▁과격	0
에틸에테르	0
가명	0
▁국제법	0
▁부압	0
▁수다	0
군민	0
▁텀블러	0
작물	0
▁열매체	0
▁수도권	0
▁벌레	0
▁충동	0
▁경시	0
▁진달래	0
동상이몽	0
▁배위	0
지민	0
▁금세	0
▁피켓	0
▁콜로니	0
▁아슬아슬	0
▁연희	0
▁메가폰	0
▁뒤편	0
▁자연재해	0
▁농경지	0
용도	0
▁빗방울	0
▁코칭스태프	0
▁휴양	0
▁북유럽	0
▁불면증	0
▁교토	0
▁가액	0
▁바닥재	0
▁처사	0
가슴	0
색부	0
운동가	0
▁그리움	0
▁아담	0
▁수첩	0
▁에콰도르	0
▁위도	0
▁오수	0
▁거침없이	0
▁선택지	0
▁비서실	0
무장	0
▁궐련	0
▁교단	0
폐기	0
▁가나	0
▁다각화	0
▁국화	0
▁연합군	0
한겨레	0
▁공황	0
▁용돈	0
▁내공	0
▁웨지	0
▁근속	0
▁흔쾌히	0
▁김밥	0
법조	0
▁디옥산	0
전기금	0
▁출수	0
유세	0
▁하소	0
▁애국	0
▁지열	0
▁연어	0
▁식자재	0
환급	0
▁개학	0
▁말레	0
▁겹	0
▁교두보	0
어회	0
▁해협	0
첨가제	0
휴사	0
균주	0
▁기고	0
막대	0
▁성서	0
수식	0
도우미	0
▁암나사	0
▁초조	0
▁서북	0
동량	0
파수	0
아지드	0
▁혼동	0
▁건재	0
▁반사막	0
▁아줌마	0
국세청	0
으라	0
▁계약직	0
▁침실	0
▁연천	0
▁흉부	0
▁가열로	0
▁군사력	0
▁피코	0
물자	0
▁강직	0
▁지뢰	0
라디칼	0
품명	0
시머	0
▁사살	0
▁분유	0
적십자사	0
충청	0
▁비데	0
▁마그네트론	0
추위	0
▁교통망	0
▁자초	0
▁방향제	0
▁추가경정예산	0
▁국유	0
▁템포	0
▁생명체	0
▁대령	0
▁물자	0
▁대물렌즈	0
▁해답	0
끈	0
▁영암	0
▁법대	0
▁추계	0
▁민요	0
▁경인	0
순손실	0
▁끈끈	0
▁열교	0
왕후	0
태양광	0
참가	0
이탈	0
▁수서	0
▁소르	0
▁무형	0
▁음극선관	0
정조	0
요한	0
보리	0
▁결승선	0
▁양식장	0
▁별지	0
숨	0
본사	0
▁이명	0
▁콜린	0
▁야수	0
▁지퍼	0
사업소	0
미도	0
후진	0
▁치약	0
미생	0
▁군복	0
▁일수	0
대별	0
▁능숙	0
▁냉각제	0
과부	0
▁내이	0
사법연수원	0
▁다승	0
▁전범	0
▁신안	0
▁묵인	0
색광	0
행시	0
▁불려	0
▁자평	0
수역	0
▁날로	0
▁논산	0
제일	0
▁주임	0
▁묘지	0
▁회의록	0
▁대란	0
▁쟁쟁	0
▁반원	0
치매	0
▁이소프로판올	0
▁창작자	0
▁설폰	0
분리기	0
▁가이	0
진상	0
급수	0
▁에스트로겐	0
▁병장	0
템	0
흡수성	0
▁감귤	0
▁능가	0
사선	0
반응식	0
▁식습관	0
유압	0
▁코미	0
보가	0
▁몽	0
반부	0
▁찬양	0
▁준공식	0
▁봉착	0
▁약효	0
▁약재	0
제외	0
▁방범	0
보완	0
본문	0
성비	0
▁통기성	0
▁운동량	0
▁외연	0
연방	0
변위	0
아날로그	0
▁위약금	0
▁천국	0
구가	0
▁캐디	0
▁고찰	0
▁나이키	0
▁가격대	0
▁높낮이	0
▁월경	0
반면	0
예정자	0
▁트랙터	0
▁타블로	0
랭	0
▁수입품	0
▁법선	0
▁클레이	0
▁반사경	0
기압	0
졸업	0
▁성형외과	0
단층	0
▁이해도	0
▁획	0
▁방불	0
▁광자	0
상당	0
▁보아	0
발견	0
▁일문일답	0
재고	0
부와	0
프린터	0
▁비운	0
▁포름알데히드	0
▁라틴	0
날씨	0
▁사이클론	0
식수	0
▁고산	0
▁멸치	0
▁부기	0
공신	0
종사자	0
▁팀워크	0
처리장	0
▁개도국	0
▁뽀뽀	0
인제	0
▁참견	0
▁밑면	0
명의	0
▁중공사	0
▁점착력	0
▁성벽	0
▁압승	0
일상	0
▁템	0
안경	0
발작	0
▁체외	0
▁간략히	0
기록부	0
주장	0
에틸기	0
▁예술인	0
이혼	0
▁소개팅	0
▁조서	0
▁대물	0
담사	0
▁난리	0
▁투자처	0
기와	0
만일	0
▁배수관	0
대조	0
▁샤프	0
압축기	0
▁헵탄	0
랍	0
▁영사	0
잔액	0
▁이량체	0
▁소화성	0
버섯	0
샘플링	0
▁명사	0
▁단체장	0
▁사용법	0
▁그쪽	0
▁과하	0
화고	0
▁언로	0
▁금치	0
▁피더	0
핵산	0
▁카페인	0
▁엑손	0
▁극장가	0
주조	0
제법	0
▁납작	0
▁간섭계	0
▁관저	0
▁주파	0
▁소총	0
▁삼척	0
▁캐스트	0
▁양생	0
▁애경	0
▁기만	0
▁인돌	0
▁청라	0
▁절로	0
▁횡포	0
나리	0
▁침공	0
▁신고자	0
▁주재료	0
▁이공	0
공익	0
▁각성	0
▁제동력	0
▁고금리	0
▁차근차근	0
입관	0
묘지	0
▁흡음	0
▁음악가	0
손잡이	0
▁천체	0
예탁	0
깜짝	0
▁피리미딘	0
고개	0
광판	0
리프	0
▁자켓	0
커패시터	0
분대	0
핸들	0
파악	0
이슈	0
단막	0
드레싱	0
▁수도원	0
▁취업률	0
영화상	0
▁고을	0
공립	0
▁목적물	0
▁카스	0
▁뭉클	0
공과	0
▁실례	0
▁급상승	0
흥	0
▁반향	0
▁휴양지	0
▁비저항	0
수비	0
안지	0
▁산업체	0
교과	0
경향	0
▁박막층	0
▁밀러	0
▁주점	0
▁내기	0
▁준용	0
갱신	0
▁농기계	0
▁만류	0
반영	0
▁후반전	0
▁제안서	0
▁무비	0
▁주효	0
▁접선	0
실명	0
▁우편물	0
▁고위직	0
▁일지	0
는커녕	0
라이너	0
▁실거	0
▁금일	0
동지	0
▁교통수단	0
내성	0
▁에는	0
승부	0
▁스키장	0
▁요코하마	0
▁눈시울	0
산체	0
▁사다리꼴	0
▁부제	0
상식	0
▁긴박	0
▁청바지	0
일명	0
▁분쇄기	0
▁남중국해	0
▁저밀	0
▁피살	0
▁남동	0
▁금속재	0
앰프	0
▁전자선	0
저자	0
융자	0
명칭	0
▁청량	0
실험장	0
신인	0
▁칵테일	0
▁김의	0
▁대지진	0
▁페니실린	0
▁의석수	0
지배	0
▁소지자	0
▁토익	0
▁재배치	0
임계	0
▁조작자	0
결핍	0
제휴	0
베이징	0
▁지중	0
불포화	0
▁그러다	0
▁수비진	0
▁포인팅	0
▁수평면	0
▁문전	0
유식	0
▁음영	0
▁열병식	0
▁학년	0
사찰	0
▁동급	0
▁종횡비	0
기관장	0
▁혼합비	0
메이커	0
▁특단	0
조도	0
▁피벗	0
▁인내	0
▁헛스윙	0
▁궁궐	0
▁일병	0
▁부티	0
▁단종	0
▁결합기	0
▁괴리	0
옹	0
▁막연	0
카라	0
고종	0
▁사회봉사	0
▁누명	0
▁흡연자	0
크롬	0
▁진탕	0
일수	0
기장	0
▁보청기	0
▁대진	0
▁의뢰인	0
프린트	0
▁정읍	0
과일	0
▁망라	0
서도	0
▁피어	0
에이스	0
▁신지	0
▁낙선	0
▁응수	0
▁완주군	0
여수	0
▁자구	0
▁기억력	0
목포	0
▁답사	0
▁여분	0
▁상체	0
▁소름	0
입사	0
▁방진	0
▁릴리프	0
▁브뤼셀	0
▁고성장	0
▁출점	0
취하	0
▁간접세	0
파생	0
▁길목	0
방사선	0
▁아동학	0
▁발생량	0
▁워크아웃	0
▁대림	0
▁부스터	0
▁공시지가	0
▁담판	0
유선	0
▁폰트	0
▁몸집	0
선사	0
건조기	0
▁재판장	0
▁대졸	0
관리사	0
물건	0
▁군사분계선	0
▁북위	0
▁촉	0
김포	0
▁상표명	0
제주도	0
▁밀라노	0
▁도운	0
▁콤플렉스	0
소독	0
니트로	0
▁선수촌	0
▁정주	0
▁에센스	0
▁식물체	0
▁아부	0
▁자바	0
▁마감재	0
당도	0
코프	0
전세	0
▁참치	0
통지	0
공예	0
▁톰슨	0
포토	0
▁호박	0
솔직히	0
▁훈련장	0
▁내레이션	0
▁고출력	0
코니아	0
▁섬유상	0
진하	0
▁엄벌	0
탐색	0
▁비약	0
▁갑작	0
▁연호	0
▁삽입구	0
▁로더	0
▁천황	0
▁남동쪽	0
▁잠수	0
매출액	0
▁하역	0
▁어김없이	0
▁본방	0
▁글리신	0
▁제니	0
▁사무장	0
▁정류기	0
구로	0
▁군함	0
▁데이비스	0
▁천연기념물	0
▁연구비	0
여력	0
▁대공	0
▁상압	0
▁일직선	0
▁회자	0
▁갈증	0
▁은하	0
▁마린	0
▁프레스센터	0
▁왕래	0
서비스업	0
▁이통	0
▁순탄	0
그리스	0
▁철분	0
▁캘린더	0
강국	0
▁인멸	0
▁쫄깃	0
▁명복	0
의상	0
▁망인	0
▁도산	0
▁씽	0
▁공여	0
▁감광체	0
개수	0
부시장	0
▁마이크로웨이브	0
그럼	0
▁판독기	0
▁징용	0
통보	0
▁삼양	0
▁외로움	0
▁저수조	0
▁분만	0
커뮤니티	0
▁억대	0
▁클렌징	0
▁등가물	0
▁오미	0
지성	0
▁고아	0
가방	0
▁병기	0
▁글로브	0
▁극단주의	0
▁돌연변이체	0
포수	0
수관	0
▁프라이버시	0
▁평정	0
▁공공시설	0
▁홍천	0
신사	0
▁희망퇴직	0
무진	0
▁난무	0
▁밀워키	0
▁고지혈증	0
접근	0
대여	0
응급	0
▁컨설턴트	0
▁해동	0
▁측량	0
▁부적	0
주스	0
▁차남	0
댓글	0
▁미각	0
▁필승	0
▁탄산칼륨	0
▁석재	0
▁유황	0
소개	0
고인	0
▁친수	0
▁부정부패	0
장식	0
선전	0
▁몸살	0
진술	0
▁향방	0
▁밀봉재	0
▁척결	0
작인	0
난민	0
고속도	0
▁치우	0
▁유라시아	0
이념	0
▁내화	0
▁증오	0
▁봉안	0
▁이음	0
▁답방	0
▁무당	0
▁개미	0
비탄	0
▁황갈색	0
▁혼용	0
▁요한	0
▁덧붙이	0
▁토금속	0
▁고발장	0
기종	0
▁미지급	0
▁북극	0
▁제막	0
▁기약	0
평부	0
▁백색광	0
▁스위트	0
▁예후	0
▁미술품	0
▁항공모함	0
호출	0
▁송이	0
브래킷	0
▁지류	0
▁발원	0
▁통용	0
▁장타	0
오크	0
조선소	0
▁비비	0
▁유급	0
▁발바닥	0
▁공매	0
▁취수	0
피치	0
▁회유	0
▁비선	0
▁진흙	0
정운	0
▁한림	0
▁하도	0
가맹점	0
▁티로신	0
▁초창기	0
▁조밀	0
▁우완	0
중재	0
인도네시아	0
▁선불	0
치아	0
싸	0
▁분전	0
▁수여식	0
구치소	0
▁식생활	0
▁녹십자	0
테마	0
기원	0
▁분홍색	0
기밀	0
토양	0
▁광활	0
▁가의	0
▁절취	0
▁미인	0
▁근소	0
응용	0
▁허점	0
▁저작물	0
▁영유권	0
생체	0
▁군림	0
상한	0
▁노을	0
▁디텍터	0
▁관절통	0
▁손수	0
▁파스타	0
▁수건	0
▁사저	0
▁지치	0
▁콘테스트	0
▁진수	0
▁해안가	0
▁이력서	0
▁축가	0
아베	0
▁혼돈	0
유무	0
조시	0
로마	0
▁뿔	0
▁국선	0
재판부	0
▁세브	0
▁모교	0
▁빈맥	0
▁으로부터	0
▁자갈	0
마는	0
▁식도	0
지휘	0
▁자국민	0
▁이산	0
▁별칭	0
색소	0
▁도안	0
▁이동전	0
지형	0
체력	0
자임	0
▁몽환	0
▁아나필락시스	0
▁합성어	0
실리	0
폭발	0
▁모회사	0
소비세	0
난방	0
▁이직	0
구면	0
▁숙종	0
▁체인지업	0
▁월별	0
봉투	0
격투기	0
▁합창단	0
▁단언	0
▁의미심장	0
▁관계사	0
▁유약	0
▁요리사	0
▁스카	0
▁습윤제	0
▁사명감	0
▁염분	0
▁성도	0
▁윌슨	0
간염	0
▁싹쓸이	0
입원	0
응방	0
피겨	0
▁신조어	0
디오	0
버그	0
노동당	0
아무	0
시부	0
등록증	0
▁수개	0
▁사인회	0
▁봉제	0
위세	0
신세계	0
양측	0
정국	0
▁슈퍼맨	0
▁소포	0
▁타사	0
도발	0
수호	0
카트	0
▁한판	0
▁선불카드	0
행정부	0
▁우선순위	0
▁연필	0
펩타이드	0
▁니콜	0
▁난연	0
▁횡문근	0
▁오더	0
▁복근	0
▁교구	0
▁마침표	0
▁응급처치	0
후기	0
음악회	0
▁친지	0
▁진드기	0
▁좌충우돌	0
▁구단주	0
소서	0
▁기와	0
▁명기	0
▁뜰	0
▁잔고	0
변색	0
▁제설	0
▁디비전	0
▁미정	0
가비	0
▁감내	0
낙	0
▁테스	0
말레	0
반응물	0
▁향유	0
▁집중호우	0
▁군중	0
▁지양	0
▁중앙아시아	0
▁히드라	0
미안	0
▁오르내리	0
▁눈금	0
모션	0
아르	0
적료	0
배임	0
▁스리	0
변환기	0
▁신동	0
유적	0
▁항우울제	0
▁타면	0
방침	0
종과	0
▁중환자실	0
▁교전	0
증발	0
▁프리랜서	0
▁울진	0
▁생동감	0
▁산업재	0
격벽	0
▁분수령	0
미용	0
▁경지	0
▁과산화물	0
모터쇼	0
▁시합	0
점차	0
▁오정	0
오리	0
▁자동변속기	0
▁라이더	0
▁전과	0
▁비상사태	0
팍	0
사채	0
주인공	0
보름	0
▁비석	0
▁세자	0
▁어구	0
▁파킨슨병	0
▁우린	0
여진	0
사수	0
▁공실	0
▁상견례	0
불능	0
▁로션	0
염소	0
▁온기	0
뿌리	0
▁저역	0
▁교리	0
▁힌트	0
장인	0
▁화신	0
▁복안	0
선거구	0
▁원론	0
민감	0
비선	0
▁무선망	0
▁화순	0
▁쇼트프로그램	0
▁등교	0
풍속	0
송관	0
▁차상	0
달성	0
▁보고회	0
▁회고	0
미운	0
▁협지	0
특산물	0
거울	0
▁연석회의	0
▁당위	0
▁도봉	0
허위	0
▁병원장	0
계산서	0
빌라	0
▁비명	0
명절	0
▁동학	0
▁각본	0
▁꽁꽁	0
▁무술	0
▁중저가	0
당사	0
▁당사국	0
오류	0
임기	0
지름	0
▁헬리콥터	0
▁예선전	0
▁철제	0
닥	0
고조	0
▁고춧가루	0
국인	0
▁호의	0
▁벽부	0
▁다이어리	0
개최	0
▁고흥	0
▁오물	0
도료	0
헤더	0
분담	0
클립	0
기업인	0
▁처녀	0
▁장단	0
▁자장	0
▁탈루	0
▁과외	0
▁건대	0
장주	0
늘	0
▁몹시	0
▁거북	0
▁화랑	0
▁에이즈	0
▁연명	0
▁급락세	0
터키	0
▁대타협	0
▁본국	0
▁월성	0
모노머	0
토산	0
▁승낙	0
▁차용	0
▁아가	0
▁일률	0
곡인	0
▁현수	0
▁상훈	0
▁친밀	0
▁토머스	0
가연	0
액세스	0
▁탈수소	0
카프	0
▁미스터	0
▁판다	0
스케일	0
▁세린	0
▁체납자	0
▁오마	0
▁항정	0
▁도망	0
▁미상	0
▁간곡히	0
▁포탈	0
디자이너	0
▁촉감	0
▁종용	0
▁내인성	0
학부모	0
▁산뜻	0
상관	0
▁설령	0
아누	0
탄력	0
법무부	0
▁민박	0
▁서대문	0
▁상납	0
잔류물	0
▁행거	0
▁도급	0
유정	0
자외선	0
▁해라	0
▁배수구	0
▁가위	0
▁싸늘	0
▁스프링클러	0
▁수십만	0
일가	0
국과	0
▁심재	0
▁와이프	0
파라미터	0
만세	0
귀촌	0
▁포격	0
▁오크	0
▁환부	0
▁사춘기	0
▁소둔	0
▁예정일	0
▁열에너지	0
▁후원자	0
▁회합	0
하임	0
▁종부	0
▁물동량	0
▁성형물	0
월세	0
▁주요부	0
꼭	0
계약직	0
▁역가	0
▁원발성	0
합창단	0
▁설계사	0
▁함부르크	0
구획	0
▁오클랜드	0
▁내약	0
▁시현	0
내과	0
▁교화	0
▁특별상	0
▁안기	0
매년	0
▁수염	0
▁사라	0
▁난제	0
▁노비	0
성질	0
엄	0
▁관류	0
따뜻	0
는바	0
▁비접	0
▁계약자	0
▁충만	0
서점	0
포화	0
▁저명	0
▁뇌물죄	0
▁당과	0
▁이리	0
▁조리실	0
승계	0
▁충전부	0
▁구석구석	0
지명	0
▁아이슬란드	0
걱정	0
▁애착	0
▁복선	0
고압	0
▁택	0
▁점착성	0
▁색도	0
▁구문	0
▁모로코	0
▁컴프레서	0
▁수지상	0
긍정	0
▁학비	0
▁민간단체	0
▁착화	0
▁고국	0
▁시베리아	0
▁정찰	0
▁안부	0
▁덩치	0
▁성품	0
▁급기	0
언서	0
상상	0
보선	0
곽	0
는다며	0
▁험난	0
원형	0
시가	0
자비	0
▁풍랑	0
▁징벌	0
▁인기몰이	0
▁오동작	0
▁근린	0
▁응시자	0
▁낙엽	0
▁세례	0
▁유사시	0
▁스완지	0
▁나토	0
▁호조세	0
▁나물	0
▁티슈	0
관행	0
얼마	0
▁내신	0
▁레슬링	0
▁소사	0
배경	0
▁철심	0
▁규	0
실용	0
▁결합체	0
장수	0
▁도금액	0
칼럼	0
▁피해액	0
▁괴한	0
▁기혼	0
에다가	0
▁역주행	0
▁호세	0
버드	0
▁크실렌	0
외상	0
▁타파	0
어르신	0
약서	0
▁부가물	0
▁총합	0
▁직접세	0
붕소	0
▁양지	0
▁슬럼프	0
▁루마니아	0
▁퇴비	0
안트라센	0
▁부총재	0
▁단번에	0
▁머스크	0
▁냉철	0
매력	0
▁규약	0
수기	0
▁김성근	0
▁해조류	0
▁하이브리도마	0
▁흉터	0
▁혹평	0
▁후지	0
▁작성자	0
▁원빈	0
▁님	0
▁선택기	0
▁민영	0
영재	0
▁드레싱	0
냐면	0
▁잠기	0
소켓	0
원화	0
여왕	0
가노	0
▁정격	0
▁가산기	0
▁과대	0
▁총학생회	0
▁죄책감	0
▁진하	0
▁충칭	0
▁제초제	0
집계	0
▁밑거름	0
정류장	0
▁더군다나	0
▁인원수	0
▁체리	0
▁차압	0
문의	0
▁토의	0
노위	0
▁법률안	0
▁사적	0
무력	0
▁발단	0
▁플루오르	0
▁강산	0
▁동유럽	0
▁오용	0
민속	0
▁대명	0
▁피복층	0
▁영월	0
구이	0
▁범실	0
▁상경	0
앞서	0
나제	0
팔렘방	0
▁팔찌	0
아무리	0
▁죠	0
▁중등	0
▁음각	0
▁말다툼	0
▁도표	0
▁귀순	0
자성	0
▁작별	0
▁영공	0
▁오메가	0
몇몇	0
▁장공	0
▁편히	0
크레아티닌	0
▁섬유질	0
▁셀라이트	0
▁지압	0
▁우선주	0
▁스케이트	0
▁묶음	0
▁농수산물	0
▁안목	0
▁산단	0
기도	0
뮬	0
범행	0
▁외국환	0
▁창안	0
치수	0
▁잠자리	0
▁금산	0
연료전지	0
▁히로시마	0
▁자숙	0
▁농단	0
▁도르트문트	0
어드레스	0
태권	0
삶	0
염색	0
누설	0
▁적산	0
▁쑥	0
아리랑	0
▁침구	0
고등학생	0
▁흑색종	0
▁면역원성	0
▁판권	0
▁손녀	0
▁탕	0
▁원추형	0
▁영양분	0
▁반주	0
▁당구	0
여체	0
▁예언	0
여전히	0
▁상담원	0
▁면책	0
▁데님	0
▁아프간	0
용수	0
존중	0
스피드	0
▁임대인	0
▁기염	0
장실	0
▁단결	0
운항	0
▁계명	0
군데	0
▁용선	0
▁삭발	0
▁이주민	0
향서	0
▁조폭	0
▁덜미	0
▁세계무역기구	0
▁경호원	0
부업	0
▁진구	0
▁오스트레일리아	0
배틀	0
세균	0
생존	0
보여	0
▁소멸시효	0
▁물리학	0
▁구타	0
▁권수	0
▁광케이블	0
▁희비	0
▁뷔페	0
디시	0
▁자비	0
심각	0
예보	0
시술	0
▁무모	0
▁반점	0
아레나	0
▁개명	0
▁차출	0
▁유성기	0
▁앞부분	0
▁요리법	0
차세대	0
▁이물	0
▁워커	0
▁종목별	0
홉	0
좌측	0
▁친화력	0
▁십자가	0
초음파	0
▁입자경	0
잔고	0
▁실은	0
특파원	0
▁탄산염	0
▁데모	0
▁데뷔작	0
▁당화	0
▁한솔	0
▁미토콘드리아	0
▁전라	0
▁잠잠	0
▁저수지	0
▁인발	0
▁김치냉장고	0
소방본부	0
▁결빙	0
▁통형	0
▁세포막	0
▁산가	0
▁초심	0
▁저리	0
▁잡초	0
포외	0
▁슈퍼스타	0
거든	0
▁로저스	0
▁갖가지	0
▁강정	0
대륙	0
퇴직	0
▁사주	0
▁취침	0
생부	0
사무실	0
영입	0
리본	0
사지	0
▁포타슘	0
소계	0
스님	0
나비	0
실수	0
▁펑	0
▁제청	0
한계	0
▁압송	0
공직	0
▁광전자	0
▁로테이션	0
▁불용	0
▁출연금	0
▁복음	0
시보	0
심부	0
▁대상지	0
▁하느님	0
▁금원	0
휴대폰	0
▁강탈	0
▁페널티	0
▁명상	0
▁만니톨	0
계부	0
▁러프	0
▁형벌	0
▁굴삭기	0
▁턴테이블	0
▁가압류	0
블로그	0
방부	0
▁역풍	0
▁무허가	0
선고	0
▁고단	0
▁철학자	0
▁홋카이도	0
▁전석	0
미소	0
▁어묵	0
▁허무	0
폴리에스테르	0
▁헤드폰	0
기술자	0
내외	0
▁난조	0
▁넋	0
▁변종	0
확충	0
윙	0
▁소수자	0
▁스카우트	0
▁가출	0
▁서예	0
▁완전체	0
에어컨	0
지주회사	0
타이밍	0
▁약진	0
▁인쇄물	0
▁시추	0
지관	0
▁동백	0
▁대추	0
비료	0
피막	0
혈	0
당분간	0
▁숙신산	0
온의	0
▁오롯	0
죽음	0
▁토르	0
임신	0
▁오뚜기	0
전년	0
시약	0
▁설포닐	0
▁맹비난	0
▁분권	0
냐며	0
슬라이드	0
장학	0
삿	0
▁광주광역시	0
▁포장지	0
▁할인율	0
▁달성군	0
대표단	0
▁육종	0
▁가평	0
개요	0
태풍	0
▁격실	0
아무개	0
▁청구서	0
구미	0
하이드라이드	0
작곡	0
모니터링	0
▁그토록	0
▁여직	0
▁가뜩이나	0
와서	0
▁경료	0
오페라	0
▁후송	0
▁입영	0
▁에디터	0
▁처절	0
▁착취	0
▁직계	0
▁메틸에틸케톤	0
▁집요	0
▁양육비	0
스펙트럼	0
필수	0
▁가로수	0
▁카레	0
촉진제	0
▁일품	0
▁면광원	0
▁이스탄불	0
▁강박	0
▁지식인	0
▁그제	0
▁세계유산	0
▁풍향	0
▁원색	0
▁부적격	0
▁다각도	0
공연장	0
▁청색광	0
▁분해능	0
▁예비군	0
소모	0
▁축전기	0
▁바흐	0
모건	0
▁제방	0
▁입출금	0
▁예단	0
▁성행	0
게이	0
▁키나아제	0
▁의료인	0
▁원나라	0
정서	0
지문	0
▁붉은색	0
번트	0
진압	0
▁코너킥	0
▁대식세포	0
▁최하위	0
▁피소	0
차부	0
음극	0
▁유안	0
▁상한선	0
▁장맛비	0
▁고음	0
켜	0
생물학	0
▁실탄	0
광면	0
▁캔디	0
▁배변	0
층간	0
윤지	0
▁불타	0
▁금속제	0
▁구가	0
익산	0
▁무주택	0
▁거들	0
▁영종	0
분당	0
▁명장	0
▁가려움증	0
▁재범	0
▁아르기닌	0
눈물	0
선상	0
멤	0
사절단	0
▁친문	0
▁리신	0
▁속력	0
▁담금질	0
강자	0
▁응징	0
에코	0
▁감정평가	0
변성	0
▁경의선	0
▁산화철	0
공관	0
▁트랜스미션	0
▁회고록	0
▁피부과	0
유전체	0
▁이월	0
▁피닉스	0
득실	0
▁발렌시아	0
▁초동	0
▁합법화	0
노라	0
▁드리블	0
▁초구	0
▁소시지	0
섭취	0
▁내야수	0
▁가공물	0
알리	0
감자	0
▁삿포로	0
레트	0
▁교각	0
층판	0
▁쓸쓸	0
▁용암	0
▁연출가	0
랴	0
▁장녀	0
▁자활	0
▁병원체	0
▁불우	0
▁가황	0
펜텐	0
남도	0
▁경제력	0
▁녹취	0
▁대학원생	0
▁질량비	0
기강	0
▁깔때기	0
필리핀	0
▁전전	0
▁내식	0
검체	0
▁발수	0
세고	0
▁성급	0
▁페미니즘	0
▁일쑤	0
▁사업단	0
▁탈거	0
육룡	0
▁윤상	0
▁장변	0
▁조미	0
보수당	0
짝	0
▁흉내	0
▁상쾌	0
▁미래형	0
치과	0
풍력	0
▁산도	0
금부	0
▁리드선	0
▁재래	0
▁혼신	0
▁굴뚝	0
▁트리아졸	0
▁절단면	0
토시	0
▁철광석	0
분비	0
좌파	0
▁굴복	0
▁헤드램프	0
▁마라	0
▁미학	0
▁호위	0
업인	0
▁폴링	0
▁배낭	0
▁의료법	0
▁하체	0
▁커리큘럼	0
▁꽃다발	0
네덜란드	0
형질	0
▁관망세	0
▁군정	0
▁표식	0
▁공정도	0
완성	0
▁커트	0
▁선천성	0
▁미백	0
▁노랑	0
포괄	0
▁홉	0
여간	0
▁재규어	0
▁짐승	0
스파이	0
▁목회	0
▁부화	0
▁꼬마	0
▁장지	0
▁빠짐없이	0
▁각색	0
▁합해	0
숙박	0
▁심기	0
▁제인	0
▁경영난	0
▁인천광역시	0
펜타에리트리톨	0
특사	0
▁공교육	0
▁무지	0
브라우저	0
▁무해	0
동서	0
해산	0
구와	0
브리지	0
▁조지아	0
▁항진	0
▁최고령	0
▁복합제	0
지면	0
곧	0
▁유비	0
정시	0
▁점하	0
▁이리듐	0
▁노벨상	0
편안	0
▁기념비	0
황산	0
▁판유리	0
조직법	0
▁자존	0
은퇴	0
▁늘씬	0
▁더디	0
▁문예	0
▁강우	0
▁김태현	0
재판장	0
▁케이블카	0
▁부츠	0
▁감형	0
수색	0
변속	0
▁논설위원	0
▁의중	0
렌터카	0
▁친일	0
스트레스	0
▁음식료	0
▁우선권	0
체적	0
▁해수면	0
▁안정세	0
▁카니발	0
▁장신	0
▁킬레이트	0
▁앗	0
▁넥타이	0
플루오르	0
처방	0
▁적응증	0
▁성산	0
진흥회	0
▁위기관리	0
▁발각	0
▁부양책	0
사모	0
이미노	0
▁기화기	0
▁콩쿠르	0
▁빨대	0
▁레슨	0
김해	0
▁수모	0
선두	0
▁일동	0
▁운반선	0
▁파나마	0
레인지	0
▁코스타리카	0
▁포대	0
쇄신	0
리포트	0
▁멜버른	0
▁티브이	0
▁선천	0
▁다트	0
공휴일	0
▁노무	0
▁전착	0
▁매듭	0
▁비자금	0
▁수회	0
▁비주류	0
▁반덤핑	0
▁투혼	0
▁김구	0
▁내란	0
▁랜섬	0
아진	0
마린	0
▁분사구	0
▁회차	0
▁로트	0
▁자위대	0
▁백자	0
시미	0
▁실루엣	0
함대	0
▁불명예	0
▁친형	0
▁시계열	0
▁승수	0
동식	0
▁펜타에리트리톨	0
▁버팀목	0
▁락톤	0
▁영정	0
▁웰스	0
▁작업대	0
▁연세	0
▁명하	0
▁난소암	0
▁응대	0
골격계	0
▁특정인	0
▁보체	0
▁불능	0
박테리아	0
쉼터	0
▁아태	0
▁정기예금	0
▁태생	0
▁루나	0
나머지	0
▁제상	0
▁헤모글로빈	0
개척	0
바이페닐	0
▁출몰	0
집합	0
▁카탈루냐	0
국판	0
장군	0
▁고창군	0
동거리	0
▁분기점	0
▁쌍방향	0
▁수없이	0
동이	0
▁으	0
▁이정표	0
▁무어	0
▁외층	0
▁지렛대	0
▁썰매	0
▁구릉	0
▁구급대	0
▁교인	0
고전	0
▁변혁	0
▁선부	0
라진	0
▁진피	0
계절	0
리신	0
▁스플라인	0
아가씨	0
▁물놀	0
권고	0
▁염화비닐	0
중항	0
▁검침	0
▁오심	0
▁반쪽	0
동반자	0
▁경전	0
단판	0
▁중요도	0
▁변함없이	0
▁열렬	0
▁림프	0
▁괜히	0
아이디	0
▁첫발	0
▁직간접	0
고추	0
▁식음료	0
국방부	0
▁수력	0
바보	0
▁안락사	0
계조	0
▁중수	0
운명	0
▁경부	0
수차	0
진로	0
▁오링	0
생애	0
설사	0
▁명지	0
▁반구형	0
▁카메오	0
▁외장재	0
▁돈독	0
▁내층	0
▁직선형	0
선조	0
▁모자이크	0
특강	0
강세	0
연간	0
시세	0
▁노련	0
격자	0
▁돌고래	0
▁유격	0
▁결항	0
서유기	0
▁세습	0
▁자매결연	0
▁칭량	0
파주	0
▁노랫말	0
▁잠복기	0
반환	0
▁눈도장	0
▁선선	0
▁여대생	0
가교	0
▁독대	0
용이	0
부제	0
▁지명타자	0
평화통일	0
▁연합회	0
▁난사	0
▁제각각	0
▁스펀지	0
▁외식업	0
▁스플릿	0
▁자락	0
▁대충	0
소상	0
감염증	0
▁야근	0
▁탈리	0
▁우주선	0
▁용의	0
▁일진	0
▁헤쳐	0
알루미나	0
속성	0
▁광고비	0
▁가업	0
한우	0
▁착석	0
식량	0
▁결연	0
▁열중	0
▁선례	0
▁친선경기	0
조인트	0
▁가발	0
쇼크	0
▁호국	0
▁기안	0
개체	0
▁직시	0
▁홍보물	0
▁자유자재	0
룸메이트	0
▁추기경	0
▁기보	0
▁곡식	0
▁성신	0
▁디딤돌	0
▁영덕	0
시범	0
▁조수석	0
▁부다페스트	0
묵	0
▁부름	0
휘발	0
▁성기	0
산다	0
▁대패	0
▁타우	0
▁식전	0
▁산성화	0
불타	0
▁개인기	0
▁내심	0
▁기강	0
학술지	0
▁영화인	0
▁독설	0
▁펑펑	0
▁탄화규소	0
▁영결식	0
▁설욕	0
▁진경	0
탐방	0
성장률	0
동양	0
산물	0
판서	0
▁색차	0
▁게이	0
출판사	0
자격증	0
포지션	0
증인	0
부두	0
▁자필	0
시청자	0
병합	0
▁서핑	0
▁선양	0
▁민호	0
송심	0
▁레미콘	0
▁강자성	0
▁사익	0
▁미용실	0
중고	0
▁즐비	0
▁발코니	0
▁추력	0
문고	0
▁이륙	0
▁트레인	0
시동	0
▁원상	0
▁표준어	0
예수	0
통구	0
▁초라	0
▁또렷	0
야간	0
▁임해	0
▁뒷좌석	0
▁듬뿍	0
▁엄중히	0
▁병원균	0
▁수려	0
▁야망	0
심도	0
▁진급	0
▁할애	0
▁체육회	0
배제	0
▁총점	0
▁시행착오	0
▁정동	0
▁정취	0
▁해결사	0
동화	0
장체	0
진도	0
▁안무가	0
▁선언문	0
▁공적	0
상해	0
수저	0
▁부탄올	0
▁군청	0
음원	0
이소인	0
▁전교	0
짜	0
▁유조선	0
▁겉보기	0
▁안내판	0
▁대동맥	0
겹	0
실시간	0
▁일단락	0
성물	0
▁안내서	0
▁부사	0
▁해녀	0
▁라만	0
▁기로	0
▁고율	0
▁수아레스	0
▁생중	0
▁밤샘	0
판문점	0
자국	0
▁비컨	0
마마	0
세무	0
▁성형기	0
▁개진	0
▁초아	0
비록	0
▁퇴직자	0
▁미끼	0
유물	0
▁다급	0
▁사이다	0
▁심부	0
▁관망	0
▁파고	0
치도	0
▁곧이어	0
에리스	0
▁똑바로	0
▁강팀	0
▁카르보닐	0
▁오릭스	0
마늘	0
과실	0
▁코앞	0
▁장전	0
▁베벨	0
계급	0
▁준거	0
▁태종	0
▁저주파	0
▁어수선	0
▁이국	0
▁퍼거슨	0
▁극명	0
▁조정기	0
▁획일	0
쇠	0
▁그레인	0
이루	0
정법	0
▁실신	0
▁타르	0
▁과수	0
▁이빨	0
지르코늄	0
▁손색	0
▁성패	0
회선	0
리플	0
▁한잔	0
▁찬바람	0
▁청력	0
펜스	0
▁총경	0
향기	0
▁비기	0
주름	0
고위급	0
▁선주	0
▁당헌	0
인공	0
완벽	0
▁잠적	0
▁화강암	0
▁스포트라이트	0
▁세륨	0
▁맞불	0
번영	0
▁미아	0
천사	0
재용	0
▁근심	0
폭포	0
소외	0
▁동절기	0
투자가	0
▁단아	0
▁폐단	0
관리원	0
▁신전	0
카르복시산	0
▁조력	0
▁사활	0
▁피동	0
▁냉연	0
킬로미터	0
▁잠복	0
▁사시	0
▁반도	0
오랜	0
▁땅값	0
▁왠지	0
▁유어	0
▁솔비	0
▁성종	0
▁외무부	0
▁틀리	0
▁카드뮴	0
▁바레인	0
▁수형	0
▁감방	0
▁마중물	0
리턴	0
▁유린	0
▁탄산수	0
▁최자	0
점도	0
제작사	0
▁잼	0
시사	0
▁최첨단	0
신생	0
에러	0
▁부직	0
밴	0
▁청계천	0
▁카탈로그	0
▁유증	0
▁백미	0
▁반짝	0
▁모사	0
열기	0
▁조대	0
▁아데노바이러스	0
절염	0
습지	0
수표	0
▁전세금	0
▁계엄령	0
진과	0
▁야경	0
▁불평	0
▁자격정지	0
▁코코넛	0
▁시초	0
메가	0
갓	0
▁찰리	0
▁렉스	0
적성	0
▁교신	0
▁구내	0
▁성씨	0
▁홈런포	0
▁설계자	0
▁공신	0
▁총력전	0
▁소포제	0
▁도파민	0
삭제	0
▁흡습	0
▁행정명령	0
▁호산구	0
정식	0
▁아이비	0
▁수면제	0
▁냉면	0
예술인	0
▁항공권	0
애니메이션	0
도깨비	0
감기	0
▁안도	0
▁벤조페논	0
물막	0
▁고속버스	0
▁비문	0
무사	0
▁방재	0
증이	0
▁정부안	0
▁남대문	0
▁우도	0
▁뇨	0
▁공산주의	0
▁방오	0
▁오토클레이브	0
▁목표물	0
▁항법	0
▁학교장	0
▁경화증	0
▁안전망	0
▁조타	0
▁견과	0
▁행세	0
▁비페닐	0
▁비차익	0
▁아세틸렌	0
결합제	0
▁취부	0
▁연마제	0
▁다시마	0
원격	0
껍질	0
▁홈구장	0
▁무작정	0
엑	0
가사	0
▁요일	0
▁활로	0
슬립	0
▁방위각	0
▁태릉	0
▁담가	0
▁초중	0
지의	0
탐구	0
런던	0
횡단	0
녹스	0
▁용착	0
▁체면	0
▁징크스	0
▁마저	0
▁제격	0
밀리	0
▁활주	0
▁엽	0
편의점	0
레지스터	0
▁진두지휘	0
강한	0
▁맨홀	0
해체	0
감응	0
▁죄인	0
가단	0
순천	0
▁그랜트	0
▁견적	0
▁합숙	0
▁인도주의	0
▁당류	0
국행	0
▁유색	0
▁보관함	0
근거리	0
▁우표	0
뇌물	0
▁한성	0
리타	0
▁폐막식	0
▁영진	0
결승	0
▁유언	0
▁조력자	0
▁베토벤	0
▁대덕	0
▁유공	0
▁심심	0
▁후안	0
▁수기	0
대리점	0
뚜	0
▁성준	0
▁생약	0
▁누전	0
▁시리	0
▁상징물	0
극단	0
올린	0
▁쏙	0
▁여실히	0
해안	0
슬릿	0
레이더	0
▁세슘	0
▁외향	0
▁문단	0
▁댄서	0
▁도우	0
▁뼈대	0
▁반품	0
으세요	0
▁상보성	0
▁일함수	0
선위	0
전후	0
폐렴	0
▁윗선	0
▁방음	0
▁큰일	0
색상	0
벽체	0
▁털털	0
탄도	0
적극	0
▁주치의	0
▁강경파	0
▁사직서	0
▁몸짓	0
▁산화알루미늄	0
▁원뿔	0
▁나우	0
▁석탑	0
일리	0
매물	0
재건축	0
▁펑크	0
지하	0
▁낙인	0
줄기	0
꿀	0
비점	0
▁경작	0
▁후대	0
▁득	0
곡면	0
▁백만	0
▁청송	0
▁파출소	0
내각	0
해역	0
산란	0
횡령	0
▁코리	0
▁공모주	0
약속	0
▁방패	0
▁소르비톨	0
▁알라닌	0
▁십이지장	0
▁서슴	0
▁반지름	0
당초	0
▁편면	0
관측	0
▁현판	0
▁단양	0
▁대시	0
▁글루코오스	0
▁목욕탕	0
▁줄다리기	0
즘	0
▁전기료	0
▁파선	0
살림	0
▁규율	0
▁재계약	0
▁서킷	0
▁부주의	0
▁당무	0
스토퍼	0
▁탄탈	0
알코올계	0
▁은상	0
▁평온	0
보일러	0
▁우선시	0
동맥	0
▁유대인	0
▁동호인	0
▁안중근	0
발열	0
크리스마스	0
▁실로	0
▁순응	0
▁중개업	0
▁호흡기계	0
▁옥천	0
슈트	0
군산	0
일제	0
반드시	0
▁직사광선	0
▁맹	0
▁물통	0
▁집게	0
▁이축	0
▁수진	0
종결	0
▁프로피온산	0
▁봉우리	0
▁벽지	0
▁원청	0
▁벌칙	0
▁미화	0
▁상어	0
▁함대	0
▁하프늄	0
▁저승	0
▁에탄	0
▁노령	0
▁가락	0
▁송가	0
▁사회학	0
▁기념사업	0
연쇄	0
▁합판	0
▁비뇨	0
▁금수	0
아이오	0
▁이화	0
▁전문직	0
▁염화물	0
외주	0
부근	0
유연	0
▁오디	0
▁실존	0
마운트	0
▁복귀전	0
▁경마	0
경찰관	0
▁폐교	0
▁셸	0
명량	0
▁장문	0
▁남발	0
▁누계	0
▁권회	0
바운드	0
▁소인	0
▁김제	0
▁물티슈	0
댐퍼	0
합공	0
편차	0
▁수해	0
소사	0
▁눈꺼풀	0
▁옥살산	0
뱅	0
▁강선	0
▁부대시설	0
▁속공	0
승연	0
광선	0
▁블랙홀	0
▁맨해튼	0
향족	0
▁고덕	0
▁불쌍	0
저지	0
층상	0
로이	0
전시장	0
▁배설물	0
▁문정	0
▁데프콘	0
모아	0
▁빈티지	0
업장	0
교직원	0
다섯	0
▁예감	0
하우	0
▁비호	0
▁윔블던	0
▁동기간	0
▁쿠페	0
▁문책	0
킬로	0
정면	0
▁방송법	0
▁결부	0
신임	0
▁열원	0
▁막중	0
▁장려상	0
소매	0
파마	0
▁코미디언	0
▁종아리	0
▁신청인	0
역전	0
▁미지	0
필라멘트	0
영구	0
클리닉	0
▁숭고	0
▁바인딩	0
▁벌집	0
▁종족	0
▁군용기	0
▁파운데이션	0
풍선	0
도데	0
▁원대	0
▁트리밍	0
▁풍광	0
▁삼계탕	0
설파	0
▁대문	0
안양	0
▁지부장	0
▁주미	0
주유소	0
전문지	0
노기	0
▁조개	0
저류	0
▁법제처	0
안전성	0
▁방언	0
여유	0
▁자각	0
▁구조도	0
한방	0
▁릴리스	0
선승	0
▁환각	0
▁법사	0
경량	0
▁일출	0
▁세차	0
학사	0
▁제창	0
학관	0
옷	0
본점	0
▁발기부전	0
▁유임	0
▁코디네이터	0
▁사우나	0
▁불합격	0
시책	0
▁부정행위	0
셈	0
단어	0
▁멸	0
▁유념	0
▁계산기	0
놀이터	0
▁유권	0
▁채점	0
▁천이	0
▁진가	0
▁파스너	0
▁히스티딘	0
스카	0
▁선분	0
숫자	0
▁재촉	0
▁샌	0
▁소극장	0
코발트	0
▁불륜	0
표피	0
피니언	0
▁호중구	0
시황	0
▁석좌	0
▁채색	0
▁토폴로지	0
▁하모니	0
▁발톱	0
▁뇌출혈	0
텔레비전	0
▁특감	0
▁부안	0
하의	0
▁요직	0
▁연매	0
아지	0
▁제빵	0
수재	0
손님	0
▁출발지	0
텐션	0
▁매실	0
▁역력	0
증권거래소	0
▁위계	0
무상	0
곡신	0
▁빛깔	0
▁스폰지	0
▁선우	0
정단	0
▁모독	0
무수	0
서초	0
▁말뚝	0
▁영화사	0
공막	0
▁구연산	0
호퍼	0
▁해부학	0
▁대손	0
▁급진	0
▁지원서	0
▁이단	0
▁경제학자	0
응부	0
▁궁합	0
▁보루	0
▁백서	0
투과율	0
▁원광	0
목상	0
▁변곡점	0
▁앙코르	0
▁불고기	0
▁스모그	0
동료	0
아마	0
증류	0
▁필지	0
디카르복실산	0
▁머플러	0
▁빙수	0
▁사망률	0
오랜만	0
▁학장	0
▁선종	0
증권사	0
▁반증	0
▁체지방	0
▁재조사	0
감리	0
▁종단면	0
그릴	0
▁편직	0
넘버	0
보컬	0
▁별관	0
▁인터폴	0
▁시험기	0
▁아리	0
▁베이지	0
▁물놀이	0
▁방탄	0
▁유병	0
작국	0
▁제원	0
▁변태	0
유학	0
▁보라색	0
▁이성계	0
▁풍습	0
감축	0
민심	0
▁주례	0
▁속담	0
끌	0
에스터	0
진재	0
휴양림	0
▁창틀	0
▁댈러스	0
▁위트	0
▁흠	0
▁간밤	0
▁까칠	0
▁글러브	0
번가	0
▁숨통	0
▁관방	0
현행	0
준수	0
▁유량계	0
▁고은	0
호재	0
▁가용화	0
정세	0
▁피라미드	0
▁불미	0
▁정준	0
곰	0
▁주소록	0
▁강의실	0
▁원위치	0
토니	0
관료	0
▁상용차	0
▁탈황	0
보호구역	0
▁뻔뻔	0
▁단결합	0
취미	0
▁영애	0
▁안트라센	0
▁경내	0
▁전등	0
▁갈락토오스	0
교양	0
▁패소자	0
▁갑판	0
▁스케치북	0
▁유니콘	0
▁에스엠	0
▁미진	0
▁을지	0
▁사투	0
▁하림	0
▁이질	0
▁오지	0
너희	0
▁소모품	0
▁쿠알라룸푸르	0
펀	0
▁프랑스어	0
▁미시	0
차인	0
▁유니세프	0
▁두개골	0
▁홍성	0
마사회	0
모리	0
이소퀴놀린	0
▁위염	0
인포	0
▁반력	0
▁뜻대로	0
려다가	0
▁찹쌀	0
▁상대국	0
제강	0
▁젠더	0
▁입출	0
▁황국	0
▁이북	0
카스	0
▁풀림	0
관광지	0
▁종묘	0
▁반사체	0
라벨	0
감마	0
▁금주	0
성체	0
판과	0
화질	0
피복	0
▁산유국	0
▁숙련자	0
▁술폰	0
침입	0
▁포스핀	0
▁블라디보스토크	0
기자단	0
▁세포질	0
주최	0
절벽	0
▁병살타	0
교부세	0
이슬람	0
▁한산	0
▁기복	0
광화문	0
락트산	0
발의	0
▁수나사	0
연습장	0
▁친족	0
▁이브	0
▁청동	0
▁유흥업소	0
포탈	0
합의체	0
추구	0
병사	0
고장	0
▁낙찰가	0
▁잔부	0
인삼	0
▁베란다	0
▁외투	0
▁황화물	0
▁피셔	0
▁인플레	0
무한	0
▁급물살	0
▁범람	0
▁티격태격	0
관절염	0
대면	0
증도	0
지노	0
악마	0
▁김수영	0
할머니	0
▁일절	0
유용	0
▁랜딩	0
▁부유물	0
▁서영	0
설계사	0
▁개구리	0
염료	0
다더라	0
▁첩부	0
▁처짐	0
▁만행	0
▁대출자	0
▁데드	0
▁다섯째	0
▁헤파린	0
으라는	0
퀴논	0
초대	0
선로	0
▁행의	0
▁여의	0
▁본성	0
▁레트	0
▁에게	0
▁곤혹	0
▁교포	0
유업	0
▁경치	0
학번	0
수통	0
힝	0
▁귀하	0
연비	0
▁초록색	0
▁소모량	0
▁동력원	0
▁대학가	0
▁고등어	0
▁견	0
진심	0
자회	0
▁장벽층	0
누스	0
▁소다	0
▁모의고사	0
▁반사율	0
컨버터	0
▁채광	0
환상	0
하측	0
아울러	0
▁락트산	0
▁양가	0
부지사	0
무릎	0
가질	0
▁나고야	0
완충	0
▁법조인	0
▁습진	0
토너	0
▁자일렌	0
▁기념사	0
빨리	0
형지	0
신랑	0
▁일어서	0
▁용혈	0
▁상계	0
수구	0
▁휴면	0
▁리크	0
▁성체	0
분명	0
▁비스듬	0
▁이노베이션	0
▁굴절률	0
▁수크로스	0
▁나폴레옹	0
▁타방	0
▁스텔스	0
▁무결	0
▁탐험	0
무근	0
▁편두통	0
▁장차	0
▁수족관	0
▁개의	0
▁휴식기	0
▁섭섭	0
▁고정대	0
▁약리	0
▁관사	0
성원	0
▁화약	0
▁김현	0
▁실소유주	0
▁환희	0
▁경통	0
공군	0
▁막막	0
살균제	0
절곡	0
▁액침	0
악기	0
씽	0
▁이방인	0
▁발자국	0
▁젊음	0
▁해바라기	0
▁방황	0
▁여름휴가	0
건설사	0
▁문득	0
해리	0
▁고뇌	0
▁독재자	0
▁젖산	0
▁캔틸레버	0
흑자	0
▁췌장염	0
원은	0
▁함경북도	0
▁허탈	0
암부	0
▁분뇨	0
▁중축합	0
▁상태도	0
▁면회	0
영윤	0
▁약리학	0
▁다로	0
최적	0
▁육각형	0
▁무함마드	0
층막	0
▁쪽지	0
▁이산화규소	0
단순히	0
▁메사	0
▁방사체	0
▁계량기	0
냉동	0
환경부	0
▁늑대	0
▁현행범	0
▁위사	0
선충	0
▁대관	0
대부	0
▁탄원서	0
▁저택	0
▁비트맵	0
상위	0
▁으뜸	0
국사	0
▁테스터	0
▁수임	0
외대	0
▁장본인	0
표창	0
▁쏠	0
▁합천	0
▁성충	0
▁화훼	0
▁신안군	0
▁교황청	0
▁담즙	0
박수	0
▁볼리비아	0
▁진사	0
불쾌감	0
▁빗살	0
▁물갈이	0
부양책	0
▁주사액	0
▁전년도	0
▁발췌	0
담체	0
선수촌	0
▁마이크로컴퓨터	0
▁등록부	0
▁프로스타글란딘	0
▁셀레늄	0
스스로	0
▁비보	0
▁글쓰기	0
▁무난히	0
▁오렌지색	0
▁안티몬	0
▁스킨케어	0
하원	0
▁서머	0
▁우천	0
▁대왕	0
▁소양	0
▁전자화폐	0
▁민족주의	0
▁강연회	0
공포	0
자랑	0
▁낙	0
▁수치심	0
세법	0
에지	0
▁초고층	0
징계	0
▁불가리아	0
▁명인	0
▁나들목	0
구성원	0
▁안락	0
▁정방	0
▁약탈	0
▁인보	0
▁미역	0
기포	0
단선	0
▁불연속	0
▁가격제	0
▁자금난	0
▁남방	0
상권	0
적색	0
서양	0
세그먼트	0
▁현탁제	0
▁수열	0
▁나날	0
▁우려감	0
시프트	0
에테르	0
▁마는	0
▁맥박	0
▁송부	0
▁소득세법	0
▁모처	0
▁취임사	0
▁구조대	0
▁한약재	0
감압	0
▁한남	0
▁밀수	0
개량	0
▁칼럼니스트	0
타인	0
영동	0
▁봅슬레이	0
▁자부	0
▁틈틈이	0
오븐	0
▁드리프트	0
기여	0
▁뒷심	0
튀	0
테마파크	0
▁알긴산	0
▁배차	0
산행	0
▁우대금리	0
▁명장면	0
▁가래	0
▁성직자	0
글리세라이드	0
스턴트	0
▁권력자	0
수자원	0
조절기	0
▁천연물	0
▁김수로	0
▁핫라인	0
양면	0
▁유분	0
지산	0
▁데스크톱	0
▁방호	0
사신	0
▁발등	0
중화기	0
번개	0
소진	0
▁횡단보도	0
▁총통	0
북방	0
▁블라우스	0
심볼	0
▁우익	0
▁오피	0
▁아랑곳	0
혹시	0
▁장척	0
교역	0
▁승부처	0
▁호기	0
▁눈동자	0
▁금천	0
▁조끼	0
▁테레프탈산	0
▁필사	0
▁관보	0
삭	0
반려	0
▁판스프링	0
도덕	0
▁그람	0
▁마스코트	0
소울	0
▁설파	0
옴	0
▁악당	0
▁교육장	0
호골	0
웨이브	0
▁대종상	0
▁구정	0
▁괴산	0
▁병리	0
▁산후	0
▁단변	0
임대차	0
▁섣불리	0
불황	0
▁고정식	0
직물	0
▁노량진	0
▁레퍼토리	0
▁뉴스쇼	0
▁허심탄회	0
▁몰래카메라	0
이격	0
후면	0
받침대	0
▁접합면	0
중복	0
붓	0
▁약보합	0
▁관계식	0
▁아낌없이	0
우릴	0
조서	0
▁혜성	0
▁주황색	0
▁위아래	0
설명서	0
▁장흥	0
▁라며	0
▁절세	0
▁아련	0
▁밋밋	0
▁실격	0
▁후미	0
▁디코드	0
▁화단	0
▁준법	0
▁구내염	0
▁덕담	0
▁기슭	0
▁착공식	0
▁담황색	0
▁저수	0
▁원용	0
▁애로	0
▁기치	0
원서	0
▁처방전	0
이내	0
금호	0
▁심전	0
부의장	0
▁밑창	0
▁골관	0
관청	0
▁팬티	0
▁세로축	0
▁방심	0
손가락	0
▁기관지염	0
▁고체상	0
▁회백색	0
▁난청	0
▁관리기	0
채소	0
농어촌	0
산부	0
▁지명자	0
▁지점장	0
▁선거인단	0
▁감사관	0
▁편승	0
▁러그	0
▁동률	0
안동	0
▁희미	0
고가	0
▁망원경	0
▁불운	0
▁공백기	0
▁사탕	0
마찬가지	0
▁비평	0
▁하수관	0
▁기타리스트	0
자책	0
▁주공	0
▁스테인리스강	0
▁독수리	0
보상금	0
▁계합	0
괴사	0
▁내조	0
▁솜	0
▁굉장	0
감성	0
호화	0
모가	0
▁꽃받침	0
너리	0
▁융통	0
▁집전	0
▁사스	0
▁발육	0
▁잠식	0
▁외제	0
▁결격	0
▁단위체	0
▁중임	0
▁악보	0
동반	0
▁카바이드	0
잔치	0
아이콘	0
스냅	0
▁차마	0
▁당뇨병성	0
▁옥심	0
▁운전사	0
▁담론	0
휴일	0
▁성민	0
▁중기청	0
오래	0
▁평야	0
펜싱	0
▁사무처	0
소위원회	0
석탄	0
▁누진제	0
▁주무관	0
▁장충	0
요오드	0
▁북남	0
신성	0
매스	0
▁임명장	0
선세	0
팔자	0
소아	0
단거리	0
▁폭등	0
▁항공업	0
▁똘똘	0
파전	0
좌석	0
▁칭호	0
방송사	0
▁정반	0
송파	0
신병	0
▁식용유	0
▁대관령	0
게시판	0
블랙리스트	0
▁고려인	0
▁대일	0
▁한약	0
▁체육계	0
▁숙취	0
▁절실히	0
▁분향소	0
▁노숙인	0
주권	0
안산	0
▁지구대	0
▁식민	0
벤조니트릴	0
살균	0
농약	0
▁증권업	0
전분	0
직류	0
▁투숙객	0
▁클리어런스	0
▁벤조산	0
착시	0
▁학내	0
사보	0
▁암모늄염	0
▁조식	0
▁발광체	0
▁핑	0
▁불명	0
▁편취	0
제철	0
평택	0
엘리베이터	0
성빈	0
▁어큐뮬레이터	0
▁헌법재판	0
함정	0
▁산세	0
▁조계종	0
▁외야	0
로스트	0
▁배트	0
▁요란	0
▁미혼모	0
▁원곡	0
▁소분	0
세자	0
▁호적	0
종전	0
유예	0
▁대교	0
▁단회	0
▁핵탄두	0
▁판세	0
▁레스터	0
▁고삐	0
청구인	0
▁아라비아	0
▁고독	0
▁동심원	0
▁수준급	0
▁짜리	0
▁극저온	0
▁체납액	0
▁진안	0
석상	0
▁림프절	0
반도	0
▁유채	0
▁하산	0
▁유제품	0
▁격투기	0
교육법	0
▁좌장	0
▁기정사실	0
빗	0
▁플로트	0
▁광각	0
▁맹타	0
달콤	0
속보	0
▁변의	0
▁임신부	0
▁미납	0
▁피보험자	0
▁스러스트	0
▁사이먼	0
▁난색	0
▁발적	0
▁원도	0
▁낱낱이	0
솔로	0
관입	0
▁허약	0
▁아람	0
▁교통비	0
▁필립스	0
▁동승자	0
▁넘버링	0
트레이닝	0
▁채록	0
검단	0
▁우현	0
▁자급	0
제인	0
▁세인트루이스	0
▁간부전	0
▁양배추	0
스로	0
▁초상	0
▁관리법	0
▁좌초	0
▁인기리	0
용자	0
▁행정력	0
▁방청	0
▁격추	0
도둑	0
▁중론	0
▁경륜	0
▁페르시아	0
▁보도국	0
▁적갈색	0
▁연천군	0
▁하객	0
▁자판	0
▁동석	0
▁원판결	0
지축	0
용성	0
모간	0
▁내한	0
▁선거관리위원회	0
중심지	0
예지	0
▁비스듬히	0
▁자서전	0
한글	0
천국	0
▁영지	0
▁편집장	0
▁상존	0
▁지참	0
▁섬기	0
재인	0
▁꼭지	0
▁유동층	0
사후	0
▁그물망	0
▁흡수율	0
▁진원	0
▁단호히	0
▁포브스	0
▁이물질	0
수목원	0
어성	0
▁경전철	0
편향	0
▁파랑	0
▁히틀러	0
▁도입부	0
▁내관	0
▁한없이	0
▁따스	0
토건	0
▁망고	0
지바	0
▁백작	0
▁확성기	0
▁맏	0
주니어	0
로터	0
▁제조자	0
▁숟가락	0
▁장대	0
▁뇌종양	0
▁오실	0
도막	0
열심히	0
세타	0
▁딱히	0
▁산란계	0
패딩	0
▁학군	0
▁피오	0
기념일	0
장도	0
일곱	0
▁과당	0
▁평단	0
▁좌중	0
미약	0
▁수구	0
▁합지	0
▁담양	0
▁휴무	0
▁문어	0
▁적재함	0
▁수인	0
광학계	0
▁음용	0
▁관대	0
효능	0
▁본업	0
▁분한	0
▁능청	0
분쇄	0
암살	0
▁오로라	0
▁쉽사리	0
골목	0
▁직육면체	0
▁이방원	0
대국	0
▁이타	0
▁조선사	0
수령	0
▁성탄절	0
▁디플레이션	0
▁클래딩	0
▁에멀션	0
▁토막	0
▁격막	0
트라이아졸	0
▁망신	0
죄송	0
▁인비	0
지부장	0
글리세롤	0
국내외	0
선언문	0
동장	0
▁이어가기	0
▁모공	0
사용량	0
▁플레이스	0
▁독일어	0
▁내실화	0
▁페트병	0
급사	0
▁입김	0
스캔들	0
▁캔버스	0
▁고품격	0
▁빈번히	0
▁필적	0
▁아가씨	0
▁수취인	0
▁비닐기	0
▁차로	0
순차	0
▁주편	0
▁개신교	0
잡음	0
보험법	0
동아	0
▁탐욕	0
▁감회	0
코레	0
야말로	0
▁의왕	0
재무제표	0
우체국	0
▁중장비	0
▁원외	0
▁알레르기성	0
학기제	0
▁저항체	0
프랜차이즈	0
외광	0
새벽	0
비로	0
좌우	0
정보국	0
배급	0
▁화물창	0
참모총장	0
고형분	0
▁반원형	0
▁이조	0
▁실재	0
▁자상	0
▁박정	0
▁치하	0
▁에이치	0
▁퇴적물	0
▁숙청	0
학당	0
▁피임	0
▁세척액	0
모리스	0
▁똑	0
디코더	0
▁최종일	0
스트라이크	0
지드	0
▁난임	0
▁자연어	0
▁무기산	0
▁친일파	0
▁노폐물	0
▁중성자	0
▁회의장	0
▁평창군	0
▁조수	0
▁티베트	0
▁투하	0
덱	0
새해	0
▁종신	0
극성	0
▁항균성	0
▁주거비	0
▁연연	0
▁서신	0
▁라이터	0
열량	0
▁콩나물	0
▁베니스	0
▁위궤양	0
원심	0
▁정련	0
불금	0
▁재빨리	0
얀	0
▁외용	0
▁뜸	0
▁내국인	0
▁김성호	0
▁강단	0
▁결로	0
▁빨	0
물산	0
에스티	0
▁병상	0
▁난류	0
▁경영계	0
야생	0
▁융해	0
양도	0
▁단섬유	0
전서	0
▁폴리염화비닐	0
▁개항	0
▁향연	0
▁쓰레기통	0
열매	0
▁지바	0
▁연기파	0
▁금단	0
▁협연	0
▁작업기	0
병력	0
북측	0
▁자가용	0
▁특종	0
▁사슴	0
▁뒷부분	0
▁고베	0
▁마이크로캡슐	0
▁질산염	0
▁환대	0
소성	0
▁알갱이	0
▁감청	0
▁노년	0
텅스텐	0
부천	0
▁후각	0
▁등화	0
보충	0
▁클리닉	0
▁퍼터	0
▁가야금	0
▁알츠하이머병	0
▁아이러니	0
▁마두	0
▁취성	0
후술	0
탈착	0
▁영국인	0
▁외표	0
▁비바람	0
독소	0
▁게릴라	0
일선	0
자니	0
▁정파	0
▁차축	0
총국	0
래치	0
▁절호	0
유착	0
▁패트릭	0
입대	0
교섭단체	0
소염	0
▁탄식	0
▁금성	0
▁구축함	0
▁실추	0
나중	0
▁연접	0
장권	0
▁착하	0
▁쟁취	0
▁정신력	0
원판	0
▁중계국	0
▁면면	0
▁빌트인	0
▁감경	0
▁비늘	0
식이	0
▁삼정	0
▁혜	0
▁무주택자	0
▁요로	0
타이틀	0
▁포유동물	0
지위	0
▁열도	0
▁덧	0
▁남우	0
섹터	0
▁신구	0
▁내식성	0
포맷	0
▁요오	0
▁창피	0
▁왕좌	0
▁매수인	0
▁칭송	0
▁감점	0
전구	0
군대	0
▁심정지	0
해성	0
리언	0
▁생명력	0
▁그림책	0
조이	0
▁울컥	0
▁시발점	0
▁러셀	0
기통	0
▁몸소	0
▁종말	0
▁수입액	0
▁해인	0
▁온두라스	0
▁성북	0
평행	0
▁폭격기	0
▁대용	0
상주	0
▁인과관계	0
▁우성	0
▁증거물	0
▁메조	0
▁출정식	0
▁광해군	0
▁반년	0
문명	0
철근	0
▁병설	0
대세	0
▁서장	0
대대	0
▁멀티플렉스	0
▁한문	0
▁분류기	0
▁오비	0
▁호명	0
소옥	0
▁곡성	0
이오	0
▁사령부	0
해변	0
팡	0
▁기압골	0
▁트위스트	0
▁기발	0
소주	0
기성	0
▁음질	0
스택	0
피의자	0
▁잔상	0
▁월등	0
▁상속인	0
▁비밀리	0
반장	0
▁절기	0
▁제국주의	0
다승	0
메이저	0
구상	0
착하	0
날짜	0
▁어시	0
▁계엄	0
▁엿	0
▁관청	0
굴절률	0
사량	0
▁도플러	0
▁조준	0
상고	0
▁공상	0
소인	0
감지기	0
맨체스터	0
▁시공간	0
▁선입견	0
▁고내	0
▁노후화	0
서해	0
체질	0
장미	0
폴리프로필렌	0
▁딜레마	0
▁사관	0
▁지터	0
보궐	0
▁맞대응	0
▁애견	0
베테랑	0
▁혁신안	0
▁오스카	0
▁발전량	0
▁화기	0
▁신석기	0
▁수의	0
클램프	0
▁침윤	0
▁좌회전	0
긴장	0
▁부조리	0
▁고정축	0
▁신관	0
▁강보합	0
비단	0
수탁	0
프로토콜	0
▁골인	0
▁하동군	0
▁엿새	0
▁고속철	0
▁총영사관	0
▁미련	0
▁즉흥	0
▁계획서	0
캡틴	0
▁글루타민	0
▁한심	0
▁회계사	0
▁분분	0
▁냉온	0
▁동의서	0
알고리즘	0
▁폭동	0
건지	0
▁밑바닥	0
강행	0
▁연수원	0
▁방법론	0
최선	0
▁항시	0
▁야구팬	0
▁핵연료	0
▁스타킹	0
총수	0
▁재주	0
▁추인	0
외파	0
▁동형	0
▁상추	0
화살표	0
▁지망	0
▁주명	0
▁귀결	0
▁공칭	0
카운터	0
▁미관	0
▁후판	0
▁푸마르산	0
▁각계각층	0
시리아	0
인문	0
끼움	0
▁작업실	0
개장	0
▁이제야	0
사각지대	0
인비	0
▁신주인수권	0
▁강대국	0
▁감수성	0
▁가족력	0
행하	0
▁광합성	0
움직임	0
▁심장병	0
음부	0
툭	0
▁수일	0
▁박해	0
▁매화	0
▁고성능	0
글자	0
몰이	0
▁저층	0
▁예식	0
▁해이	0
▁중용	0
▁경동	0
더블유	0
갈락토오스	0
▁분통	0
▁증산	0
미포	0
협박	0
▁세전	0
전무	0
▁게터	0
임무	0
온천	0
▁세척기	0
▁보우	0
▁착용감	0
승률	0
▁입학식	0
▁사단법인	0
소다	0
▁나프타	0
오디션	0
▁진공도	0
▁인사이드	0
▁순창	0
▁비등	0
기자재	0
▁비참	0
정립	0
▁대화방	0
▁행각	0
선원	0
▁자기력	0
▁약초	0
▁무빙	0
▁와해	0
종일	0
▁재정부	0
테스	0
컬링	0
▁폐쇄성	0
▁상충	0
버터	0
▁카프	0
▁참혹	0
대납	0
▁능률	0
▁청구인	0
내막	0
▁선봉	0
▁일광	0
선대	0
어창	0
▁진도군	0
트레이드	0
▁공과금	0
▁자유민주주의	0
▁오락가락	0
▁애덤	0
▁개구율	0
▁독단	0
▁커피숍	0
▁석학	0
▁내화물	0
아이유	0
▁양각	0
▁순경	0
얼음	0
스윙	0
▁송나라	0
▁날렵	0
▁진퇴	0
시행령	0
▁옆구리	0
쟁이	0
▁격퇴	0
수제	0
▁군포	0
▁활약상	0
▁심계	0
자영업	0
▁일반직	0
▁셔틀버스	0
시험장	0
하수	0
▁발열량	0
하향	0
기동	0
가인	0
탁구	0
▁적나라	0
마무	0
침투	0
▁밑그림	0
원선	0
▁치타	0
▁노보	0
▁가가	0
▁봉인	0
▁발끈	0
철회	0
▁남하	0
▁소금물	0
▁겔화	0
소추	0
▁닐	0
미르	0
▁컨테이너선	0
▁소기	0
▁트리아진	0
▁과전압	0
자며	0
▁급파	0
▁개강	0
▁영동고속도로	0
▁해머	0
▁시청각	0
▁직선제	0
▁신고식	0
▁질화규소	0
▁습	0
▁축심	0
온스	0
주점	0
점착	0
▁교향곡	0
척하	0
▁고주	0
체장	0
카노	0
▁스마트카드	0
▁부경	0
▁건보	0
▁협력체	0
▁윤하	0
탑재	0
가제	0
상반기	0
▁타이베이	0
▁배전	0
▁슬로프	0
▁뒷모습	0
▁다항식	0
▁노년층	0
식성	0
▁안전벨트	0
▁요입	0
발찌	0
▁적십자	0
클로로에탄	0
▁공생	0
태도	0
▁아몬드	0
▁수녀	0
▁영도	0
▁아마이드	0
▁의사록	0
▁평안	0
▁선결	0
▁진격	0
▁회분	0
▁지회	0
▁접속자	0
▁가린	0
▁새내기	0
▁스페인어	0
▁수리비	0
▁마사	0
▁토이	0
아티스트	0
▁건너편	0
▁화각	0
▁울혈성	0
▁명쾌	0
▁급수관	0
▁초회	0
도스	0
▁테헤란	0
▁패스트푸드	0
▁저장고	0
▁세세	0
▁대웅전	0
▁부사관	0
▁교외	0
경제학	0
▁광기	0
캉	0
▁적조	0
조종	0
기록물	0
워싱턴	0
▁애국가	0
입금	0
▁클라크	0
▁내후성	0
항암제	0
▁만도	0
▁명부	0
▁장신구	0
신혼	0
▁절절	0
▁유로파	0
활	0
▁인내심	0
한국어	0
▁출가	0
▁음성군	0
▁통감	0
▁열융착	0
▁부침	0
택부	0
가속	0
▁슬하	0
암종	0
▁병영	0
▁독과점	0
▁바지선	0
기황후	0
▁껌	0
▁구속력	0
▁평화통일	0
패킹	0
저해제	0
▁수역	0
토출구	0
영회	0
비대	0
▁급박	0
▁귀경	0
▁강제집행	0
▁결정화	0
단축	0
▁시사점	0
횡	0
스크립터	0
▁스노보드	0
▁추모식	0
▁수칙	0
▁전임자	0
▁진동수	0
▁체급	0
▁비구름	0
▁시그마	0
▁상형	0
▁정사	0
▁교관	0
화합	0
토막	0
▁진단서	0
승강	0
혐오	0
▁이쪽	0
지킴	0
브로마이드	0
▁석상	0
▁호도	0
▁수하물	0
▁봉사자	0
체불	0
▁안간힘	0
▁주원료	0
절제술	0
▁마이카	0
▁도리어	0
▁국립대	0
▁투표율	0
▁뷰어	0
숙신	0
▁실직	0
송체	0
▁항모	0
▁패자	0
▁세조	0
회분	0
▁계획안	0
▁시가지	0
▁발자취	0
▁입체감	0
▁지독	0
중증	0
▁문화부	0
▁도판	0
▁삭	0
▁산양	0
▁갈망	0
▁민첩	0
▁전래	0
▁여제	0
가톨릭	0
▁저촉	0
▁악행	0
▁하필	0
상속자	0
▁파국	0
▁고혹	0
수영장	0
▁광반사	0
▁경보음	0
조구	0
▁투명도	0
▁여러모로	0
▁발성	0
▁기내식	0
▁사치	0
▁흡입관	0
▁백그라운드	0
▁지지력	0
흠	0
장애인	0
▁로커	0
▁머드	0
레코드	0
셔터	0
▁운전대	0
▁싱크대	0
▁예정자	0
양상	0
▁담도	0
▁생가	0
절약	0
▁비어	0
원정	0
▁능	0
자주	0
나선	0
▁면역계	0
어떠	0
복호	0
▁날씬	0
▁탄두	0
▁본상	0
선별	0
▁베이스볼	0
▁반장	0
▁전조등	0
▁총영사	0
▁재흡수	0
▁경차	0
소포	0
바둑	0
▁인지질	0
▁이방	0
뜰	0
▁유감없이	0
▁외침	0
모습	0
란다	0
▁가시성	0
▁전미	0
▁반대파	0
▁방청객	0
▁호두	0
▁찜	0
▁광고판	0
▁절충	0
▁루미	0
프리즘	0
스핀	0
▁세장형	0
▁상도	0
서구	0
▁오간	0
▁조리법	0
▁산포	0
자라	0
▁핸드백	0
▁절하	0
기력	0
▁휴장	0
화려	0
▁모면	0
▁군비	0
면상	0
소매업	0
▁받침판	0
▁암반	0
▁서연	0
▁방파제	0
셀룰로스	0
▁위엄	0
▁팥	0
▁견주	0
소요	0
▁연대보증	0
▁과민성	0
동산	0
▁등대	0
바인더	0
▁명희	0
▁아자	0
▁둬	0
싹	0
▁중식	0
자상	0
봉지	0
흑연	0
▁스튜어드	0
나래	0
▁위법성	0
▁랭	0
▁신선도	0
찬성	0
▁먼바다	0
클로스	0
내면	0
꼽	0
외고	0
▁적기	0
▁연대기	0
사안	0
▁쟁의	0
▁물려	0
▁빙그레	0
▁정상부	0
▁정인지	0
▁주포	0
▁설치류	0
▁범죄인	0
병원장	0
▁양안	0
▁아니오	0
▁커녕	0
▁성악	0
▁채혈	0
▁연말연시	0
▁캡틴	0
발포	0
▁콕	0
변론	0
▁활성화제	0
▁원추	0
▁오명	0
▁뺑소니	0
▁비나	0
▁자판기	0
그레이	0
우대	0
▁주립	0
탐사	0
유제	0
▁청렴도	0
▁추도식	0
▁아치형	0
▁원한	0
본격	0
승무원	0
▁순례	0
▁당명	0
▁전권	0
▁모기업	0
▁사교육비	0
▁전해조	0
행태	0
▁환호성	0
▁팽팽히	0
▁비빔밥	0
면제	0
▁교묘	0
극복	0
충당	0
포도	0
▁나날이	0
표제	0
▁골판지	0
▁부신	0
부탁	0
▁괴	0
환승	0
아가	0
▁황산염	0
오렌지	0
▁지자	0
▁엘레	0
한진	0
자수	0
분지	0
퇴근	0
▁상장주	0
소충	0
▁보컬리스트	0
골재	0
▁북동	0
통산	0
원본	0
▁올림	0
나기	0
▁프탈산	0
항법	0
둥	0
▁수의사	0
토요일	0
▁찬란	0
▁안일	0
▁명태	0
밀폐	0
▁끝없이	0
▁재투자	0
도사	0
▁배압	0
▁합성수	0
▁오미자	0
▁자축	0
▁스튜어트	0
▁미일	0
특가	0
방송국	0
▁근교	0
▁이슬기	0
▁분자체	0
▁국민당	0
낚시	0
학점	0
▁동주	0
▁시급히	0
▁삼화	0
▁결정지	0
국채	0
검역	0
▁침적	0
등부	0
▁판매액	0
맹점	0
▁직하	0
▁외고	0
▁감전	0
리프트	0
▁조조	0
▁자동화	0
▁알찬	0
▁승하	0
위축	0
▁순정	0
위조	0
▁야유	0
▁생활고	0
▁집권당	0
▁계기판	0
▁수출국	0
무형	0
▁전쟁터	0
▁화이	0
▁승차감	0
▁수술실	0
▁자연히	0
▁디램	0
▁포설	0
▁튀니지	0
▁인클로저	0
▁저항력	0
▁미처리	0
▁분무기	0
▁식후	0
▁집사	0
▁주정차	0
▁별거	0
▁습성	0
▁배가	0
▁고관절	0
▁아파	0
▁혼전	0
▁감원	0
동굴	0
▁고강도	0
관위	0
▁장어	0
양수	0
▁온난	0
▁약어	0
▁함락	0
▁청신호	0
▁포메이션	0
▁성훈	0
▁세무사	0
▁만반	0
육종	0
▁장만	0
▁조여	0
▁문과	0
▁피폭	0
▁상세도	0
▁난징	0
▁조혈	0
▁시외버스	0
▁정류부	0
▁사법연수원	0
피자	0
종자	0
▁꼬임	0
▁전기자	0
답변	0
▁다단계	0
광층	0
경유	0
▁인솔	0
▁우기	0
▁신용보증기금	0
서부터	0
▁규슈	0
주립	0
▁어종	0
정편	0
고검	0
▁유영	0
고령화	0
포구	0
▁피서객	0
▁백상	0
▁강화군	0
▁수송기	0
▁와우	0
무료	0
▁고함	0
▁화물선	0
향대	0
타짜	0
▁지병	0
전날	0
▁호소력	0
▁빙하	0
제이	0
▁석조	0
▁모피	0
▁아실기	0
▁특설	0
▁통계학	0
▁도해	0
▁박자	0
▁구도심	0
한계선	0
▁오감	0
▁강화도	0
▁박빙	0
▁전후방	0
▁고원	0
장판	0
선호	0
▁좌측면	0
▁축출	0
▁일본식	0
슈팅	0
▁혹시나	0
▁쉰	0
하청	0
만점	0
쿡	0
▁초원	0
▁기싸움	0
▁현혹	0
▁콜리	0
▁외광	0
▁젓가락	0
▁대납	0
▁서너	0
▁무용수	0
▁쓰리	0
▁내홍	0
만남	0
▁액셀러레이터	0
휴업	0
▁현지인	0
풍부	0
미동	0
▁만곡부	0
▁뇌경색	0
▁사구체	0
▁정현파	0
▁어울림	0
▁기계실	0
송출	0
예매	0
▁대한제국	0
▁계보	0
▁조광	0
▁달구	0
▁브롬화	0
지오	0
시퀀스	0
▁면직	0
▁가속도계	0
고양	0
▁시피	0
▁장바구니	0
▁순손실	0
▁유구	0
▁상복	0
▁선거일	0
▁도로변	0
자사	0
▁명제	0
▁건당	0
▁추격전	0
▁발짝	0
오케스트라	0
여중	0
▁서우	0
▁조찬	0
▁펠트	0
▁수용소	0
▁압박감	0
▁부서장	0
▁임펄스	0
▁전사자	0
▁남향	0
▁골수종	0
▁계측기	0
지제	0
▁장난기	0
▁각속도	0
▁국교	0
인류	0
▁전학	0
▁현대사	0
▁가히	0
▁갑작스레	0
▁동식물	0
▁기우	0
대외	0
퉁	0
녹지	0
저급	0
▁법치	0
비엔날레	0
비서실	0
▁깨알	0
▁고난도	0
▁존립	0
▁응집제	0
워너	0
▁프로덕션	0
▁사회생활	0
▁국무총리실	0
세부	0
참모	0
▁처신	0
▁크랭크축	0
진학	0
▁견고히	0
▁연마재	0
▁진천군	0
로크	0
▁미디	0
▁스트레이트	0
▁서경	0
▁포백	0
▁가드레일	0
▁감별	0
새로	0
신앙	0
▁떳떳	0
▁오리엔테이션	0
▁혈액학	0
▁벼락	0
낭	0
▁좌중간	0
▁일러스트	0
▁국무회의	0
▁정신병	0
▁추출기	0
▁수강료	0
추안	0
산정	0
현량	0
▁옴	0
▁괄목	0
▁간호학	0
▁게을리	0
스톨	0
선재	0
▁둔갑	0
▁백수	0
▁유기성	0
양산	0
상측	0
▁전방부	0
기환	0
▁인민군	0
치상	0
▁생업	0
▁싱크로	0
▁무력감	0
▁고지서	0
▁수애	0
▁응찰	0
▁설시	0
▁공격진	0
사직	0
개발비	0
▁나나	0
▁주안점	0
▁은행나무	0
▁교과목	0
떡	0
합격자	0
▁패기	0
▁서치	0
▁도넛	0
▁좌월	0
▁허공	0
▁기공식	0
신입	0
▁유행어	0
▁소프라노	0
▁관리인	0
▁카펫	0
▁처참	0
▁잔재	0
▁경희	0
▁존치	0
▁밀착력	0
▁수니파	0
▁잔소리	0
▁환담	0
▁스토커	0
유족	0
데스크	0
▁퍼프	0
▁탐정	0
▁일군	0
후배	0
▁감사패	0
무비	0
▁뉴욕주	0
▁승복	0
▁플루오르화	0
인성	0
▁확연	0
▁내무부	0
▁산화마그네슘	0
▁마흔	0
녹시	0
보로	0
▁공회전	0
강운	0
▁선착장	0
▁선구자	0
문구	0
저수지	0
▁천일염	0
▁이선희	0
▁대놓고	0
▁산학연	0
▁음절	0
▁방사형	0
▁기무	0
▁지도력	0
▁남조선	0
▁판매고	0
▁이장	0
▁스포츠카	0
행보	0
▁탈지	0
▁장려금	0
재심	0
▁서유럽	0
▁봉합사	0
▁숙박업소	0
상대방	0
▁광동	0
▁접안	0
말레이시아	0
▁호변	0
▁수빈	0
▁수렁	0
▁불명확	0
수출입	0
무인	0
▁재액	0
▁연유	0
▁구설	0
관상	0
▁팽배	0
기입	0
▁양복	0
절하	0
조합원	0
▁친필	0
▁무공	0
왕복	0
▁각서	0
분노	0
노화	0
▁윤기	0
▁미온	0
▁담기	0
▁경면	0
절개	0
▁만기일	0
▁춘추	0
토르	0
소미	0
▁카시트	0
▁절도	0
덜	0
유저	0
▁사비	0
▁버클	0
▁명문화	0
식회	0
▁덕수궁	0
낭비	0
운반	0
▁현기증	0
▁견인차	0
▁고등교육	0
▁통할	0
▁돌변	0
▁지적도	0
▁쏴	0
▁확인서	0
외과	0
▁허구	0
▁사립대	0
▁폐차	0
▁도축	0
▁외관상	0
▁대리석	0
▁십자	0
▁볼링	0
▁직제	0
▁기념물	0
축하	0
▁교점	0
▁제과	0
찜	0
부속	0
▁귤	0
▁고모	0
▁예비역	0
▁여중생	0
▁동진	0
퍼트	0
▁동파	0
복용	0
모자	0
과도	0
출한	0
▁이롭	0
▁이수민	0
▁독식	0
▁압전체	0
▁서재	0
▁미제	0
▁면역원	0
▁시분	0
▁애호가	0
바이어스	0
진행자	0
▁본지	0
직렬	0
심문	0
기피	0
▁불이행	0
천공	0
▁합심	0
▁이원화	0
노후	0
미노	0
▁절연물	0
▁의성군	0
▁막부	0
▁집진기	0
▁대자보	0
▁김정호	0
▁재심사	0
었었	0
▁혐기성	0
▁시험대	0
분뇨	0
▁참가국	0
▁퇴거	0
▁작정	0
대본	0
타다	0
▁저기압	0
▁저기	0
▁텍사스주	0
▁금사	0
접합체	0
우레탄	0
▁크로스컨트리	0
▁합의서	0
▁브레인	0
▁가로축	0
타르	0
▁스루	0
▁이설	0
도중	0
공명	0
▁때마침	0
화정	0
▁효연	0
어택	0
▁수밀	0
▁일전	0
공영	0
▁외교통	0
▁양강	0
▁재단법인	0
▁바삭	0
원금	0
우상	0
▁단발	0
이기	0
▁악명	0
다이어트	0
▁희소성	0
▁일임	0
은커녕	0
퀴즈	0
남아공	0
▁요충지	0
염화	0
직선	0
윤회	0
당규	0
▁에스테르화	0
▁귀걸이	0
▁강유	0
▁이데올로기	0
▁길가	0
▁계대	0
▁숙식	0
해방	0
미간	0
진료소	0
제지	0
거짓말	0
▁느티나무	0
수련	0
▁과육	0
▁표면층	0
▁정예	0
▁발끝	0
체류	0
▁광해	0
계측	0
▁껑충	0
▁긴급회의	0
파스	0
▁한탄	0
▁역전사	0
▁내력	0
광명	0
▁비가역	0
호구	0
▁연화점	0
균제	0
▁리즈	0
▁세네갈	0
▁골조	0
▁깨달음	0
▁투자액	0
▁봉화	0
▁주물	0
보임	0
▁재벌가	0
▁파라과이	0
무게	0
▁특산품	0
▁섬뜩	0
퓨즈	0
▁단과	0
창의	0
경상	0
▁번트	0
출전	0
▁헌납	0
▁성문	0
만성	0
▁유엄	0
소나	0
▁해양경찰	0
▁점안	0
▁명작	0
▁집수	0
기적	0
▁피신	0
영원	0
▁당단백질	0
▁진입로	0
▁영빈관	0
▁국무원	0
콘덴서	0
▁갑피	0
▁변화구	0
▁피펫	0
진구	0
▁잡화	0
덤	0
▁가창	0
▁조급	0
▁걸작	0
▁이즈	0
단락	0
▁명가	0
요정	0
▁타계	0
▁자산가	0
빚	0
파제	0
▁클리너	0
현성	0
해수	0
▁조우	0
▁수속	0
▁직감	0
▁배재	0
노예	0
▁최상층	0
▁투척	0
보료	0
▁밀리미터	0
▁공문서	0
▁멀쩡	0
양심	0
▁할로겐화물	0
▁문소리	0
▁수복	0
▁붕	0
미인	0
강관	0
동보	0
▁단백	0
▁이지	0
▁우동	0
▁협주곡	0
▁요컨대	0
▁미도	0
▁감돌	0
▁재귀	0
▁관광업	0
부로	0
▁모조리	0
▁개보	0
착공	0
접지	0
▁거포	0
▁매콤	0
▁검단	0
스토	0
▁증분	0
▁애용	0
포상	0
▁지방간	0
▁전인	0
▁기제	0
인부	0
▁비이	0
▁가속기	0
▁비너스	0
▁좌지우지	0
▁퇴색	0
▁분신	0
▁갑상선암	0
▁포탄	0
▁정명	0
▁인터벌	0
▁경험담	0
준원	0
▁성곽	0
▁병풍	0
▁부분품	0
▁부정수	0
▁석회	0
▁바구니	0
구감	0
▁에스컬레이터	0
형수	0
▁울분	0
퐁	0
요크	0
▁누룩	0
우아	0
타빈	0
▁역사관	0
▁절상	0
▁심지	0
▁구설수	0
외식	0
▁아스코르브산	0
▁해운업	0
▁전업	0
▁구심점	0
응집	0
▁교호	0
영조	0
▁참가인	0
▁침상	0
▁자청	0
성전	0
▁준결승전	0
▁지급액	0
▁생산물	0
▁정연	0
▁고환	0
고향	0
과자	0
관내	0
불꽃	0
▁이중층	0
▁직업훈련	0
▁블루베리	0
▁공대	0
▁푸른색	0
▁엉망	0
▁고저	0
▁위부	0
▁연고지	0
▁희생양	0
▁자몽	0
▁화목	0
자급	0
정유	0
▁원목	0
대향	0
▁민가	0
우정	0
▁울산광역시	0
▁수납공간	0
▁광석	0
▁고스트	0
▁상벌	0
▁강추위	0
▁감합	0
▁불출	0
술부	0
스파크	0
화순	0
축합	0
▁기린	0
당뇨	0
▁영종도	0
▁노장	0
▁다용	0
카트리지	0
▁북태평양	0
극막	0
무제	0
▁수선	0
이옥	0
▁장단점	0
▁한가	0
희석	0
필로	0
▁진공청소기	0
▁컨트리클럽	0
▁활성산소	0
▁저널리즘	0
▁동호	0
▁천혜	0
▁공군기지	0
▁중종	0
▁명맥	0
▁정압	0
▁지단	0
▁우중간	0
▁여행기	0
▁불통	0
▁본안	0
동대	0
▁막장	0
제형	0
▁의안	0
▁금번	0
우린	0
마가	0
▁부가가치	0
▁직설	0
▁원심분리기	0
평화상	0
▁찰떡	0
▁졸음운전	0
▁대기록	0
▁교무	0
드라이	0
▁주입기	0
▁봉송	0
▁단초	0
▁정약용	0
▁전면전	0
▁평안북도	0
▁구매력	0
▁퍼펙트	0
숙종	0
▁스티로폼	0
민선	0
▁파수	0
▁펭귄	0
▁오갈	0
▁공경	0
▁각양각색	0
▁살리실산	0
상류	0
▁융기	0
경진	0
▁농경	0
▁얼른	0
▁경이	0
▁주변인	0
▁저탄소	0
▁싱싱	0
수협	0
▁후행	0
▁미라	0
▁오지호	0
왕자	0
입주	0
▁망각	0
▁상조	0
▁타살	0
▁재작년	0
▁출두	0
포고	0
▁평면형	0
▁암기	0
등판	0
▁교수진	0
복싱	0
▁금감	0
▁엄지손가락	0
▁분변	0
▁원터치	0
▁열화상	0
▁비틀	0
▁용질	0
▁회항	0
▁농후	0
▁각부	0
▁답장	0
▁탈락자	0
안정제	0
▁영양제	0
▁조선총독부	0
▁박용	0
▁정치국	0
▁가류	0
▁영동군	0
▁발명품	0
파지	0
전동	0
▁전통주	0
▁무례	0
▁고역	0
상처	0
▁부총장	0
도프	0
▁반항	0
▁나뭇가지	0
▁찰	0
▁효도	0
▁모리	0
▁중탄산나트륨	0
▁성년	0
서진	0
▁라틴어	0
▁제구	0
▁부조	0
▁인디언	0
▁길항	0
▁딱지	0
올리브	0
▁주문자	0
▁뒷이야기	0
▁한가위	0
▁조정안	0
일도	0
▁정돈	0
▁영암군	0
▁기대주	0
원지	0
▁카르복시기	0
▁감미제	0
거주	0
지적	0
루나	0
▁교환국	0
▁치사	0
열전	0
문건	0
▁궁지	0
식기	0
▁총상	0
▁공갈	0
지단	0
독부	0
▁애환	0
▁재수	0
▁방관	0
▁가희	0
▁소송비용	0
리듬	0
▁비웃	0
포즈	0
▁온풍	0
▁식기세척기	0
협조	0
▁복고	0
점주	0
▁황금연휴	0
▁표고버섯	0
▁연발	0
지령	0
▁요구르트	0
합격	0
▁이음매	0
▁설명서	0
▁역차별	0
▁교문	0
▁민트	0
▁내향	0
대의	0
▁지프	0
▁이리저리	0
▁소위원회	0
관점	0
입감	0
회전수	0
공백	0
통신단	0
주당	0
어막	0
▁쇠약	0
교차	0
▁유리관	0
포용	0
글리세린	0
▁육질	0
대사전	0
페니	0
▁이세영	0
▁요양원	0
홍조	0
칼라	0
▁투숙	0
▁두세	0
▁졸속	0
부수	0
금요일	0
끝단	0
▁윤곽선	0
▁절단기	0
상여금	0
▁콤비네이션	0
협착증	0
▁헌화	0
▁출산율	0
▁원생	0
태극기	0
▁교목	0
▁민국	0
▁권태감	0
▁스케치	0
▁김영수	0
▁운반체	0
시비	0
▁대유	0
▁침습	0
▁할인점	0
▁경의	0
▁연소기	0
발린	0
▁중재자	0
▁볶음	0
▁노크	0
▁일갈	0
▁원예	0
▁지미	0
계곡	0
열정	0
▁미숙아	0
▁이권	0
문사	0
▁양친	0
▁수매	0
거대	0
형사부	0
응원	0
부식	0
산학	0
▁잠입	0
▁시험지	0
▁국조	0
발열체	0
▁불가역	0
▁별자리	0
▁도배	0
▁유관순	0
▁동두천	0
▁어스	0
▁폭투	0
세륨	0
빈혈	0
▁등산객	0
▁결사	0
▁일본국	0
컨테이너	0
▁시간표	0
연통	0
▁면죄부	0
▁바캉스	0
▁흠뻑	0
▁이토	0
▁난자	0
아저씨	0
부판	0
지담	0
▁청양	0
위아	0
아마존	0
▁패스트볼	0
▁스타일리스트	0
▁김경태	0
▁열대	0
▁유종	0
▁수포	0
▁상병	0
사법부	0
피로	0
채취	0
쌈	0
▁섬진강	0
▁폄하	0
고온	0
▁테러리스트	0
▁유자	0
▁비시	0
▁방사포	0
▁취업규칙	0
이성	0
▁서모	0
▁어머님	0
포리	0
청색	0
다이아몬드	0
▁포구	0
▁소경	0
▁홀인원	0
▁외우	0
▁밑부분	0
▁이재윤	0
▁회장단	0
▁국사	0
▁후천	0
분획	0
▁약용	0
▁입계	0
▁애국심	0
어하	0
▁수레	0
신발	0
민중	0
▁뱀파이어	0
▁서천	0
▁떠들썩	0
▁앙	0
▁재래식	0
▁평행선	0
▁와일드	0
청렴	0
▁물줄기	0
▁전편	0
▁위중	0
액상	0
▁솔선수범	0
두부	0
▁안성맞춤	0
▁결의문	0
▁주채	0
▁단련	0
▁취사	0
특례법	0
▁투심	0
▁증기압	0
▁갈림길	0
▁드릴링	0
채팅	0
분여	0
▁병동	0
▁도성	0
밀리미터	0
▁비지	0
규약	0
▁황화수소	0
▁차분히	0
▁라파엘	0
▁황반	0
형편	0
▁왕립	0
▁경사도	0
▁가을철	0
▁집행정지	0
▁유심	0
각지	0
▁디오	0
문예	0
▁탈색	0
▁미세화	0
▁영접	0
▁여관	0
▁자메이카	0
▁여과기	0
▁결백	0
▁현우	0
▁혼탁	0
▁소생	0
바르	0
▁복조기	0
스팀	0
▁이토록	0
▁촌	0
▁어획량	0
제철소	0
▁향신료	0
주방	0
▁수프	0
▁슬로바키아	0
▁정례회	0
노시	0
▁화천군	0
▁반구	0
▁리시브	0
▁건설업자	0
초교	0
▁행자부	0
▁칠곡군	0
▁일용직	0
▁인큐베이터	0
▁감칠맛	0
▁여아	0
내비게이션	0
▁조선족	0
▁공공연	0
자립	0
▁순찰차	0
좌상	0
▁빈틈	0
▁강건	0
▁공허	0
햇	0
▁심리전	0
▁수학여행	0
▁무도	0
여행사	0
▁토론자	0
제트	0
원법	0
일각	0
▁배심원	0
베스	0
▁함양군	0
▁한결같이	0
▁주휴	0
▁추서	0
▁만물	0
▁반비례	0
▁보병	0
▁예찰	0
▁시아파	0
▁치어리더	0
정치인	0
▁전조	0
▁예절	0
언급	0
▁소중히	0
▁배상금	0
▁반제품	0
차입	0
▁공비	0
포지	0
엇	0
▁섬광	0
▁해직	0
▁출당	0
▁이맘때	0
▁부칙	0
주머니	0
▁목전	0
원통	0
▁도미니카	0
▁월동	0
▁시운전	0
▁팬텀	0
▁서막	0
▁내장재	0
▁합체	0
▁소공	0
▁목장	0
▁풀백	0
▁전도사	0
▁냉동기	0
▁외자	0
채무자	0
▁데카	0
▁악연	0
베어	0
천재	0
잠정	0
▁캠코더	0
▁맹세	0
▁소장품	0
▁반말	0
▁제리	0
침전	0
▁치사율	0
▁제직	0
수비대	0
▁독선	0
▁영수	0
▁양천	0
원도	0
▁악셀	0
▁산제	0
트림	0
▁연회	0
▁바통	0
▁산질	0
▁정형외과	0
심위	0
▁적격성	0
▁청국장	0
▁즉답	0
▁대경	0
▁액제	0
다비	0
▁전측	0
▁판매사	0
운임	0
슬러리	0
▁현종	0
차주	0
▁자이	0
▁입회	0
국수	0
▁수산업	0
반원	0
▁병리학	0
회체	0
새끼	0
▁편백	0
▁요통	0
장성	0
▁자가	0
옥심	0
선수단	0
▁음식료품	0
▁역투	0
▁묵살	0
▁토성	0
▁극판	0
비해	0
▁구위	0
▁풍년	0
▁단환	0
▁담뱃값	0
붕괴	0
▁서맥	0
탐지	0
▁송신자	0
▁재상	0
▁끓는점	0
개조	0
떨림	0
▁반일	0
구배	0
▁릴리	0
반지	0
▁하양	0
▁유압식	0
▁방벽	0
이래	0
동취	0
▁생김새	0
▁전모	0
▁재추진	0
▁시노	0
▁수경	0
가염	0
▁본보기	0
황색	0
호대	0
심부전	0
▁대상포진	0
▁두둔	0
▁횡축	0
세브	0
병렬	0
▁물거품	0
▁지휘부	0
▁정인	0
투성이	0
▁뮤즈	0
▁위선	0
▁장마철	0
▁진범	0
▁강우량	0
리오	0
▁경부선	0
▁좌천	0
▁적설량	0
▁내리막	0
▁개관식	0
▁한적	0
▁외도	0
▁연주회	0
▁아무튼	0
▁피부암	0
침착	0
기념사업	0
고위	0
화장	0
▁명물	0
▁북항	0
볶음	0
▁전로	0
▁설폰산	0
▁집배원	0
▁보로	0
▁동풍	0
배합	0
딜러	0
궤	0
▁제철소	0
▁독립군	0
▁갈비	0
▁전문지	0
▁대립각	0
▁송정	0
▁설거지	0
▁영해	0
직전	0
폭풍	0
철거	0
▁연평도	0
▁분사기	0
▁굴절력	0
▁티탄산	0
▁그레	0
▁왕족	0
풍문	0
유관	0
곤충	0
▁다형	0
입비	0
▁로사	0
이곳	0
▁샴페인	0
▁마야	0
듀오	0
▁폐허	0
▁서진	0
방수	0
▁차음	0
신설	0
▁유턴	0
▁결막염	0
▁핫뉴스	0
▁고용주	0
▁피격	0
사청	0
마취	0
▁부지런히	0
▁해적	0
▁북아일랜드	0
▁미려	0
▁행진곡	0
▁인기상	0
▁오퍼레이션	0
수출국	0
뱀	0
흡입구	0
주재	0
▁바비큐	0
호실	0
▁평준	0
▁부록	0
▁연출자	0
▁일류	0
▁무심	0
▁정회원	0
▁암수	0
▁검수	0
▁허여	0
전신	0
▁내원	0
▁꼬리표	0
우물	0
▁원성	0
▁친목	0
▁과오	0
▁박종훈	0
보물	0
타원	0
천식	0
원비	0
아이디어	0
▁갱년기	0
▁엄두	0
▁암초	0
▁시금치	0
▁나포	0
▁나위	0
일례	0
교재	0
연판	0
어렵	0
음모	0
▁소심	0
▁회당	0
▁열전도도	0
▁후추	0
▁피디	0
제동	0
▁고밀	0
▁바자회	0
남기	0
▁신명	0
▁활동비	0
▁보따리	0
상향	0
▁가우	0
▁단의	0
▁가석방	0
정점	0
▁예지	0
▁교가	0
후군	0
▁제조법	0
▁연착륙	0
▁소임	0
▁찬성표	0
▁플래카드	0
▁더비	0
배추	0
▁특판	0
▁우영	0
▁참나무	0
상봉	0
방재	0
▁덤	0
▁내과	0
대지	0
▁특임	0
▁걸이	0
▁후프	0
지혜	0
▁철강업	0
▁토핑	0
▁염화칼슘	0
▁건조물	0
여권	0
▁열의	0
▁분산매	0
▁도비	0
주입구	0
연구관	0
여야만	0
축적	0
토이	0
극한	0
▁재경	0
▁향미제	0
▁영장류	0
▁지팡이	0
극선	0
▁주창	0
▁말라리아	0
지붕	0
▁심실	0
▁균체	0
국감	0
▁우측면	0
▁나인	0
▁사조	0
하도급	0
▁디에틸에테르	0
▁연가	0
향각	0
▁환원성	0
하구	0
▁통수	0
▁생검	0
▁정역	0
시복	0
자발	0
새우	0
▁압록강	0
▁종이컵	0
교차로	0
▁번쩍	0
▁세무서	0
▁홍조	0
▁협상력	0
▁중령	0
▁합제	0
▁위용	0
토끼	0
▁역효과	0
독립운동	0
▁마지노선	0
고로	0
▁성모	0
▁울창	0
시의	0
옛날	0
서적	0
▁입법부	0
조영	0
▁전시실	0
▁설교	0
▁불법체류	0
▁설상가상	0
▁탐지기	0
▁엄밀	0
강호	0
▁올리고당	0
▁안정기	0
장갑	0
메토	0
▁분비물	0
▁일구	0
고백	0
▁반영구	0
▁내추럴	0
광소자	0
▁침출	0
신학	0
▁유창	0
▁운동화	0
▁유찰	0
▁합의금	0
인장	0
▁병역법	0
광광	0
▁어원	0
균열	0
▁퇴	0
▁원어민	0
▁폐경	0
▁명세	0
▁체세포	0
▁등반	0
▁사회부	0
라지	0
▁장염	0
인버터	0
▁위시	0
시독	0
▁타국	0
▁조미료	0
▁메리트	0
▁화법	0
▁희곡	0
▁조강	0
▁힘줄	0
비판	0
▁의사일정	0
작사	0
▁모나코	0
버너	0
▁수두	0
▁숙면	0
약군	0
심판원	0
▁수난	0
호법	0
컨소시엄	0
갈비	0
더미	0
히드라	0
양양	0
▁바티칸	0
▁밀반입	0
후생	0
▁전소	0
▁어도	0
▁철골	0
▁토우	0
▁사개	0
하드웨어	0
▁계양	0
포유	0
▁연방수사국	0
밀양	0
▁파스	0
▁적출	0
▁엽산	0
노브	0
▁알킬화	0
▁여기자	0
▁동통	0
▁네온	0
▁적당량	0
피아노	0
▁가공품	0
▁뉘앙스	0
▁결정력	0
▁차도	0
▁숙련가	0
▁라스	0
▁남단	0
▁기부자	0
국적	0
▁송전탑	0
▁진나라	0
▁광둥성	0
▁직군	0
▁조교	0
▁면역학	0
▁터프	0
분화	0
▁중사	0
▁징검다리	0
▁내리막길	0
무안	0
▁게양	0
안과	0
▁예방법	0
승진	0
상의	0
▁짜장면	0
변호	0
▁산이	0
▁컴파일러	0
▁옥스퍼드	0
▁자물쇠	0
▁간선	0
라라	0
▁옷감	0
소금	0
▁진안군	0
▁개회사	0
▁배양기	0
▁핵융합	0
심이	0
계발	0
▁익살	0
▁음소	0
▁풍토	0
▁배신감	0
동판	0
심근	0
▁어장	0
▁과산화	0
▁솔로몬	0
▁용융점	0
▁버젓이	0
▁금물	0
▁가도	0
▁합동참모본부	0
천장	0
▁유형문화재	0
▁호구	0
▁한바탕	0
▁사판	0
장려	0
▁좌판	0
굴곡	0
▁진찰	0
▁투시	0
▁저가	0
▁공방전	0
대란	0
▁인도적	0
▁무주군	0
양궁	0
▁서보모터	0
▁모터스포츠	0
신선	0
축선	0
패치	0
믹서	0
▁매사	0
▁감정선	0
▁언뜻	0
▁우방	0
엉	0
▁점탄성	0
▁득실	0
메모	0
▁수갑	0
▁생계비	0
라미	0
▁교육자	0
▁교습	0
시양	0
▁환구	0
잔류	0
시급	0
▁흥행작	0
메시	0
▁대증	0
댁	0
▁광폭	0
기각	0
▁뇌하수체	0
▁격분	0
위생법	0
▁불임	0
송시	0
▁합헌	0
▁아디프산	0
▁분급	0
▁벌점	0
녹음	0
▁동시대	0
▁동성애자	0
부총장	0
동편	0
▁세이프	0
▁폄훼	0
▁전력망	0
▁헌터	0
금융업	0
▁아포	0
▁조목조목	0
▁투습	0
실아	0
▁거물	0
사멸	0
▁오한	0
연인	0
어야지	0
▁총독	0
▁친동생	0
▁군무	0
포저	0
▁황폐	0
파출소	0
▁향교	0
▁재료비	0
잠재력	0
▁페널티킥	0
센티미터	0
▁후세	0
측판	0
▁선한	0
해양경찰	0
▁풍수	0
시백	0
▁검정고시	0
▁관찰사	0
▁탈선	0
▁덕목	0
▁라마	0
▁보온성	0
▁찜질방	0
찰	0
▁황화	0
▁웨인	0
▁범한	0
▁낙찰자	0
육군	0
이량체	0
▁세속	0
▁번성	0
▁캡션	0
수배	0
마블	0
▁케이프	0
▁비둘기	0
▁인감	0
▁루멘	0
극체	0
전시실	0
▁벌브	0
▁개환	0
▁우박	0
우회	0
곡성	0
▁다변화	0
이속	0
▁실측	0
▁외인성	0
▁낙지	0
산불	0
마개	0
호조	0
▁와전류	0
▁동북부	0
백제	0
플랫폼	0
▁엘시티	0
▁앞장	0
▁구주	0
리스터	0
▁실력자	0
▁박멸	0
멀티플렉서	0
▁재활용품	0
독서	0
▁어조	0
▁실익	0
유한	0
▁판서	0
▁카메룬	0
▁오염원	0
▁옥천군	0
▁폴리오	0
▁모신	0
▁열전도율	0
땅콩	0
▁은산	0
▁끼니	0
최악	0
▁교배	0
▁어버이날	0
행량	0
▁유나	0
▁폐액	0
▁유혈	0
혜주	0
초콜릿	0
발령	0
서리	0
영광	0
▁오보	0
▁건축법	0
▁연거푸	0
상판	0
▁상층부	0
▁the	0
▁to	0
▁and	0
▁of	0
▁a	0
▁in	0
▁s	0
▁that	0
▁for	0
▁is	0
▁on	0
▁it	0
▁with	0
▁as	0
▁was	0
▁at	0
▁be	0
▁he	0
▁are	0
▁from	0
▁by	0
▁i	0
▁have	0
▁this	0
▁said	0
▁has	0
▁you	0
▁but	0
▁an	0
▁will	0
▁they	0
▁his	0
▁we	0
▁not	0
▁or	0
▁their	0
▁t	0
▁who	0
▁more	0
▁one	0
▁can	0
▁about	0
▁all	0
▁which	0
▁new	0
▁its	0
▁been	0
▁up	0
▁had	0
▁were	0
▁there	0
▁also	0
▁year	0
▁when	0
▁out	0
▁would	0
▁if	0
▁what	0
▁so	0
▁she	0
▁after	0
▁people	0
▁time	0
▁her	0
▁than	0
▁two	0
▁first	0
▁other	0
▁your	0
▁some	0
▁over	0
▁like	0
▁no	0
▁into	0
▁our	0
▁just	0
▁do	0
▁them	0
▁years	0
▁last	0
▁now	0
▁m	0
▁could	0
▁how	0
▁only	0
▁most	0
▁state	0
▁my	0
▁get	0
▁while	0
▁many	0
▁because	0
▁us	0
▁may	0
▁these	0
▁even	0
▁well	0
▁make	0
▁re	0
▁those	0
▁back	0
▁where	0
▁three	0
▁any	0
▁before	0
▁through	0
▁world	0
▁him	0
▁day	0
▁being	0
▁then	0
▁company	0
▁work	0
▁way	0
▁government	0
▁made	0
▁city	0
▁million	0
▁such	0
▁much	0
▁off	0
▁president	0
▁should	0
▁home	0
▁says	0
▁during	0
▁against	0
▁u	0
▁take	0
▁high	0
▁since	0
▁still	0
▁very	0
▁see	0
▁down	0
▁school	0
▁good	0
▁don	0
▁percent	0
▁going	0
▁both	0
▁team	0
▁game	0
▁me	0
▁week	0
▁long	0
▁right	0
▁know	0
▁between	0
▁think	0
▁including	0
▁go	0
▁around	0
▁did	0
▁according	0
▁public	0
▁part	0
▁use	0
▁business	0
▁need	0
▁next	0
▁here	0
▁another	0
▁under	0
▁old	0
▁police	0
▁help	0
▁say	0
▁want	0
▁second	0
▁country	0
▁season	0
▁life	0
▁four	0
▁best	0
▁national	0
▁end	0
▁own	0
▁same	0
▁group	0
▁ve	0
▁d	0
▁told	0
▁house	0
▁family	0
▁p	0
▁each	0
▁place	0
▁come	0
▁based	0
▁too	0
▁show	0
▁today	0
▁every	0
▁really	0
▁big	0
▁trump	0
▁support	0
▁set	0
▁market	0
▁used	0
▁great	0
▁five	0
▁information	0
▁health	0
▁states	0
▁per	0
▁news	0
▁top	0
▁found	0
▁service	0
▁system	0
▁few	0
▁however	0
▁mr	0
▁american	0
▁better	0
▁united	0
▁money	0
▁left	0
▁children	0
▁data	0
▁called	0
▁number	0
▁lot	0
▁without	0
▁former	0
▁free	0
▁report	0
▁days	0
▁does	0
▁community	0
▁little	0
▁look	0
▁students	0
▁might	0
▁got	0
▁why	0
▁security	0
▁play	0
▁local	0
▁th	0
▁county	0
▁things	0
▁never	0
▁man	0
▁month	0
▁court	0
▁times	0
▁office	0
▁university	0
▁put	0
▁services	0
▁point	0
▁law	0
▁something	0
▁area	0
▁party	0
▁center	0
▁ll	0
▁find	0
▁won	0
▁open	0
▁night	0
▁power	0
▁run	0
▁already	0
▁past	0
▁making	0
▁program	0
▁media	0
▁working	0
▁case	0
▁different	0
▁companies	0
▁change	0
▁until	0
▁though	0
▁members	0
▁took	0
▁women	0
▁international	0
▁far	0
▁department	0
▁several	0
▁away	0
▁early	0
▁months	0
▁came	0
▁full	0
▁less	0
▁across	0
▁south	0
▁water	0
▁among	0
▁start	0
▁third	0
▁political	0
▁later	0
▁real	0
▁six	0
▁north	0
▁social	0
▁must	0
▁york	0
▁again	0
▁half	0
▁general	0
▁director	0
▁friday	0
▁able	0
▁white	0
▁yet	0
▁least	0
▁whether	0
▁billion	0
▁small	0
▁keep	0
▁ago	0
▁once	0
▁points	0
▁always	0
▁future	0
▁using	0
▁games	0
▁care	0
▁development	0
▁give	0
▁important	0
▁added	0
▁officials	0
▁become	0
▁line	0
▁war	0
▁plan	0
▁call	0
▁research	0
▁looking	0
▁deal	0
▁available	0
▁tuesday	0
▁recent	0
▁federal	0
▁major	0
▁project	0
▁win	0
▁food	0
▁monday	0
▁having	0
▁went	0
▁technology	0
▁along	0
▁st	0
▁enough	0
▁pay	0
▁tax	0
▁story	0
▁board	0
▁industry	0
▁side	0
▁within	0
▁thursday	0
▁others	0
▁young	0
▁series	0
▁live	0
▁financial	0
▁job	0
▁likely	0
▁wednesday	0
▁process	0
▁given	0
▁experience	0
▁saturday	0
▁often	0
▁level	0
▁building	0
▁large	0
▁seen	0
▁getting	0
▁ever	0
▁music	0
▁move	0
▁head	0
▁am	0
▁lead	0
▁hard	0
▁road	0
▁march	0
▁street	0
▁together	0
▁campaign	0
▁known	0
▁west	0
▁video	0
▁thing	0
▁comes	0
▁education	0
▁china	0
▁fact	0
▁cost	0
▁course	0
▁let	0
▁chief	0
▁sunday	0
▁minister	0
▁event	0
▁history	0
▁taking	0
▁love	0
▁doing	0
▁air	0
▁reported	0
▁include	0
▁expected	0
▁order	0
▁held	0
▁john	0
▁growth	0
▁bill	0
▁film	0
▁military	0
▁asked	0
▁announced	0
▁done	0
▁policy	0
▁provide	0
▁led	0
▁black	0
▁current	0
▁e	0
▁car	0
▁control	0
▁close	0
▁hit	0
▁space	0
▁post	0
▁following	0
▁price	0
▁economic	0
▁bank	0
▁park	0
▁coming	0
▁district	0
▁started	0
▁online	0
▁sure	0
▁person	0
▁april	0
▁behind	0
▁america	0
▁final	0
▁continue	0
▁human	0
▁council	0
▁taken	0
▁energy	0
▁global	0
▁issue	0
▁low	0
▁share	0
▁c	0
▁late	0
▁players	0
▁recently	0
▁pm	0
▁college	0
▁co	0
▁men	0
▁earlier	0
▁plans	0
▁decision	0
▁name	0
▁hours	0
▁access	0
▁special	0
▁almost	0
▁makes	0
▁feel	0
▁meeting	0
▁league	0
▁possible	0
▁near	0
▁actually	0
▁fire	0
▁election	0
▁issues	0
▁believe	0
▁room	0
▁rights	0
▁quarter	0
▁needs	0
▁term	0
▁sales	0
▁countries	0
▁face	0
▁due	0
▁management	0
▁trying	0
▁role	0
▁star	0
▁problem	0
▁means	0
▁study	0
▁action	0
▁book	0
▁site	0
▁record	0
▁clear	0
▁lost	0
▁kind	0
▁east	0
▁statement	0
▁further	0
▁increase	0
▁nearly	0
▁private	0
▁june	0
▁death	0
▁outside	0
▁instead	0
▁schools	0
▁member	0
▁committee	0
▁saying	0
▁weeks	0
▁strong	0
▁key	0
▁forward	0
▁minutes	0
▁although	0
▁staff	0
▁administration	0
▁class	0
▁despite	0
▁medical	0
▁field	0
▁senior	0
▁executive	0
▁oil	0
▁front	0
▁short	0
▁higher	0
▁town	0
▁bring	0
▁running	0
▁single	0
▁seven	0
▁force	0
▁released	0
▁list	0
▁question	0
▁interest	0
▁network	0
▁performance	0
▁rather	0
▁reports	0
▁act	0
▁offer	0
▁thought	0
▁morning	0
▁club	0
▁rate	0
▁trade	0
▁especially	0
▁return	0
▁google	0
▁total	0
▁customers	0
▁example	0
▁create	0
▁conference	0
▁july	0
▁products	0
▁central	0
▁workers	0
▁received	0
▁average	0
▁release	0
▁goal	0
▁press	0
▁began	0
▁vote	0
▁areas	0
▁non	0
▁played	0
▁risk	0
▁friends	0
▁currently	0
▁hand	0
▁red	0
▁career	0
▁wanted	0
▁stop	0
▁potential	0
▁agency	0
▁leaders	0
▁facebook	0
▁everyone	0
▁idea	0
▁foreign	0
▁shot	0
▁economy	0
▁try	0
▁phone	0
▁india	0
▁someone	0
▁living	0
▁shows	0
▁summer	0
▁users	0
▁tv	0
▁apple	0
▁everything	0
▁age	0
▁eight	0
▁results	0
▁nothing	0
▁n	0
▁san	0
▁leader	0
▁capital	0
▁anything	0
▁needed	0
▁bit	0
▁read	0
▁california	0
▁drive	0
▁middle	0
▁result	0
▁visit	0
▁period	0
▁turn	0
▁nation	0
▁either	0
▁saw	0
▁playing	0
▁groups	0
▁cut	0
▁training	0
▁hope	0
▁position	0
▁coach	0
▁official	0
▁property	0
▁cent	0
▁parents	0
▁personal	0
▁b	0
▁land	0
▁body	0
▁worked	0
▁light	0
▁union	0
▁jobs	0
▁bad	0
▁child	0
▁soon	0
▁matter	0
▁al	0
▁probably	0
▁leading	0
▁build	0
▁main	0
▁costs	0
▁david	0
▁lives	0
▁problems	0
▁seems	0
▁january	0
▁opportunity	0
▁officer	0
▁student	0
▁hospital	0
▁latest	0
▁fans	0
▁manager	0
▁woman	0
▁kids	0
▁congress	0
▁talk	0
▁whole	0
▁similar	0
▁region	0
▁buy	0
▁form	0
▁r	0
▁meet	0
▁value	0
▁quality	0
▁church	0
▁budget	0
▁investment	0
▁mobile	0
▁player	0
▁impact	0
▁systems	0
▁attack	0
▁involved	0
▁growing	0
▁o	0
▁became	0
▁events	0
▁killed	0
▁legal	0
▁works	0
▁includes	0
▁annual	0
▁focus	0
▁whose	0
▁defense	0
▁leave	0
▁internet	0
▁anyone	0
▁view	0
▁changes	0
▁employees	0
▁safety	0
▁chance	0
▁tell	0
▁themselves	0
▁green	0
▁income	0
▁range	0
▁loss	0
▁production	0
▁prices	0
▁european	0
▁inside	0
▁round	0
▁uk	0
▁watch	0
▁art	0
▁lower	0
▁dr	0
▁couple	0
▁allow	0
▁questions	0
▁fall	0
▁reason	0
▁built	0
▁design	0
▁above	0
▁wrote	0
▁september	0
▁justice	0
▁product	0
▁december	0
▁ahead	0
▁republican	0
▁mark	0
▁store	0
▁himself	0
▁november	0
▁gave	0
▁residents	0
▁mother	0
▁software	0
▁teams	0
▁died	0
▁brought	0
▁ways	0
▁families	0
▁longer	0
▁easy	0
▁russia	0
▁stock	0
▁takes	0
▁efforts	0
▁true	0
▁wants	0
▁race	0
▁addition	0
▁test	0
▁heart	0
▁largest	0
▁itself	0
▁features	0
▁mean	0
▁paid	0
▁prime	0
▁spent	0
▁hold	0
▁michael	0
▁fund	0
▁biggest	0
▁father	0
▁son	0
▁digital	0
▁americans	0
▁self	0
▁sense	0
▁included	0
▁football	0
▁commission	0
▁democratic	0
▁related	0
▁businesses	0
▁london	0
▁fourth	0
▁october	0
▁investigation	0
▁stay	0
▁movie	0
▁credit	0
▁senate	0
▁organization	0
▁success	0
▁association	0
▁revenue	0
▁step	0
▁created	0
▁programs	0
▁previous	0
▁ground	0
▁gas	0
▁texas	0
▁throughout	0
▁difficult	0
▁science	0
▁common	0
▁terms	0
▁weekend	0
▁worth	0
▁app	0
▁cases	0
▁website	0
▁popular	0
▁significant	0
▁turned	0
▁simply	0
▁model	0
▁quite	0
▁check	0
▁firm	0
▁officers	0
▁situation	0
▁hour	0
▁pretty	0
▁secretary	0
▁amount	0
▁starting	0
▁forces	0
▁add	0
▁evidence	0
▁understand	0
▁content	0
▁offers	0
▁projects	0
▁drug	0
▁daily	0
▁additional	0
▁wife	0
▁g	0
▁j	0
▁anti	0
▁rest	0
▁investors	0
▁james	0
▁response	0
▁learn	0
▁society	0
▁below	0
▁sent	0
▁match	0
▁huge	0
▁account	0
▁k	0
▁effort	0
▁ready	0
▁nine	0
▁sports	0
▁search	0
▁british	0
▁certain	0
▁stage	0
▁army	0
▁wall	0
▁ability	0
▁agreement	0
▁helped	0
▁cause	0
▁february	0
▁funding	0
▁perhaps	0
▁version	0
▁spending	0
▁fight	0
▁remain	0
▁insurance	0
▁august	0
▁date	0
▁quickly	0
▁plus	0
▁ball	0
▁goes	0
▁web	0
▁winning	0
▁finally	0
▁demand	0
▁giving	0
▁rates	0
▁cash	0
▁overall	0
▁base	0
▁chinese	0
▁various	0
▁travel	0
▁twitter	0
▁operations	0
▁decided	0
▁allowed	0
▁increased	0
▁expect	0
▁opening	0
▁mind	0
▁looks	0
▁source	0
▁ask	0
▁remains	0
▁address	0
▁resources	0
▁attention	0
▁natural	0
▁cannot	0
▁florida	0
▁maybe	0
▁else	0
▁required	0
▁reach	0
▁levels	0
▁track	0
▁beyond	0
▁numbers	0
▁entire	0
▁published	0
▁moving	0
▁follow	0
▁goals	0
▁pass	0
▁words	0
▁page	0
▁break	0
▁thousands	0
▁paul	0
▁happened	0
▁markets	0
▁provided	0
▁heard	0
▁review	0
▁details	0
▁present	0
▁moment	0
▁serious	0
▁designed	0
▁approach	0
▁served	0
▁original	0
▁authorities	0
▁named	0
▁sign	0
▁compared	0
▁judge	0
▁inc	0
▁gets	0
▁majority	0
▁contract	0
▁particularly	0
▁ceo	0
▁attorney	0
▁de	0
▁russian	0
▁sometimes	0
▁showed	0
▁met	0
▁calls	0
▁environment	0
▁station	0
▁complete	0
▁patients	0
▁democrats	0
▁brown	0
▁benefits	0
▁pressure	0
▁island	0
▁homes	0
▁challenge	0
▁continued	0
▁runs	0
▁scored	0
▁interview	0
▁planning	0
▁moved	0
▁god	0
▁funds	0
▁award	0
▁practice	0
▁conditions	0
▁crisis	0
▁driving	0
▁construction	0
▁toward	0
▁x	0
▁victory	0
▁raised	0
▁title	0
▁rules	0
▁sector	0
▁vehicle	0
▁smith	0
▁limited	0
▁hall	0
▁shares	0
▁climate	0
▁ensure	0
▁housing	0
▁chairman	0
▁treatment	0
▁hands	0
▁wide	0
▁blue	0
▁voters	0
▁stand	0
▁happy	0
▁happen	0
▁nuclear	0
▁platform	0
▁leadership	0
▁double	0
▁canada	0
▁cancer	0
▁learning	0
▁cup	0
▁border	0
▁windows	0
▁wrong	0
▁individual	0
▁brand	0
▁charge	0
▁signed	0
▁tech	0
▁centre	0
▁peace	0
▁tried	0
▁competition	0
▁via	0
▁consider	0
▁western	0
▁yes	0
▁save	0
▁sold	0
▁host	0
▁population	0
▁claims	0
▁choice	0
▁ended	0
▁traffic	0
▁net	0
▁receive	0
▁improve	0
▁multiple	0
▁dead	0
▁talking	0
▁violence	0
▁beach	0
▁certainly	0
▁passed	0
▁los	0
▁fast	0
▁vice	0
▁followed	0
▁king	0
▁begin	0
▁division	0
▁feet	0
▁felt	0
▁charges	0
▁born	0
▁effect	0
▁foundation	0
▁provides	0
▁seem	0
▁launch	0
▁relationship	0
▁article	0
▁computer	0
▁previously	0
▁cover	0
▁strategy	0
▁feature	0
▁devices	0
▁yards	0
▁hotel	0
▁screen	0
▁gone	0
▁rise	0
▁miles	0
▁opened	0
▁attacks	0
▁email	0
▁style	0
▁river	0
▁gold	0
▁concerns	0
▁movement	0
▁launched	0
▁l	0
▁offered	0
▁safe	0
▁civil	0
▁failed	0
▁knew	0
▁fun	0
▁independent	0
▁debt	0
▁card	0
▁pro	0
▁size	0
▁successful	0
▁professional	0
▁friend	0
▁options	0
▁traditional	0
▁box	0
▁considered	0
▁positive	0
▁marketing	0
▁closed	0
▁simple	0
▁adding	0
▁culture	0
▁daughter	0
▁contact	0
▁activities	0
▁pick	0
▁lack	0
▁cities	0
▁standard	0
▁tour	0
▁benefit	0
▁valley	0
▁message	0
▁sell	0
▁shooting	0
▁republicans	0
▁type	0
▁george	0
▁nations	0
▁target	0
▁beginning	0
▁teachers	0
▁serve	0
▁decades	0
▁specific	0
▁intelligence	0
▁word	0
▁century	0
▁immediately	0
▁poor	0
▁foot	0
▁lake	0
▁stories	0
▁mission	0
▁cars	0
▁spend	0
▁yesterday	0
▁upon	0
▁comment	0
▁england	0
▁note	0
▁deep	0
▁eu	0
▁scene	0
▁letter	0
▁thanks	0
▁paper	0
▁johnson	0
▁parts	0
▁square	0
▁operating	0
▁floor	0
▁remember	0
▁spring	0
▁band	0
▁hear	0
▁walk	0
▁arrested	0
▁regular	0
▁regional	0
▁www	0
▁written	0
▁alone	0
▁presidential	0
▁speed	0
▁records	0
▁changed	0
▁noted	0
▁candidate	0
▁fell	0
▁elections	0
▁door	0
▁sale	0
▁australia	0
▁answer	0
▁southern	0
▁communities	0
▁parties	0
▁device	0
▁particular	0
▁bush	0
▁reached	0
▁greater	0
▁commercial	0
▁reality	0
▁continues	0
▁sound	0
▁f	0
▁agreed	0
▁ice	0
▁protect	0
▁critical	0
▁offering	0
▁israeli	0
▁meanwhile	0
▁africa	0
▁w	0
▁degree	0
▁customer	0
▁french	0
▁block	0
▁voice	0
▁posted	0
▁crime	0
▁cloud	0
▁ones	0
▁governor	0
▁proposed	0
▁books	0
▁looked	0
▁professor	0
▁television	0
▁banks	0
▁mayor	0
▁hot	0
▁primary	0
▁spot	0
▁opportunities	0
▁located	0
▁bay	0
▁festival	0
▁cross	0
▁join	0
▁unit	0
▁weather	0
▁restaurant	0
▁fair	0
▁photo	0
▁language	0
▁trust	0
▁raise	0
▁minute	0
▁perfect	0
▁radio	0
▁consumers	0
▁emergency	0
▁thinking	0
▁institute	0
▁location	0
▁grow	0
▁amazon	0
▁incident	0
▁disease	0
▁joined	0
▁places	0
▁policies	0
▁candidates	0
▁owner	0
▁providing	0
▁opposition	0
▁leaving	0
▁highest	0
▁figure	0
▁writing	0
▁authority	0
▁skills	0
▁husband	0
▁extra	0
▁modern	0
▁hearing	0
▁consumer	0
▁charged	0
▁rock	0
▁finished	0
▁ms	0
▁dollars	0
▁politics	0
▁reduce	0
▁indian	0
▁threat	0
▁effective	0
▁please	0
▁eventually	0
▁exchange	0
▁citizens	0
▁sources	0
▁hundreds	0
▁usually	0
▁speaking	0
▁trial	0
▁fine	0
▁forced	0
▁talks	0
▁calling	0
▁protection	0
▁robert	0
▁bar	0
▁claim	0
▁laws	0
▁piece	0
▁direct	0
▁blood	0
▁develop	0
▁rose	0
▁developed	0
▁researchers	0
▁option	0
▁super	0
▁exactly	0
▁organizations	0
▁appeared	0
▁infrastructure	0
▁beat	0
▁gives	0
▁character	0
▁corporate	0
▁necessary	0
▁african	0
▁environmental	0
▁sea	0
▁described	0
▁trip	0
▁existing	0
▁nature	0
▁coast	0
▁generation	0
▁driver	0
▁criminal	0
▁english	0
▁pre	0
▁comments	0
▁issued	0
▁revealed	0
▁fully	0
▁earth	0
▁avoid	0
▁experts	0
▁mike	0
▁towards	0
▁afternoon	0
▁northern	0
▁studies	0
▁debate	0
▁straight	0
▁kept	0
▁partner	0
▁send	0
▁jones	0
▁directly	0
▁allows	0
▁responsible	0
▁highly	0
▁speech	0
▁hill	0
▁helping	0
▁battle	0
▁attempt	0
▁focused	0
▁mass	0
▁plant	0
▁seeing	0
▁confirmed	0
▁reading	0
▁evening	0
▁creating	0
▁application	0
▁caused	0
▁gun	0
▁partners	0
▁activity	0
▁selling	0
▁estate	0
▁appears	0
▁owners	0
▁basis	0
▁grand	0
▁shared	0
▁subject	0
▁mid	0
▁solution	0
▁planned	0
▁unique	0
▁spokesman	0
▁agencies	0
▁picture	0
▁appear	0
▁jan	0
▁enjoy	0
▁active	0
▁image	0
▁user	0
▁sun	0
▁seeking	0
▁audience	0
▁analysis	0
▁haven	0
▁supply	0
▁prison	0
▁larger	0
▁injury	0
▁core	0
▁items	0
▁rule	0
▁individuals	0
▁complex	0
▁physical	0
▁lines	0
▁reasons	0
▁damage	0
▁standards	0
▁table	0
▁labor	0
▁scheduled	0
▁approved	0
▁camera	0
▁japan	0
▁interesting	0
▁applications	0
▁powerful	0
▁sites	0
▁wait	0
▁girls	0
▁clearly	0
▁difference	0
▁associated	0
▁decade	0
▁prior	0
▁finance	0
▁stars	0
▁progress	0
▁score	0
▁guy	0
▁christmas	0
▁drop	0
▁completely	0
▁solutions	0
▁weapons	0
▁williams	0
▁status	0
▁owned	0
▁require	0
▁accused	0
▁filed	0
▁vehicles	0
▁millions	0
▁challenges	0
▁song	0
▁sort	0
▁h	0
▁speak	0
▁equipment	0
▁advantage	0
▁survey	0
▁knowledge	0
▁heavy	0
▁taxes	0
▁measures	0
▁winter	0
▁massive	0
▁operation	0
▁martin	0
▁flight	0
▁knows	0
▁clean	0
▁eye	0
▁section	0
▁boston	0
▁holding	0
▁putting	0
▁freedom	0
▁claimed	0
▁fighting	0
▁bottom	0
▁prevent	0
▁album	0
▁ministry	0
▁interested	0
▁returned	0
▁mostly	0
▁choose	0
▁la	0
▁baby	0
▁domestic	0
▁becoming	0
▁ideas	0
▁un	0
▁produced	0
▁fox	0
▁profit	0
▁brother	0
▁scale	0
▁hopes	0
▁code	0
▁plays	0
▁nice	0
▁legislation	0
▁keeping	0
▁display	0
▁museum	0
▁smart	0
▁fresh	0
▁enforcement	0
▁camp	0
▁awards	0
▁push	0
▁trading	0
▁showing	0
▁airport	0
▁believes	0
▁guard	0
▁purchase	0
▁learned	0
▁asking	0
▁thomas	0
▁author	0
▁developing	0
▁tough	0
▁produce	0
▁paying	0
▁uses	0
▁tournament	0
▁completed	0
▁easily	0
▁aid	0
▁rich	0
▁fifth	0
▁older	0
▁fear	0
▁assistant	0
▁youth	0
▁variety	0
▁request	0
▁spoke	0
▁christian	0
▁stores	0
▁nov	0
▁coverage	0
▁documents	0
▁finding	0
▁facing	0
▁seat	0
▁concerned	0
▁teacher	0
▁arts	0
▁favorite	0
▁concern	0
▁tom	0
▁palestinian	0
▁ran	0
▁immigration	0
▁increasing	0
▁facility	0
▁championship	0
▁founder	0
▁lose	0
▁shop	0
▁basic	0
▁write	0
▁girl	0
▁cold	0
▁established	0
▁decisions	0
▁dog	0
▁fuel	0
▁missing	0
▁lee	0
▁whom	0
▁measure	0
▁healthy	0
▁carry	0
▁whatever	0
▁v	0
▁proposal	0
▁beautiful	0
▁earnings	0
▁actions	0
▁boy	0
▁collection	0
▁dropped	0
▁photos	0
▁holiday	0
▁tools	0
▁accounts	0
▁reform	0
▁dollar	0
▁communications	0
▁village	0
▁drugs	0
▁miss	0
▁views	0
▁oct	0
▁setting	0
▁rs	0
▁religious	0
▁committed	0
▁campus	0
▁caught	0
▁heat	0
▁plenty	0
▁yourself	0
▁elected	0
▁retail	0
▁dark	0
▁session	0
▁dec	0
▁seemed	0
▁conservative	0
▁figures	0
▁managed	0
▁winner	0
▁estimated	0
▁cast	0
▁joe	0
▁shown	0
▁placed	0
▁watching	0
▁tickets	0
▁fellow	0
▁separate	0
▁supreme	0
▁victims	0
▁changing	0
▁waiting	0
▁storage	0
▁effects	0
▁guys	0
▁capacity	0
▁smaller	0
▁feb	0
▁illegal	0
▁names	0
▁cuts	0
▁feeling	0
▁update	0
▁deputy	0
▁losing	0
▁understanding	0
▁quick	0
▁era	0
▁crowd	0
▁believed	0
▁serving	0
▁allowing	0
▁balance	0
▁discuss	0
▁bringing	0
▁jewish	0
▁sept	0
▁material	0
▁worst	0
▁ten	0
▁train	0
▁joint	0
▁mail	0
▁earned	0
▁thank	0
▁fit	0
▁standing	0
▁eastern	0
▁apps	0
▁brain	0
▁rising	0
▁nfl	0
▁relations	0
▁clients	0
▁pair	0
▁meant	0
▁q	0
▁helps	0
▁peter	0
▁mental	0
▁indeed	0
▁onto	0
▁entertainment	0
▁yard	0
▁twice	0
▁steps	0
▁arrived	0
▁touch	0
▁virginia	0
▁german	0
▁corner	0
▁scientists	0
▁agree	0
▁channel	0
▁carolina	0
▁explained	0
▁affected	0
▁buying	0
▁downtown	0
▁respect	0
▁conflict	0
▁responsibility	0
▁happens	0
▁condition	0
▁bowl	0
▁boys	0
▁influence	0
▁missed	0
▁parliament	0
▁murder	0
▁weight	0
▁starts	0
▁deliver	0
▁facilities	0
▁affairs	0
▁identified	0
▁library	0
▁injured	0
▁machine	0
▁stuff	0
▁eyes	0
▁sides	0
▁worse	0
▁presence	0
▁assets	0
▁units	0
▁presented	0
▁transportation	0
▁jackson	0
▁secure	0
▁spread	0
▁strike	0
▁technologies	0
▁female	0
▁images	0
▁native	0
▁streets	0
▁file	0
▁draft	0
▁easier	0
▁parking	0
▁willing	0
▁bridge	0
▁testing	0
▁welcome	0
▁loan	0
▁stadium	0
▁edge	0
▁gain	0
▁giant	0
▁initial	0
▁advanced	0
▁largely	0
▁increasingly	0
▁truth	0
▁confidence	0
▁fish	0
▁fiscal	0
▁grant	0
▁finish	0
▁vision	0
▁apply	0
▁normal	0
▁connection	0
▁networks	0
▁panel	0
▁ultimately	0
▁lived	0
▁journal	0
▁considering	0
▁fan	0
▁kitchen	0
▁saudi	0
▁covered	0
▁supporters	0
▁bought	0
▁injuries	0
▁ii	0
▁android	0
▁et	0
▁avenue	0
▁thus	0
▁interests	0
▁expensive	0
▁votes	0
▁ad	0
▁notes	0
▁storm	0
▁drivers	0
▁secret	0
▁ongoing	0
▁pain	0
▁stopped	0
▁visitors	0
▁adults	0
▁grew	0
▁suggested	0
▁slow	0
▁films	0
▁jr	0
▁sen	0
▁master	0
▁generally	0
▁resolution	0
▁bigger	0
▁color	0
▁ban	0
▁requires	0
▁none	0
▁dangerous	0
▁technical	0
▁supported	0
▁creative	0
▁killing	0
▁prepared	0
▁junior	0
▁sharing	0
▁artist	0
▁aware	0
▁alleged	0
▁agent	0
▁farm	0
▁signs	0
▁opinion	0
▁direction	0
▁basketball	0
▁voted	0
▁academy	0
▁artists	0
▁electric	0
▁islamic	0
▁introduced	0
▁combined	0
▁nor	0
▁engineering	0
▁gov	0
▁failure	0
▁seconds	0
▁reporting	0
▁industrial	0
▁partnership	0
▁definitely	0
▁remaining	0
▁appeal	0
▁zone	0
▁turkey	0
▁route	0
▁actor	0
▁models	0
▁pop	0
▁port	0
▁canadian	0
▁garden	0
▁soldiers	0
▁armed	0
▁doctors	0
▁discussion	0
▁path	0
▁fashion	0
▁governments	0
▁classic	0
▁neighborhood	0
▁hits	0
▁myself	0
▁employee	0
▁muslim	0
▁walking	0
▁doctor	0
▁declined	0
▁loved	0
▁enter	0
▁reportedly	0
▁seek	0
▁cultural	0
▁apparently	0
▁regarding	0
▁bus	0
▁mountain	0
▁lots	0
▁initiative	0
▁positions	0
▁troops	0
▁fired	0
▁stocks	0
▁buildings	0
▁doubt	0
▁unless	0
▁voting	0
▁surprise	0
▁truly	0
▁announcement	0
▁eat	0
▁wind	0
▁click	0
▁memory	0
▁statements	0
▁episode	0
▁cool	0
▁editor	0
▁driven	0
▁alternative	0
▁famous	0
▁task	0
▁decide	0
▁internal	0
▁carried	0
▁index	0
▁shopping	0
▁cards	0
▁patient	0
▁writer	0
▁faith	0
▁plants	0
▁sitting	0
▁talent	0
▁friendly	0
▁ruling	0
▁suffered	0
▁mary	0
▁analysts	0
▁rep	0
▁extremely	0
▁reporters	0
▁surface	0
▁animals	0
▁colorado	0
▁characters	0
▁upcoming	0
▁assistance	0
▁institutions	0
▁strategic	0
▁supporting	0
▁william	0
▁broke	0
▁otherwise	0
▁meaning	0
▁therefore	0
▁crash	0
▁entry	0
▁commitment	0
▁link	0
▁paris	0
▁bid	0
▁sister	0
▁ireland	0
▁lawmakers	0
▁animal	0
▁songs	0
▁closer	0
▁dream	0
▁sport	0
▁filled	0
▁advice	0
▁purpose	0
▁faces	0
▁sit	0
▁jim	0
▁aircraft	0
▁assembly	0
▁practices	0
▁australian	0
▁determine	0
▁van	0
▁studio	0
▁feels	0
▁discovered	0
▁maintain	0
▁coalition	0
▁amazing	0
▁factors	0
▁obviously	0
▁glass	0
▁solar	0
▁premier	0
▁urban	0
▁retirement	0
▁movies	0
▁approval	0
▁delivery	0
▁royal	0
▁conducted	0
▁negative	0
▁attend	0
▁conversation	0
▁cell	0
▁struck	0
▁tells	0
▁advertising	0
▁text	0
▁solid	0
▁dance	0
▁jack	0
▁ride	0
▁experienced	0
▁labour	0
▁transfer	0
▁shots	0
▁defensive	0
▁pulled	0
▁fees	0
▁draw	0
▁faced	0
▁perform	0
▁magazine	0
▁telling	0
▁democracy	0
▁coffee	0
▁remained	0
▁jersey	0
▁actual	0
▁becomes	0
▁schedule	0
▁exercise	0
▁enterprise	0
▁historic	0
▁seasons	0
▁improved	0
▁meetings	0
▁seats	0
▁recovery	0
▁newspaper	0
▁singer	0
▁respond	0
▁aug	0
▁victim	0
▁farmers	0
▁wine	0
▁snow	0
▁andrew	0
▁percentage	0
▁abuse	0
▁materials	0
▁marijuana	0
▁strength	0
▁tests	0
▁expressed	0
▁slightly	0
▁connected	0
▁typically	0
▁turning	0
▁types	0
▁deals	0
▁tree	0
▁golf	0
▁stated	0
▁shift	0
▁competitive	0
▁wild	0
▁teaching	0
▁expand	0
▁offensive	0
▁advance	0
▁requirements	0
▁boost	0
▁structure	0
▁picked	0
▁dinner	0
▁bond	0
▁miller	0
▁mix	0
▁payments	0
▁taylor	0
▁tonight	0
▁recorded	0
▁innovation	0
▁pool	0
▁guilty	0
▁catch	0
▁veterans	0
▁miami	0
▁identify	0
▁accept	0
▁firms	0
▁limit	0
▁arab	0
▁memorial	0
▁achieve	0
▁manage	0
▁pacific	0
▁debut	0
▁wish	0
▁worldwide	0
▁golden	0
▁relatively	0
▁returns	0
▁notice	0
▁potentially	0
▁concept	0
▁happening	0
▁engine	0
▁senator	0
▁graduate	0
▁remove	0
▁nearby	0
▁window	0
▁originally	0
▁minimum	0
▁profile	0
▁risks	0
▁lawyer	0
▁jail	0
▁waste	0
▁politicians	0
▁hoping	0
▁brings	0
▁inspired	0
▁grade	0
▁pc	0
▁bills	0
▁determined	0
▁employment	0
▁inch	0
▁sounds	0
▁count	0
▁kick	0
▁arrest	0
▁baseball	0
▁raising	0
▁backed	0
▁classes	0
▁blog	0
▁factor	0
▁trend	0
▁summit	0
▁suggests	0
▁denied	0
▁suspect	0
▁neither	0
▁programme	0
▁ordered	0
▁values	0
▁japanese	0
▁scoring	0
▁expansion	0
▁poll	0
▁delivered	0
▁rain	0
▁warned	0
▁matters	0
▁highway	0
▁familiar	0
▁ford	0
▁imagine	0
▁broken	0
▁locations	0
▁listed	0
▁payment	0
▁tool	0
▁speaker	0
▁conduct	0
▁healthcare	0
▁replace	0
▁attended	0
▁pieces	0
▁reserve	0
▁managing	0
▁truck	0
▁founded	0
▁representatives	0
▁leads	0
▁goods	0
▁breaking	0
▁excited	0
▁multi	0
▁warning	0
▁ben	0
▁wood	0
▁investments	0
▁cnn	0
▁manufacturing	0
▁wearing	0
▁excellent	0
▁hair	0
▁approximately	0
▁honor	0
▁married	0
▁agents	0
▁arms	0
▁resident	0
▁suggest	0
▁academic	0
▁kill	0
▁regime	0
▁hollywood	0
▁directed	0
▁specifically	0
▁rare	0
▁younger	0
▁instance	0
▁numerous	0
▁jordan	0
▁trees	0
▁chain	0
▁supposed	0
▁medicine	0
▁developers	0
▁wing	0
▁receiving	0
▁decline	0
▁turns	0
▁removed	0
▁acting	0
▁grown	0
▁cable	0
▁updated	0
▁proud	0
▁admitted	0
▁restaurants	0
▁responded	0
▁expectations	0
▁loans	0
▁behavior	0
▁matt	0
▁regulations	0
▁commerce	0
▁sheriff	0
▁entered	0
▁pictures	0
▁background	0
▁veteran	0
▁cutting	0
▁participants	0
▁possibly	0
▁wins	0
▁passing	0
▁protest	0
▁everybody	0
▁trouble	0
▁champion	0
▁affordable	0
▁alongside	0
▁dedicated	0
▁identity	0
▁pull	0
▁reduced	0
▁lawsuit	0
▁absolutely	0
▁sought	0
▁gop	0
▁chair	0
▁crew	0
▁affect	0
▁initially	0
▁journey	0
▁appearance	0
▁analyst	0
▁experiences	0
▁cook	0
▁explain	0
▁houses	0
▁communication	0
▁fill	0
▁fee	0
▁possibility	0
▁pointed	0
▁liberal	0
▁charles	0
▁duty	0
▁leaves	0
▁jump	0
▁seriously	0
▁wonder	0
▁continuing	0
▁brands	0
▁holds	0
▁centers	0
▁lane	0
▁guests	0
▁privacy	0
▁fort	0
▁syrian	0
▁retired	0
▁greatest	0
▁silver	0
▁treated	0
▁oh	0
▁rural	0
▁prove	0
▁fed	0
▁quarterback	0
▁captain	0
▁immediate	0
▁alliance	0
▁roads	0
▁importance	0
▁unlike	0
▁appropriate	0
▁roughly	0
▁faster	0
▁hurt	0
▁stands	0
▁ceremony	0
▁videos	0
▁promote	0
▁increases	0
▁package	0
▁begins	0
▁terrorist	0
▁phones	0
▁ship	0
▁mentioned	0
▁forest	0
▁except	0
▁flow	0
▁allegedly	0
▁etc	0
▁properties	0
▁usa	0
▁skin	0
▁aside	0
▁el	0
▁significantly	0
▁extended	0
▁mile	0
▁battery	0
▁deaths	0
▁allegations	0
▁ending	0
▁refused	0
▁stone	0
▁irish	0
▁relief	0
▁pace	0
▁commissioner	0
▁ocean	0
▁unfortunately	0
▁assault	0
▁representative	0
▁bob	0
▁express	0
▁unable	0
▁poverty	0
▁carbon	0
▁bbc	0
▁negotiations	0
▁ex	0
▁offices	0
▁ends	0
▁producer	0
▁apart	0
▁herself	0
▁fewer	0
▁guide	0
▁equity	0
▁wars	0
▁prince	0
▁beer	0
▁category	0
▁client	0
▁penalty	0
▁essential	0
▁catholic	0
▁terrorism	0
▁linked	0
▁lady	0
▁talked	0
▁critics	0
▁scheme	0
▁losses	0
▁arm	0
▁entirely	0
▁headed	0
▁sixth	0
▁roll	0
▁santa	0
▁boss	0
▁savings	0
▁dogs	0
▁featured	0
▁intended	0
▁planet	0
▁adds	0
▁personnel	0
▁estimates	0
▁rally	0
▁kelly	0
▁encourage	0
▁registered	0
▁agenda	0
▁handle	0
▁y	0
▁suit	0
▁plane	0
▁tomorrow	0
▁corruption	0
▁impressive	0
▁sleep	0
▁vs	0
▁congressional	0
▁falling	0
▁prize	0
▁declared	0
▁spirit	0
▁corp	0
▁represents	0
▁listen	0
▁sets	0
▁defence	0
▁pounds	0
▁expert	0
▁male	0
▁gift	0
▁fly	0
▁monthly	0
▁corporation	0
▁closing	0
▁brothers	0
▁occurred	0
▁throw	0
▁moves	0
▁volume	0
▁ticket	0
▁document	0
▁ranked	0
▁performed	0
▁messages	0
▁die	0
▁featuring	0
▁province	0
▁gap	0
▁korean	0
▁transport	0
▁struggle	0
▁navy	0
▁selected	0
▁threats	0
▁readers	0
▁joining	0
▁offense	0
▁controlled	0
▁manchester	0
▁cells	0
▁birth	0
▁dozen	0
▁shut	0
▁connect	0
▁sexual	0
▁drama	0
▁heads	0
▁historical	0
▁constitution	0
▁orange	0
▁asian	0
▁accident	0
▁falls	0
▁pushed	0
▁surgery	0
▁represent	0
▁republic	0
▁appointed	0
▁theater	0
▁closely	0
▁returning	0
▁crimes	0
▁sanctions	0
▁doors	0
▁colleagues	0
▁phase	0
▁effectively	0
▁protests	0
▁musical	0
▁ap	0
▁sky	0
▁moments	0
▁rescue	0
▁wake	0
▁reporter	0
▁aimed	0
▁publicly	0
▁zero	0
▁warm	0
▁contest	0
▁impossible	0
▁shape	0
▁apartment	0
▁industries	0
▁distribution	0
▁distance	0
▁eating	0
▁mention	0
▁sees	0
▁performing	0
▁serves	0
▁educational	0
▁providers	0
▁forms	0
▁comfortable	0
▁alcohol	0
▁plastic	0
▁accepted	0
▁fraud	0
▁powers	0
▁tied	0
▁command	0
▁lawyers	0
▁busy	0
▁rooms	0
▁rd	0
▁rating	0
▁orders	0
▁permanent	0
▁widely	0
▁targeted	0
▁democrat	0
▁anniversary	0
▁weekly	0
▁comedy	0
▁defeat	0
▁disaster	0
▁degrees	0
▁steel	0
▁carrying	0
▁thinks	0
▁adult	0
▁concert	0
▁pilot	0
▁obvious	0
▁amid	0
▁counter	0
▁flat	0
▁shortly	0
▁tim	0
▁districts	0
▁stations	0
▁banking	0
▁creation	0
▁contracts	0
▁journalists	0
▁wear	0
▁split	0
▁compete	0
▁newly	0
▁row	0
▁zealand	0
▁bed	0
▁ads	0
▁broad	0
▁drew	0
▁frank	0
▁treat	0
▁moon	0
▁species	0
▁menu	0
▁sweet	0
▁findings	0
▁mortgage	0
▁forget	0
▁suffering	0
▁squad	0
▁surprised	0
▁attempts	0
▁transition	0
▁surrounding	0
▁youtube	0
▁emotional	0
▁stress	0
▁electronic	0
▁disney	0
▁electricity	0
▁guest	0
▁favor	0
▁currency	0
▁discussed	0
▁earn	0
▁suicide	0
▁combination	0
▁assist	0
▁sam	0
▁promise	0
▁license	0
▁perspective	0
▁exciting	0
▁theatre	0
▁pitch	0
▁tend	0
▁cap	0
▁visiting	0
▁participate	0
▁promised	0
▁auto	0
▁minor	0
▁directors	0
▁celebrate	0
▁inflation	0
▁stood	0
▁priority	0
▁involving	0
▁struggling	0
▁worry	0
▁argued	0
▁likes	0
▁awareness	0
▁selection	0
▁parent	0
▁ed	0
▁opposed	0
▁walked	0
▁brexit	0
▁unlikely	0
▁pages	0
▁visited	0
▁vast	0
▁motion	0
▁salt	0
▁operate	0
▁severe	0
▁bureau	0
▁upper	0
▁sat	0
▁passengers	0
▁prepare	0
▁chances	0
▁venture	0
▁hardware	0
▁tony	0
▁flying	0
▁convention	0
▁investigators	0
▁relevant	0
▁coal	0
▁immigrants	0
▁activists	0
▁wealth	0
▁improvement	0
▁scientific	0
▁elements	0
▁wireless	0
▁pushing	0
▁louis	0
▁relationships	0
▁argument	0
▁criticism	0
▁theory	0
▁targets	0
▁map	0
▁invest	0
▁false	0
▁acquisition	0
▁dry	0
▁bear	0
▁emerging	0
▁executives	0
▁drink	0
▁refugees	0
▁sugar	0
▁mrs	0
▁provider	0
▁fix	0
▁officially	0
▁guess	0
▁elsewhere	0
▁virtual	0
▁anywhere	0
▁managers	0
▁fields	0
▁contributed	0
▁instagram	0
▁austin	0
▁professionals	0
▁funeral	0
▁wave	0
▁select	0
▁sessions	0
▁maintenance	0
▁viewers	0
▁bodies	0
▁ties	0
▁trail	0
▁wage	0
▁mom	0
▁territory	0
▁dozens	0
▁italian	0
▁dealing	0
▁combat	0
▁violent	0
▁funded	0
▁scores	0
▁heavily	0
▁edition	0
▁marine	0
▁settlement	0
▁basically	0
▁amendment	0
▁smartphone	0
▁adam	0
▁causing	0
▁portfolio	0
▁hate	0
▁signing	0
▁improving	0
▁http	0
▁volunteers	0
▁wonderful	0
▁sending	0
▁foods	0
▁handed	0
▁expects	0
▁folks	0
▁anderson	0
▁lunch	0
▁watched	0
▁lights	0
▁bright	0
▁hitting	0
▁awarded	0
▁heading	0
▁franchise	0
▁crucial	0
▁gains	0
▁nobody	0
▁parks	0
▁assists	0
▁ages	0
▁causes	0
▁spanish	0
▁ok	0
▁champions	0
▁useful	0
▁ruled	0
▁capable	0
▁supports	0
▁invited	0
▁mixed	0
▁kid	0
▁nick	0
▁harry	0
▁courts	0
▁cabinet	0
▁extreme	0
▁queen	0
▁rice	0
▁applied	0
▁confident	0
▁principal	0
▁ray	0
▁harris	0
▁nbc	0
▁possession	0
▁tiny	0
▁prosecutors	0
▁hosted	0
▁lewis	0
▁independence	0
▁beauty	0
▁cooperation	0
▁cameras	0
▁enjoyed	0
▁interior	0
▁controversial	0
▁wedding	0
▁philadelphia	0
▁anthony	0
▁marriage	0
▁function	0
▁usual	0
▁platforms	0
▁morgan	0
▁profits	0
▁acts	0
▁afford	0
▁dan	0
▁informed	0
▁jesus	0
▁tight	0
▁polls	0
▁headquarters	0
▁ill	0
▁essentially	0
▁forum	0
▁worried	0
▁expenses	0
▁reaching	0
▁boat	0
▁correct	0
▁replaced	0
▁regardless	0
▁proper	0
▁minority	0
▁charity	0
▁ave	0
▁hospitals	0
▁knowing	0
▁equal	0
▁formed	0
▁register	0
▁abc	0
▁engaged	0
▁metal	0
▁chemical	0
▁switch	0
▁tea	0
▁granted	0
▁hole	0
▁sustainable	0
▁actress	0
▁roles	0
▁chicken	0
▁limits	0
▁allen	0
▁assessment	0
▁explains	0
▁recognition	0
▁hired	0
▁fixed	0
▁bedroom	0
▁theme	0
▁branch	0
▁deficit	0
▁novel	0
▁realize	0
▁cycle	0
▁facts	0
▁efficient	0
▁agriculture	0
▁comprehensive	0
▁circumstances	0
▁nato	0
▁broadcast	0
▁context	0
▁gained	0
▁moore	0
▁nasa	0
▁resort	0
▁print	0
▁tie	0
▁consequences	0
▁premium	0
▁urged	0
▁challenging	0
▁alive	0
▁olympic	0
▁spain	0
▁regularly	0
▁outstanding	0
▁monitoring	0
▁collaboration	0
▁cbs	0
▁demands	0
▁emissions	0
▁server	0
▁dad	0
▁allies	0
▁worker	0
▁capabilities	0
▁cents	0
▁opponents	0
▁files	0
▁rejected	0
▁saving	0
▁monitor	0
▁legacy	0
▁nd	0
▁ring	0
▁medium	0
▁clinical	0
▁unemployment	0
▁hurricane	0
▁bag	0
▁regulatory	0
▁desire	0
▁establish	0
▁wisconsin	0
▁inches	0
▁stick	0
▁primarily	0
▁leg	0
▁rival	0
▁deadline	0
▁reaction	0
▁putin	0
▁detailed	0
▁explore	0
▁exist	0
▁passes	0
▁tackle	0
▁meat	0
▁residential	0
▁complaint	0
▁forecast	0
▁threatened	0
▁saved	0
▁sentence	0
▁jury	0
▁feed	0
▁revolution	0
▁brief	0
▁religion	0
▁faculty	0
▁ourselves	0
▁bell	0
▁purchased	0
▁singapore	0
▁chosen	0
▁asset	0
▁follows	0
▁puts	0
▁tested	0
▁stronger	0
▁blame	0
▁supplies	0
▁delhi	0
▁gulf	0
▁button	0
▁luxury	0
▁tourism	0
▁winners	0
▁intel	0
▁behalf	0
▁engagement	0
▁portion	0
▁soft	0
▁entering	0
▁legislative	0
▁keeps	0
▁humans	0
▁depending	0
▁proved	0
▁seventh	0
▁brazil	0
▁recognized	0
▁buyers	0
▁updates	0
▁audio	0
▁heritage	0
▁maximum	0
▁jews	0
▁iranian	0
▁bike	0
▁reducing	0
▁writes	0
▁deeply	0
▁valuable	0
▁rent	0
▁scenes	0
▁organized	0
▁producers	0
▁vegas	0
▁protesters	0
▁revenues	0
▁represented	0
▁rebounds	0
▁links	0
▁matches	0
▁streaming	0
▁remote	0
▁dining	0
▁letters	0
▁mine	0
▁walker	0
▁lab	0
▁arena	0
▁recognize	0
▁ltd	0
▁thoughts	0
▁lord	0
▁extension	0
▁gb	0
▁airlines	0
▁choices	0
▁trained	0
▁chamber	0
▁aim	0
▁judges	0
▁chelsea	0
▁temporary	0
▁nba	0
▁drawn	0
▁engage	0
▁acquired	0
▁innings	0
▁cited	0
▁statistics	0
▁taste	0
▁coaches	0
▁hiring	0
▁globe	0
▁gaming	0
▁necessarily	0
▁palestinians	0
▁totally	0
▁birthday	0
▁resource	0
▁innovative	0
▁computers	0
▁marks	0
▁discovery	0
▁athletes	0
▁sharp	0
▁harder	0
▁scotland	0
▁respectively	0
▁adopted	0
▁giants	0
▁reflect	0
▁taught	0
▁repeatedly	0
▁sanders	0
▁atlantic	0
▁finds	0
▁danger	0
▁teach	0
▁quiet	0
▁actors	0
▁expanded	0
▁stolen	0
▁peak	0
▁attempted	0
▁temperatures	0
▁chose	0
▁associate	0
▁universal	0
▁proposals	0
▁terror	0
▁enable	0
▁submitted	0
▁drinking	0
▁reduction	0
▁celebration	0
▁developer	0
▁muslims	0
▁strategies	0
▁stretch	0
▁vulnerable	0
▁salary	0
▁organisation	0
▁employers	0
▁detail	0
▁consistent	0
▁outcome	0
▁walls	0
▁legislature	0
▁spokeswoman	0
▁pennsylvania	0
▁reputation	0
▁collected	0
▁producing	0
▁galaxy	0
▁recommended	0
▁oregon	0
▁machines	0
▁soccer	0
▁length	0
▁incredible	0
▁securities	0
▁complaints	0
▁elementary	0
▁vital	0
▁gender	0
▁performances	0
▁sri	0
▁owns	0
▁mode	0
▁exclusive	0
▁fake	0
▁henry	0
▁expanding	0
▁ballot	0
▁investor	0
▁suspended	0
▁installed	0
▁singh	0
▁argue	0
▁discussions	0
▁registration	0
▁encouraged	0
▁contributions	0
▁overseas	0
▁yellow	0
▁contrast	0
▁answers	0
▁frequently	0
▁donations	0
▁cleveland	0
▁lies	0
▁mp	0
▁differences	0
▁sponsored	0
▁typical	0
▁spokesperson	0
▁regulation	0
▁latter	0
▁bomb	0
▁universities	0
▁courses	0
▁guns	0
▁eligible	0
▁trends	0
▁diverse	0
▁breakfast	0
▁margin	0
▁acres	0
▁hills	0
▁manner	0
▁protected	0
▁outdoor	0
▁processes	0
▁fat	0
▁depth	0
▁kingdom	0
▁chapter	0
▁stake	0
▁improvements	0
▁gallery	0
▁posts	0
▁flag	0
▁lowest	0
▁bears	0
▁rail	0
▁extend	0
▁maker	0
▁capture	0
▁gathered	0
▁landscape	0
▁mainly	0
▁rush	0
▁counsel	0
▁formal	0
▁tracks	0
▁magic	0
▁emerged	0
▁initiatives	0
▁download	0
▁somewhat	0
▁personally	0
▁integrated	0
▁fishing	0
▁creek	0
▁resistance	0
▁claiming	0
▁controls	0
▁iraqi	0
▁successfully	0
▁preparing	0
▁tradition	0
▁pack	0
▁failing	0
▁extensive	0
▁consecutive	0
▁suddenly	0
▁reference	0
▁investing	0
▁regions	0
▁delay	0
▁amounts	0
▁guidance	0
▁properly	0
▁kinds	0
▁requests	0
▁methods	0
▁dramatic	0
▁method	0
▁uae	0
▁exposure	0
▁soviet	0
▁crore	0
▁compensation	0
▁diversity	0
▁tips	0
▁ct	0
▁fairly	0
▁journalist	0
▁contribute	0
▁tennessee	0
▁writers	0
▁cheap	0
▁fallen	0
▁investigating	0
▁tower	0
▁generate	0
▁gross	0
▁fail	0
▁aged	0
▁campaigns	0
▁temperature	0
▁hire	0
▁hopefully	0
▁crazy	0
▁aggressive	0
▁laid	0
▁resulted	0
▁counties	0
▁jerusalem	0
▁processing	0
▁woods	0
▁anyway	0
▁freshman	0
▁marked	0
▁efficiency	0
▁clubs	0
▁recording	0
▁fi	0
▁mistake	0
▁touchdown	0
▁ownership	0
▁iron	0
▁unusual	0
▁exposed	0
▁nasdaq	0
▁captured	0
▁copy	0
▁concluded	0
▁footage	0
▁universe	0
▁wildlife	0
▁atmosphere	0
▁titles	0
▁metro	0
▁mining	0
▁dress	0
▁implementation	0
▁ambassador	0
▁charter	0
▁hunt	0
▁interviews	0
▁gotten	0
▁shoot	0
▁drove	0
▁va	0
▁nationwide	0
▁inning	0
▁presentation	0
▁topic	0
▁abroad	0
▁cyber	0
▁mac	0
▁waters	0
▁milk	0
▁soil	0
▁volunteer	0
▁reveal	0
▁segment	0
▁roof	0
▁stream	0
▁citizen	0
▁weak	0
▁ideal	0
▁rolling	0
▁hockey	0
▁ai	0
▁sensitive	0
▁lucky	0
▁recommendations	0
▁extent	0
▁satellite	0
▁restrictions	0
▁surveillance	0
▁flights	0
▁pipeline	0
▁athletic	0
▁reasonable	0
▁stuck	0
▁generated	0
▁josh	0
▁opposite	0
▁rear	0
▁consumption	0
▁symptoms	0
▁hundred	0
▁strongly	0
▁referred	0
▁hosts	0
▁frame	0
▁begun	0
▁proof	0
▁opens	0
▁destroyed	0
▁ratings	0
▁aims	0
▁representing	0
▁dean	0
▁solve	0
▁cream	0
▁yeah	0
▁mount	0
▁constitutional	0
▁hero	0
▁unknown	0
▁nonprofit	0
▁escape	0
▁defend	0
▁welfare	0
▁involvement	0
▁appointment	0
▁foster	0
▁khan	0
▁prominent	0
▁somebody	0
▁eighth	0
▁crown	0
▁harvard	0
▁paint	0
▁achieved	0
▁aspects	0
▁trailer	0
▁fruit	0
▁fantastic	0
▁pound	0
▁fitness	0
▁blocks	0
▁visual	0
▁convicted	0
▁weapon	0
▁indicated	0
▁kentucky	0
▁knee	0
▁bench	0
▁addressed	0
▁chip	0
▁drawing	0
▁gay	0
▁slowly	0
▁advocates	0
▁suspected	0
▁bonds	0
▁civilians	0
▁eagles	0
▁resulting	0
▁chef	0
▁harm	0
▁exit	0
▁recession	0
▁motor	0
▁smoke	0
▁reviews	0
▁witness	0
▁threatening	0
▁passion	0
▁blocked	0
▁replacement	0
▁factory	0
▁besides	0
▁manufacturers	0
▁cheese	0
▁covers	0
▁survived	0
▁promises	0
▁retailers	0
▁incidents	0
▁utility	0
▁makers	0
▁meal	0
▁calif	0
▁fears	0
▁suite	0
▁engineers	0
▁noticed	0
▁fought	0
▁signal	0
▁realized	0
▁strikes	0
▁flash	0
▁reforms	0
▁counts	0
▁passenger	0
▁participation	0
▁attacked	0
▁empty	0
▁mexican	0
▁horse	0
▁honest	0
▁treasury	0
▁spaces	0
▁missile	0
▁max	0
▁homeless	0
▁elite	0
▁articles	0
▁islands	0
▁sick	0
▁spots	0
▁sad	0
▁listening	0
▁neighbors	0
▁turkish	0
▁lets	0
▁dave	0
▁estimate	0
▁rapidly	0
▁unclear	0
▁kong	0
▁shall	0
▁somewhere	0
▁threw	0
▁defined	0
▁dispute	0
▁palm	0
▁custody	0
▁gray	0
▁tablet	0
▁ups	0
▁powered	0
▁seed	0
▁covering	0
▁therapy	0
▁arrive	0
▁terrorists	0
▁rely	0
▁winds	0
▁ross	0
▁depression	0
▁constant	0
▁mini	0
▁cooking	0
▁arsenal	0
▁obtained	0
▁substantial	0
▁collect	0
▁fame	0
▁nyse	0
▁ios	0
▁plate	0
▁pricing	0
▁connections	0
▁institution	0
▁contains	0
▁outlook	0
▁contain	0
▁surprising	0
▁focusing	0
▁trillion	0
▁jay	0
▁dates	0
▁everywhere	0
▁illness	0
▁stayed	0
▁forever	0
▁childhood	0
▁channels	0
▁implement	0
▁investigations	0
▁shelter	0
▁craft	0
▁qualified	0
▁euro	0
▁survive	0
▁diet	0
▁chase	0
▁hotels	0
▁departments	0
▁hong	0
▁architecture	0
▁staying	0
▁financing	0
▁error	0
▁ministers	0
▁pursue	0
▁playoff	0
▁establishment	0
▁accurate	0
▁documentary	0
▁versus	0
▁tracking	0
▁funny	0
▁administrative	0
▁km	0
▁stable	0
▁holy	0
▁prevention	0
▁literally	0
▁constantly	0
▁secondary	0
▁complicated	0
▁designer	0
▁handling	0
▁gathering	0
▁ultimate	0
▁clothing	0
▁prospect	0
▁household	0
▁repair	0
▁citing	0
▁warren	0
▁theft	0
▁startup	0
▁clock	0
▁vendors	0
▁compliance	0
▁pleased	0
▁circle	0
▁momentum	0
▁moral	0
▁normally	0
▁noting	0
▁acknowledged	0
▁cooper	0
▁proven	0
▁integration	0
▁versions	0
▁civilian	0
▁commander	0
▁traveling	0
▁angry	0
▁competing	0
▁graham	0
▁grounds	0
▁shops	0
▁database	0
▁pet	0
▁progressive	0
▁racing	0
▁transit	0
▁appreciate	0
▁airline	0
▁lessons	0
▁programming	0
▁situations	0
▁exhibition	0
▁feedback	0
▁fighters	0
▁membership	0
▁relative	0
▁bird	0
▁papers	0
▁flood	0
▁semi	0
▁tweeted	0
▁longtime	0
▁external	0
▁filing	0
▁principles	0
▁attract	0
▁scandal	0
▁ranging	0
▁rapid	0
▁jonathan	0
▁collective	0
▁races	0
▁remarks	0
▁shareholders	0
▁ranks	0
▁tap	0
▁attending	0
▁occur	0
▁noon	0
▁emails	0
▁broader	0
▁romney	0
▁struggled	0
▁mt	0
▁accounting	0
▁overnight	0
▁nomination	0
▁unions	0
▁defeated	0
▁finals	0
▁marvel	0
▁purposes	0
▁damaged	0
▁admission	0
▁simon	0
▁promoting	0
▁equally	0
▁adviser	0
▁stability	0
▁automatically	0
▁ward	0
▁workforce	0
▁dc	0
▁dialogue	0
▁garage	0
▁beating	0
▁rivals	0
▁cat	0
▁wells	0
▁jets	0
▁jumped	0
▁hosting	0
▁procedures	0
▁stepped	0
▁expertise	0
▁belief	0
▁senators	0
▁concrete	0
▁corps	0
▁custom	0
▁comic	0
▁voter	0
▁describe	0
▁hoped	0
▁cannabis	0
▁nelson	0
▁examples	0
▁recall	0
▁tweet	0
▁targeting	0
▁raw	0
▁contemporary	0
▁oscar	0
▁joy	0
▁prefer	0
▁soul	0
▁handful	0
▁conversations	0
▁abortion	0
▁sorry	0
▁hardly	0
▁widespread	0
▁organic	0
▁fundamental	0
▁equivalent	0
▁hidden	0
▁blow	0
▁ancient	0
▁lift	0
▁murray	0
▁mainstream	0
▁sentenced	0
▁shoulder	0
▁intense	0
▁classroom	0
▁latin	0
▁persons	0
▁understood	0
▁comparison	0
▁jazz	0
▁manhattan	0
▁economics	0
▁rick	0
▁maintained	0
▁referring	0
▁label	0
▁bin	0
▁investigate	0
▁humanitarian	0
▁racial	0
▁computing	0
▁lincoln	0
▁flowers	0
▁ease	0
▁authors	0
▁pension	0
▁wages	0
▁grace	0
▁upgrade	0
▁creates	0
▁engineer	0
▁specialist	0
▁conservation	0
▁comfort	0
▁coaching	0
▁gdp	0
▁visits	0
▁annually	0
▁tank	0
▁announce	0
▁luck	0
▁delivering	0
▁noise	0
▁strange	0
▁roots	0
▁encouraging	0
▁triple	0
▁lay	0
▁hat	0
▁thousand	0
▁somehow	0
▁celebrated	0
▁regard	0
▁medicare	0
▁packed	0
▁birds	0
▁bars	0
▁guidelines	0
▁solo	0
▁warming	0
▁arrival	0
▁pride	0
▁advisory	0
▁landing	0
▁developments	0
▁deadly	0
▁competitors	0
▁plot	0
▁shoes	0
▁mph	0
▁protecting	0
▁twenty	0
▁upset	0
▁virtually	0
▁crude	0
▁drives	0
▁sectors	0
▁promotion	0
▁bags	0
▁violations	0
▁shock	0
▁bet	0
▁wounded	0
▁springs	0
▁gear	0
▁checks	0
▁grants	0
▁expense	0
▁contribution	0
▁speakers	0
▁column	0
▁requested	0
▁rocket	0
▁techniques	0
▁pattern	0
▁wheel	0
▁banned	0
▁sophomore	0
▁demanding	0
▁referendum	0
▁gordon	0
▁sciences	0
▁categories	0
▁employed	0
▁chocolate	0
▁circuit	0
▁pollution	0
▁carefully	0
▁operational	0
▁hip	0
▁traded	0
▁residence	0
▁coordinator	0
▁apparent	0
▁lineup	0
▁item	0
▁participating	0
▁suspects	0
▁operators	0
▁sons	0
▁alert	0
▁rarely	0
▁involves	0
▁pope	0
▁contained	0
▁attractive	0
▁presidency	0
▁burning	0
▁clothes	0
▁activist	0
▁barely	0
▁websites	0
▁borders	0
▁ibm	0
▁towns	0
▁cruise	0
▁diseases	0
▁receiver	0
▁enemy	0
▁assume	0
▁transactions	0
▁chart	0
▁destination	0
▁stewart	0
▁agreements	0
▁robinson	0
▁achievement	0
▁sub	0
▁launching	0
▁signature	0
▁islam	0
▁throwing	0
▁virus	0
▁memories	0
▁tigers	0
▁tip	0
▁baker	0
▁framework	0
▁permission	0
▁lie	0
▁topics	0
▁phoenix	0
▁shirt	0
▁dynamic	0
▁controversy	0
▁tries	0
▁absence	0
▁attached	0
▁evil	0
▁generations	0
▁billions	0
▁practical	0
▁violation	0
▁hell	0
▁anticipated	0
▁yield	0
▁addressing	0
▁incredibly	0
▁jon	0
▁components	0
▁seniors	0
▁wright	0
▁similarly	0
▁collapse	0
▁christ	0
▁conservatives	0
▁guarantee	0
▁patrol	0
▁dominated	0
▁defending	0
▁anybody	0
▁sir	0
▁boards	0
▁intent	0
▁tennis	0
▁merely	0
▁perfectly	0
▁liberty	0
▁collins	0
▁promising	0
▁shipping	0
▁surely	0
▁afraid	0
▁carries	0
▁dual	0
▁taxpayers	0
▁jet	0
▁corporations	0
▁consideration	0
▁conclusion	0
▁dismissed	0
▁gate	0
▁gates	0
▁alexander	0
▁russell	0
▁quarters	0
▁colleges	0
▁trucks	0
▁lifestyle	0
▁highlights	0
▁viewed	0
▁gen	0
▁christopher	0
▁tone	0
▁destruction	0
▁accessible	0
▁murphy	0
▁bound	0
▁organisations	0
▁striking	0
▁ethnic	0
▁strip	0
▁teen	0
▁madison	0
▁parade	0
▁perry	0
▁playoffs	0
▁rob	0
▁empire	0
▁confirm	0
▁implemented	0
▁wider	0
▁tall	0
▁functions	0
▁riding	0
▁pa	0
▁aspect	0
▁invested	0
▁dating	0
▁suffer	0
▁audiences	0
▁spoken	0
▁sec	0
▁speaks	0
▁recommend	0
▁mall	0
▁carrier	0
▁minds	0
▁bunch	0
▁settled	0
▁telephone	0
▁gmt	0
▁stem	0
▁terrible	0
▁charlie	0
▁ranking	0
▁sits	0
▁petition	0
▁predicted	0
▁witnesses	0
▁recalled	0
▁exports	0
▁roster	0
▁lifetime	0
▁rebels	0
▁meets	0
▁breaks	0
▁ensuring	0
▁scenario	0
▁sight	0
▁intervention	0
▁math	0
▁pending	0
▁electoral	0
▁succeed	0
▁definition	0
▁agricultural	0
▁deeper	0
▁pt	0
▁steady	0
▁trips	0
▁stages	0
▁settings	0
▁reader	0
▁exact	0
▁diplomatic	0
▁appeals	0
▁id	0
▁submit	0
▁advocate	0
▁singing	0
▁imposed	0
▁bath	0
▁thrown	0
▁adams	0
▁streak	0
▁discover	0
▁colors	0
▁venue	0
▁mouth	0
▁liked	0
▁yahoo	0
▁firefighters	0
▁spectrum	0
▁anymore	0
▁buffalo	0
▁voices	0
▁nights	0
▁premiere	0
▁enormous	0
▁backing	0
▁presents	0
▁rangers	0
▁questioned	0
▁ratio	0
▁searching	0
▁prosecutor	0
▁auction	0
▁celebrity	0
▁pan	0
▁bn	0
▁existence	0
▁obtain	0
▁studios	0
▁publication	0
▁output	0
▁charging	0
▁prospects	0
▁radical	0
▁aviation	0
▁journalism	0
▁narrative	0
▁maintaining	0
▁format	0
▁insisted	0
▁sheet	0
▁federation	0
▁expecting	0
▁championships	0
▁picking	0
▁gang	0
▁medal	0
▁export	0
▁thin	0
▁greek	0
▁divided	0
▁introduce	0
▁cheaper	0
▁consulting	0
▁attitude	0
▁ingredients	0
▁talented	0
▁automatic	0
▁skill	0
▁tens	0
▁temple	0
▁networking	0
▁ordinary	0
▁desktop	0
▁resolve	0
▁seemingly	0
▁dna	0
▁permit	0
▁enhance	0
▁tesla	0
▁detention	0
▁clinic	0
▁rookie	0
▁highlight	0
▁ninth	0
▁routine	0
▁wi	0
▁meals	0
▁inner	0
▁portland	0
▁asks	0
▁install	0
▁attorneys	0
▁reliable	0
▁transaction	0
▁operates	0
▁dancing	0
▁indicate	0
▁touchdowns	0
▁southwest	0
▁rental	0
▁lists	0
▁dividend	0
▁iconic	0
▁runner	0
▁welcomed	0
▁feelings	0
▁structures	0
▁occupied	0
▁departure	0
▁tasks	0
▁forth	0
▁lebanon	0
▁blues	0
▁artificial	0
▁victoria	0
▁analytics	0
▁consistently	0
▁intellectual	0
▁recovered	0
▁mistakes	0
▁credits	0
▁cia	0
▁loves	0
▁painting	0
▁employer	0
▁moderate	0
▁extraordinary	0
▁pentagon	0
▁prompted	0
▁projected	0
▁pizza	0
▁deployed	0
▁anger	0
▁testimony	0
▁disappointed	0
▁delayed	0
▁transparency	0
▁convinced	0
▁opponent	0
▁lions	0
▁additionally	0
▁toll	0
▁homeland	0
▁operator	0
▁neck	0
▁politically	0
▁unveiled	0
▁nominated	0
▁lighting	0
▁suggesting	0
▁operated	0
▁pot	0
▁requirement	0
▁adoption	0
▁smoking	0
▁shore	0
▁studying	0
▁certified	0
▁afghan	0
▁sized	0
▁z	0
▁landed	0
▁repeated	0
▁episodes	0
▁earning	0
▁whenever	0
▁larry	0
▁patriots	0
▁naturally	0
▁pocket	0
▁dreams	0
▁visible	0
▁campbell	0
▁burden	0
▁municipal	0
▁refugee	0
▁partly	0
▁crews	0
▁duke	0
▁crossing	0
▁breast	0
▁observed	0
▁remarkable	0
▁governance	0
▁inquiry	0
▁involve	0
▁letting	0
▁cambridge	0
▁criticized	0
▁pink	0
▁designs	0
▁gardens	0
▁monetary	0
▁mutual	0
▁priced	0
▁legitimate	0
▁os	0
▁locked	0
▁vacation	0
▁hunter	0
▁sustained	0
▁objects	0
▁meaningful	0
▁odds	0
▁everyday	0
▁grandchildren	0
▁rounds	0
▁personality	0
▁minus	0
▁appearances	0
▁distributed	0
▁consultant	0
▁conspiracy	0
▁peaceful	0
▁stressed	0
▁interactive	0
▁franklin	0
▁attempting	0
▁interim	0
▁defender	0
▁mississippi	0
▁est	0
▁douglas	0
▁commit	0
▁provision	0
▁northwest	0
▁nominee	0
▁approached	0
▁swimming	0
▁ron	0
▁consensus	0
▁contacted	0
▁tourists	0
▁adjusted	0
▁southeast	0
▁tag	0
▁substance	0
▁interface	0
▁acre	0
▁superior	0
▁eggs	0
▁duties	0
▁hub	0
▁describes	0
▁smartphones	0
▁scottish	0
▁township	0
▁palace	0
▁lying	0
▁helpful	0
▁probe	0
▁titled	0
▁sisters	0
▁uncertainty	0
▁publishing	0
▁ships	0
▁calendar	0
▁rolled	0
▁le	0
▁decent	0
▁charlotte	0
▁stunning	0
▁dropping	0
▁keen	0
▁grab	0
▁hearts	0
▁purchases	0
▁outlets	0
▁gm	0
▁eliminate	0
▁laptop	0
▁warrant	0
▁jimmy	0
▁cape	0
▁wales	0
▁drinks	0
▁restore	0
▁patterns	0
▁careful	0
▁fleet	0
▁element	0
▁integrity	0
▁migrants	0
▁unprecedented	0
▁secured	0
▁desk	0
▁wire	0
▁heights	0
▁finishing	0
▁adventure	0
▁trials	0
▁rated	0
▁strengthen	0
▁pleaded	0
▁maps	0
▁lesson	0
▁diabetes	0
▁component	0
▁electronics	0
▁brilliant	0
▁jean	0
▁overcome	0
▁depends	0
▁chips	0
▁popularity	0
▁entrance	0
▁celebrating	0
▁equipped	0
▁belt	0
▁entrepreneurs	0
▁introduction	0
▁embassy	0
▁bail	0
▁soldier	0
▁reviewed	0
▁neighborhoods	0
▁servers	0
▁productivity	0
▁studied	0
▁preferred	0
▁phil	0
▁stops	0
▁boxes	0
▁offerings	0
▁abandoned	0
▁modi	0
▁load	0
▁bonus	0
▁mars	0
▁overtime	0
▁dish	0
▁ca	0
▁focuses	0
▁hybrid	0
▁bread	0
▁jerry	0
▁narrow	0
▁holdings	0
▁advised	0
▁lock	0
▁donated	0
▁parker	0
▁accountability	0
▁repeat	0
▁berlin	0
▁mandate	0
▁demonstrate	0
▁compromise	0
▁actively	0
▁preparation	0
▁sufficient	0
▁transformation	0
▁wise	0
▁browser	0
▁edward	0
▁pregnant	0
▁parliamentary	0
▁posting	0
▁railway	0
▁seeks	0
▁tragedy	0
▁timing	0
▁demonstrated	0
▁legs	0
▁maine	0
▁pat	0
▁kicked	0
▁insight	0
▁priorities	0
▁anxiety	0
▁stanley	0
▁shutdown	0
▁spotted	0
▁mountains	0
▁coastal	0
▁horror	0
▁requiring	0
▁opinions	0
▁arguments	0
▁christians	0
▁broadband	0
▁discrimination	0
▁holidays	0
▁quoted	0
▁object	0
▁del	0
▁expression	0
▁rough	0
▁loving	0
▁hp	0
▁sample	0
▁screening	0
▁deserve	0
▁tribute	0
▁fantasy	0
▁nursing	0
▁compare	0
▁tons	0
▁gifts	0
▁reverse	0
▁speculation	0
▁swing	0
▁occasion	0
▁sauce	0
▁newspapers	0
▁superintendent	0
▁attendance	0
▁graduated	0
▁movements	0
▁twin	0
▁cricket	0
▁engaging	0
▁inspiration	0
▁default	0
▁tremendous	0
▁relatives	0
▁assigned	0
▁string	0
▁cohen	0
▁importantly	0
▁script	0
▁workplace	0
▁outcomes	0
▁enterprises	0
▁experiment	0
▁frequent	0
▁beef	0
▁oversight	0
▁conventional	0
▁prisoners	0
▁qualify	0
▁mps	0
▁root	0
▁combine	0
▁egg	0
▁pulling	0
▁recover	0
▁installation	0
▁judicial	0
▁holes	0
▁treaty	0
▁sox	0
▁regulators	0
▁hd	0
▁mm	0
▁hanging	0
▁smooth	0
▁exception	0
▁asylum	0
▁audit	0
▁fastest	0
▁firing	0
▁flooding	0
▁hang	0
▁ceiling	0
▁spin	0
▁settle	0
▁cleared	0
▁humanity	0
▁bathroom	0
▁drone	0
▁forcing	0
▁formerly	0
▁farms	0
▁cuba	0
▁kyle	0
▁survival	0
▁ft	0
▁exists	0
▁bottle	0
▁admit	0
▁moreover	0
▁reveals	0
▁breach	0
▁renewable	0
▁provisions	0
▁furniture	0
▁sr	0
▁chat	0
▁desert	0
▁rbi	0
▁bishop	0
▁robust	0
▁kings	0
▁challenged	0
▁preserve	0
▁ted	0
▁opera	0
▁daughters	0
▁walks	0
▁unexpected	0
▁subsequent	0
▁disabled	0
▁reserves	0
▁waves	0
▁blind	0
▁indigenous	0
▁sand	0
▁wanting	0
▁subjects	0
▁demanded	0
▁households	0
▁objective	0
▁communicate	0
▁racist	0
▁exhibit	0
▁periods	0
▁camps	0
▁raises	0
▁legend	0
▁silent	0
▁scientist	0
▁completion	0
▁protein	0
▁assisted	0
▁preliminary	0
▁gather	0
▁formula	0
▁fate	0
▁trains	0
▁ambitious	0
▁pure	0
▁susan	0
▁starring	0
▁warriors	0
▁wealthy	0
▁approaches	0
▁underground	0
▁principle	0
▁availability	0
▁suspension	0
▁choosing	0
▁bankruptcy	0
▁communist	0
▁guardian	0
▁surrounded	0
▁backup	0
▁procedure	0
▁grass	0
▁shell	0
▁vegetables	0
▁explanation	0
▁odd	0
▁duo	0
▁quit	0
▁mystery	0
▁followers	0
▁cleaning	0
▁impressed	0
▁height	0
▁entitled	0
▁array	0
▁fled	0
▁fiction	0
▁beloved	0
▁description	0
▁elderly	0
▁broadway	0
▁terry	0
▁detained	0
▁approve	0
▁viewing	0
▁electrical	0
▁highlighted	0
▁dramatically	0
▁uc	0
▁economies	0
▁delays	0
▁tours	0
▁usb	0
▁responding	0
▁scholarship	0
▁pointing	0
▁embrace	0
▁desperate	0
▁silicon	0
▁prayer	0
▁routes	0
▁headlines	0
▁tensions	0
▁hunting	0
▁ethics	0
▁checking	0
▁input	0
▁silence	0
▁snap	0
▁edwards	0
▁babies	0
▁enjoying	0
▁info	0
▁tribune	0
▁starter	0
▁philosophy	0
▁seized	0
▁musicians	0
▁locally	0
▁provincial	0
▁surge	0
▁ignore	0
▁donors	0
▁maria	0
▁favourite	0
▁ian	0
▁intention	0
▁promoted	0
▁burn	0
▁marketplace	0
▁northeast	0
▁diagnosed	0
▁eve	0
▁designated	0
▁adopt	0
▁smile	0
▁fires	0
▁hop	0
▁reception	0
▁addresses	0
▁blamed	0
▁girlfriend	0
▁calm	0
▁responses	0
▁killer	0
▁trick	0
▁disorder	0
▁dressed	0
▁rushing	0
▁processor	0
▁impacts	0
▁picks	0
▁visa	0
▁judgment	0
▁tariffs	0
▁glad	0
▁bible	0
▁cats	0
▁resume	0
▁lease	0
▁chiefs	0
▁okay	0
▁innocent	0
▁mood	0
▁laboratory	0
▁attacking	0
▁proceeds	0
▁accessed	0
▁tale	0
▁legally	0
▁turner	0
▁destroy	0
▁kerry	0
▁immigrant	0
▁modest	0
▁elect	0
▁bases	0
▁editorial	0
▁pays	0
▁scope	0
▁removal	0
▁teens	0
▁fighter	0
▁keys	0
▁contractors	0
▁ignored	0
▁evolution	0
▁emphasis	0
▁tape	0
▁graphics	0
▁dying	0
▁implications	0
▁arrangements	0
▁discount	0
▁tobacco	0
▁hey	0
▁opener	0
▁loaded	0
▁instant	0
▁announcing	0
▁civic	0
▁tired	0
▁workshop	0
▁leverage	0
▁notion	0
▁rushed	0
▁awesome	0
▁militants	0
▁reflects	0
▁ken	0
▁screens	0
▁survivors	0
▁unity	0
▁harbor	0
▁renewed	0
▁saints	0
▁sudden	0
▁careers	0
▁churches	0
▁loose	0
▁motivated	0
▁dishes	0
▁harassment	0
▁decrease	0
▁swiss	0
▁economist	0
▁manufacturer	0
▁proceedings	0
▁gym	0
▁dust	0
▁tune	0
▁gene	0
▁alaska	0
▁thick	0
▁capability	0
▁spiritual	0
▁oak	0
▁interviewed	0
▁guitar	0
▁longest	0
▁midnight	0
▁en	0
▁releases	0
▁guaranteed	0
▁behaviour	0
▁recipe	0
▁quarterly	0
▁prosecution	0
▁loud	0
▁peers	0
▁trophy	0
▁evaluation	0
▁accompanied	0
▁rivers	0
▁till	0
▁discussing	0
▁boom	0
▁chronic	0
▁topped	0
▁transferred	0
▁participated	0
▁shaped	0
▁badly	0
▁enabled	0
▁bone	0
▁customs	0
▁praised	0
▁costa	0
▁fundraising	0
▁advocacy	0
▁par	0
▁oldest	0
▁flexible	0
▁shadow	0
▁heroes	0
▁answered	0
▁clip	0
▁explosion	0
▁copies	0
▁flexibility	0
▁underlying	0
▁html	0
▁encounter	0
▁meters	0
▁bachelor	0
▁displays	0
▁rank	0
▁nancy	0
▁dutch	0
▁lands	0
▁grocery	0
▁respondents	0
▁arguing	0
▁mess	0
▁striker	0
▁polling	0
▁subscription	0
▁tweets	0
▁indians	0
▁globally	0
▁crystal	0
▁egyptian	0
▁presidents	0
▁surprisingly	0
▁morris	0
▁butter	0
▁literature	0
▁fault	0
▁doubled	0
▁cake	0
▁associates	0
▁bitcoin	0
▁deck	0
▁fatal	0
▁shocked	0
▁insights	0
▁retailer	0
▁grateful	0
▁patent	0
▁layer	0
▁closure	0
▁racism	0
▁photographs	0
▁hampshire	0
▁flu	0
▁listing	0
▁ram	0
▁epa	0
▁handled	0
▁signals	0
▁mothers	0
▁sum	0
▁fortune	0
▁marathon	0
▁retain	0
▁lending	0
▁containing	0
▁migration	0
▁beaten	0
▁carriers	0
▁eager	0
▁compelling	0
▁replacing	0
▁anonymous	0
▁struggles	0
▁fda	0
▁saint	0
▁purchasing	0
▁sudan	0
▁mirror	0
▁physically	0
▁tactics	0
▁indonesia	0
▁swift	0
▁rid	0
▁bold	0
▁penalties	0
▁inventory	0
▁apartments	0
▁resigned	0
▁roger	0
▁donation	0
▁disclosure	0
▁random	0
▁dublin	0
▁pakistani	0
▁bands	0
▁balls	0
▁deny	0
▁brad	0
▁jane	0
▁attracted	0
▁backs	0
▁merger	0
▁passage	0
▁notable	0
▁mere	0
▁missions	0
▁toys	0
▁predict	0
▁nurse	0
▁engines	0
▁casino	0
▁citizenship	0
▁occupation	0
▁crossed	0
▁founding	0
▁sophisticated	0
▁incentives	0
▁panels	0
▁teammates	0
▁melbourne	0
▁tablets	0
▁hide	0
▁barry	0
▁wash	0
▁exploring	0
▁checked	0
▁cole	0
▁reward	0
▁thanksgiving	0
▁productive	0
▁insider	0
▁samples	0
▁traveled	0
▁sporting	0
▁obamacare	0
▁usage	0
▁optimistic	0
▁partnerships	0
▁imports	0
▁helicopter	0
▁tiger	0
▁exploration	0
▁collecting	0
▁devastating	0
▁barrel	0
▁historically	0
▁chancellor	0
▁valued	0
▁bombing	0
▁gonna	0
▁chaos	0
▁buried	0
▁hike	0
▁frozen	0
▁sells	0
▁aging	0
▁painted	0
▁slide	0
▁filling	0
▁wings	0
▁wore	0
▁treatments	0
▁underway	0
▁brick	0
▁concerning	0
▁epic	0
▁administrators	0
▁sing	0
▁overwhelming	0
▁stance	0
▁removing	0
▁singles	0
▁nationally	0
▁chemicals	0
▁excess	0
▁sorts	0
▁wolf	0
▁diamond	0
▁genetic	0
▁ultra	0
▁stroke	0
▁crop	0
▁addiction	0
▁cemetery	0
▁recreation	0
▁plain	0
▁withdrawal	0
▁tenure	0
▁enhanced	0
▁administrator	0
▁ridge	0
▁honored	0
▁greatly	0
▁sections	0
▁ally	0
▁caribbean	0
▁theaters	0
▁planes	0
▁prescription	0
▁buses	0
▁medication	0
▁penn	0
▁wondering	0
▁missiles	0
▁finger	0
▁conducting	0
▁rebel	0
▁rumors	0
▁assess	0
▁keyboard	0
▁bedrooms	0
▁masters	0
▁legendary	0
▁mill	0
▁genuine	0
▁domain	0
▁lobby	0
▁illegally	0
▁corn	0
▁toxic	0
▁praise	0
▁acquire	0
▁differently	0
▁anne	0
▁sandy	0
▁muscle	0
▁liquid	0
▁complained	0
▁tables	0
▁mad	0
▁gaining	0
▁dell	0
▁sparked	0
▁dakota	0
▁researcher	0
▁tears	0
▁measured	0
▁execution	0
▁roy	0
▁grid	0
▁dominant	0
▁depend	0
▁contributing	0
▁startups	0
▁guards	0
▁witnessed	0
▁utilities	0
▁eagle	0
▁closest	0
▁responsibilities	0
▁phillips	0
▁md	0
▁recruiting	0
▁nowhere	0
▁orchestra	0
▁stopping	0
▁pledged	0
▁seeds	0
▁floors	0
▁deemed	0
▁whereas	0
▁foul	0
▁peer	0
▁packages	0
▁ports	0
▁joke	0
▁argues	0
▁newest	0
▁considerable	0
▁fence	0
▁respective	0
▁saves	0
▁contractor	0
▁declaration	0
▁radar	0
▁examine	0
▁jake	0
▁nevertheless	0
▁legislators	0
▁deputies	0
▁steal	0
▁chest	0
▁pose	0
▁determination	0
▁thirds	0
▁castle	0
▁licensed	0
▁absolute	0
▁dawn	0
▁deployment	0
▁convince	0
▁adequate	0
▁buyer	0
▁shed	0
▁knife	0
▁reads	0
▁drought	0
▁curriculum	0
▁explaining	0
▁generous	0
▁subscribers	0
▁lt	0
▁burned	0
▁barriers	0
▁trigger	0
▁experiencing	0
▁robot	0
▁lasting	0
▁roman	0
▁delta	0
▁accepting	0
▁balanced	0
▁billy	0
▁applicants	0
▁easter	0
▁forgotten	0
▁indicates	0
▁ip	0
▁safely	0
▁stored	0
▁technique	0
▁runners	0
▁puerto	0
▁sentiment	0
▁earthquake	0
▁instructions	0
▁occasionally	0
▁meter	0
▁advisor	0
▁impression	0
▁locals	0
▁displayed	0
▁blast	0
▁divorce	0
▁crack	0
▁produces	0
▁showcase	0
▁rogers	0
▁plug	0
▁malaysia	0
▁affair	0
▁economists	0
▁conviction	0
▁dependent	0
▁lakes	0
▁lifted	0
▁ma	0
▁invasion	0
▁scrutiny	0
▁applying	0
▁crashed	0
▁clash	0
▁harvey	0
▁brussels	0
▁infection	0
▁terminal	0
▁lanes	0
▁rhetoric	0
▁ski	0
▁directions	0
▁bulk	0
▁sponsor	0
▁languages	0
▁speeds	0
▁discipline	0
▁populations	0
▁pilots	0
▁rodriguez	0
▁midfielder	0
▁shower	0
▁devoted	0
▁criteria	0
▁shortage	0
▁origin	0
▁margins	0
▁diesel	0
▁alike	0
▁tourist	0
▁exclusively	0
▁disappointing	0
▁laugh	0
▁excellence	0
▁copyright	0
▁neighbor	0
▁hook	0
▁offshore	0
▁metropolitan	0
▁naval	0
▁briefly	0
▁traders	0
▁bass	0
▁futures	0
▁fla	0
▁permits	0
▁ventures	0
▁releasing	0
▁define	0
▁mst	0
▁sole	0
▁burns	0
▁statewide	0
▁shame	0
▁governing	0
▁enables	0
▁politician	0
▁icon	0
▁spotlight	0
▁favour	0
▁knocked	0
▁criminals	0
▁appearing	0
▁salaries	0
▁organised	0
▁mason	0
▁homeowners	0
▁zones	0
▁safer	0
▁reflected	0
▁worthy	0
▁pursuing	0
▁mechanism	0
▁notably	0
▁wrapped	0
▁converted	0
▁plea	0
▁oppose	0
▁lined	0
▁connecting	0
▁affects	0
▁linux	0
▁opt	0
▁publisher	0
▁graduates	0
▁disabilities	0
▁anna	0
▁inspection	0
▁influential	0
▁dirty	0
▁resignation	0
▁urging	0
▁commissioners	0
▁cst	0
▁investigated	0
▁nervous	0
▁knight	0
▁traditionally	0
▁median	0
▁difficulty	0
▁educated	0
▁assured	0
▁lovely	0
▁designers	0
▁transform	0
▁indication	0
▁preventing	0
▁slot	0
▁organizers	0
▁enemies	0
▁revolutionary	0
▁columbus	0
▁mar	0
▁comply	0
▁conflicts	0
▁shake	0
▁jacob	0
▁offset	0
▁bull	0
▁indoor	0
▁technological	0
▁formation	0
▁mills	0
▁creator	0
▁defended	0
▁emotions	0
▁affecting	0
▁oracle	0
▁beta	0
▁delegation	0
▁pregnancy	0
▁instruments	0
▁dame	0
▁nose	0
▁weird	0
▁dear	0
▁negotiate	0
▁printed	0
▁impose	0
▁implementing	0
▁mandatory	0
▁wet	0
▁arriving	0
▁chairs	0
▁yankees	0
▁alternatives	0
▁trash	0
▁rev	0
▁hunger	0
▁contrary	0
▁disclosed	0
▁environments	0
▁drilling	0
▁arrests	0
▁certificate	0
▁pr	0
▁cargo	0
▁pitcher	0
▁spectacular	0
▁touched	0
▁sizes	0
▁classified	0
▁reed	0
▁athlete	0
▁respected	0
▁punishment	0
▁finale	0
▁errors	0
▁passionate	0
▁acted	0
▁delivers	0
▁panthers	0
▁horses	0
▁representation	0
▁neutral	0
▁valid	0
▁immune	0
▁inspector	0
▁villages	0
▁unfair	0
▁bridges	0
▁examination	0
▁yoga	0
▁centres	0
▁disability	0
▁commonly	0
▁alarm	0
▁grabbed	0
▁beliefs	0
▁travelers	0
▁equality	0
▁establishing	0
▁honors	0
▁accommodate	0
▁confirmation	0
▁cafe	0
▁bat	0
▁averaged	0
▁juice	0
▁correspondent	0
▁urgent	0
▁suggestions	0
▁grey	0
▁treating	0
▁frustrated	0
▁accomplished	0
▁teenager	0
▁kit	0
▁headline	0
▁butler	0
▁divide	0
▁suppliers	0
▁trio	0
▁climb	0
▁publishers	0
▁sleeping	0
▁achieving	0
▁farmer	0
▁pen	0
▁dealt	0
▁rugby	0
▁demonstration	0
▁placing	0
▁viral	0
▁shoppers	0
▁courtesy	0
▁delaware	0
▁barrier	0
▁blocking	0
▁acceptable	0
▁formally	0
▁costly	0
▁remembered	0
▁cinema	0
▁graduation	0
▁log	0
▁vocal	0
▁pastor	0
▁wisdom	0
▁lynch	0
▁brooks	0
▁phenomenon	0
▁tuition	0
▁isolated	0
▁incumbent	0
▁intelligent	0
▁centuries	0
▁laden	0
▁irs	0
▁hudson	0
▁stakes	0
▁entities	0
▁habits	0
▁frustration	0
▁socialist	0
▁aids	0
▁pets	0
▁cardinals	0
▁skilled	0
▁robin	0
▁felony	0
▁deciding	0
▁cry	0
▁excitement	0
▁ecosystem	0
▁transmission	0
▁printing	0
▁ph	0
▁reminder	0
▁ranch	0
▁subsequently	0
▁identifying	0
▁plaza	0
▁photographer	0
▁recommendation	0
▁tier	0
▁appealing	0
▁hopeful	0
▁painful	0
▁casual	0
▁breath	0
▁flew	0
▁fits	0
▁op	0
▁guided	0
▁perceived	0
▁curious	0
▁coup	0
▁perception	0
▁gps	0
▁acknowledge	0
▁nutrition	0
▁torture	0
▁fossil	0
▁litigation	0
▁joins	0
▁marc	0
▁occasions	0
▁liberals	0
▁hearings	0
▁photography	0
▁styles	0
▁johnny	0
▁hence	0
▁deserves	0
▁romantic	0
▁slated	0
▁riders	0
▁meantime	0
▁negotiating	0
▁donate	0
▁licensing	0
▁vaccine	0
▁logo	0
▁messaging	0
▁vendor	0
▁vary	0
▁tension	0
▁consent	0
▁bennett	0
▁contacts	0
▁dubbed	0
▁uniform	0
▁institutional	0
▁incentive	0
▁toy	0
▁lightning	0
▁budgets	0
▁founders	0
▁difficulties	0
▁pepper	0
▁rapper	0
▁accountable	0
▁rams	0
▁census	0
▁psychological	0
▁quest	0
▁linebacker	0
▁quote	0
▁import	0
▁artistic	0
▁tragic	0
▁questioning	0
▁logistics	0
▁sue	0
▁steam	0
▁autonomous	0
▁adjust	0
▁mobility	0
▁declining	0
▁drones	0
▁accusations	0
▁automotive	0
▁fare	0
▁demonstrations	0
▁kills	0
▁carpet	0
▁wound	0
▁bombs	0
▁profitable	0
▁oxford	0
▁suspicious	0
▁evaluate	0
▁stakeholders	0
▁resolved	0
▁catching	0
▁sensors	0
▁sequel	0
▁branches	0
▁dairy	0
▁emerge	0
▁chuck	0
▁authorized	0
▁greenhouse	0
▁shifting	0
▁receives	0
▁identification	0
▁attendees	0
▁inevitable	0
▁partially	0
▁xi	0
▁boats	0
▁flames	0
▁grandmother	0
▁observers	0
▁monster	0
▁strict	0
▁boyfriend	0
▁crowds	0
▁karen	0
▁confusion	0
▁lone	0
▁risen	0
▁gradually	0
▁manning	0
▁boulevard	0
▁bias	0
▁throws	0
▁enabling	0
▁fred	0
▁brutal	0
▁phrase	0
▁interaction	0
▁peninsula	0
▁damages	0
▁angel	0
▁enrollment	0
▁micro	0
▁liability	0
▁doubles	0
▁fool	0
▁programmes	0
▁trails	0
▁stepping	0
▁horizon	0
▁connectivity	0
▁carl	0
▁con	0
▁piano	0
▁describing	0
▁openly	0
▁verdict	0
▁hackers	0
▁robbery	0
▁counting	0
▁friendship	0
▁subsidies	0
▁nurses	0
▁admits	0
▁educators	0
▁courage	0
▁password	0
▁leather	0
▁wishes	0
▁oriented	0
▁tear	0
▁rockets	0
▁sustainability	0
▁precious	0
▁violated	0
▁assumed	0
▁temporarily	0
▁remind	0
▁tackles	0
▁virgin	0
▁exceptional	0
▁understands	0
▁inclusion	0
▁convenience	0
▁assuming	0
▁relating	0
▁viable	0
▁trusted	0
▁restricted	0
▁troubled	0
▁inmates	0
▁rome	0
▁rankings	0
▁span	0
▁folk	0
▁realistic	0
▁booked	0
▁supportive	0
▁privately	0
▁sponsors	0
▁conversion	0
▁transparent	0
▁rocky	0
▁obligations	0
▁delicious	0
▁blake	0
▁ers	0
▁committees	0
▁precisely	0
▁drag	0
▁zoo	0
▁hungry	0
▁spreading	0
▁storms	0
▁intensive	0
▁euros	0
▁grove	0
▁completing	0
▁posed	0
▁landmark	0
▁fa	0
▁fisher	0
▁mixture	0
▁basement	0
▁travelling	0
▁separated	0
▁grades	0
▁bobby	0
▁inspire	0
▁internationally	0
▁console	0
▁convenient	0
▁pursuit	0
▁opposing	0
▁creativity	0
▁sacrifice	0
▁wrestling	0
▁slight	0
▁generating	0
▁animated	0
▁russians	0
▁lawsuits	0
▁shirts	0
▁repairs	0
▁publish	0
▁judiciary	0
▁introducing	0
▁comeback	0
▁bacteria	0
▁interference	0
▁architect	0
▁explosive	0
▁tropical	0
▁walter	0
▁ear	0
▁princess	0
▁villa	0
▁continent	0
▁physician	0
▁uncle	0
▁pledge	0
▁anchor	0
▁sterling	0
▁teeth	0
▁sadly	0
▁propaganda	0
▁certification	0
▁detective	0
▁comics	0
▁drops	0
▁dvd	0
▁bipartisan	0
▁lens	0
▁furthermore	0
▁farming	0
▁reminded	0
▁simultaneously	0
▁harsh	0
▁salad	0
▁beneath	0
▁countless	0
▁partisan	0
▁seal	0
▁collision	0
▁interact	0
▁patch	0
▁ladies	0
▁lion	0
▁justify	0
▁entertaining	0
▁oliver	0
▁manual	0
▁ambulance	0
▁rolls	0
▁spa	0
▁excessive	0
▁loyal	0
▁cotton	0
▁revised	0
▁fails	0
▁matching	0
▁suspicion	0
▁refer	0
▁biological	0
▁flavor	0
▁inform	0
▁genre	0
▁bottles	0
▁trauma	0
▁briefing	0
▁harper	0
▁nationals	0
▁da	0
▁memo	0
▁physics	0
▁cox	0
▁angle	0
▁aftermath	0
▁diagnosis	0
▁israelis	0
▁wooden	0
▁interstate	0
▁lenders	0
▁physicians	0
▁loyalty	0
▁approaching	0
▁refuse	0
▁symbol	0
▁ballots	0
▁collapsed	0
▁fiber	0
▁excuse	0
▁rocks	0
▁colleague	0
▁benchmark	0
▁sa	0
▁twist	0
▁malware	0
▁altogether	0
▁reserved	0
▁pitched	0
▁satisfied	0
▁prevented	0
▁colour	0
▁thirty	0
▁retire	0
▁automated	0
▁effectiveness	0
▁entity	0
▁herald	0
▁boundaries	0
▁battles	0
▁solely	0
▁manages	0
▁logic	0
▁subsidiary	0
▁crops	0
▁holder	0
▁pie	0
▁warnings	0
▁canceled	0
▁cd	0
▁halt	0
▁unlimited	0
▁supervisor	0
▁ankle	0
▁invite	0
▁protocol	0
▁celebrities	0
▁trapped	0
▁heated	0
▁facilitate	0
▁quietly	0
▁restored	0
▁appliances	0
▁lawn	0
▁pressing	0
▁spy	0
▁possibilities	0
▁feeding	0
▁highs	0
▁sooner	0
▁poetry	0
▁consists	0
▁minded	0
▁congressman	0
▁exchanges	0
▁cops	0
▁airports	0
▁urge	0
▁commentary	0
▁slip	0
▁distinct	0
▁intersection	0
▁caps	0
▁mouse	0
▁unified	0
▁sierra	0
▁detect	0
▁recycling	0
▁delighted	0
▁taxpayer	0
▁objectives	0
▁musician	0
▁advances	0
▁ton	0
▁cowboys	0
▁pork	0
▁arrangement	0
▁couples	0
▁stupid	0
▁strongest	0
▁candy	0
▁convert	0
▁appreciation	0
▁parish	0
▁cancelled	0
▁withdraw	0
▁corrupt	0
▁boasts	0
▁flows	0
▁hr	0
▁inter	0
▁debris	0
▁hiv	0
▁finances	0
▁regarded	0
▁financially	0
▁hispanic	0
▁lakh	0
▁amnesty	0
▁impacted	0
▁accidents	0
▁arguably	0
▁triggered	0
▁nonetheless	0
▁breathing	0
▁constructed	0
▁replied	0
▁dig	0
▁structural	0
▁insists	0
▁sprint	0
▁wrap	0
▁recreational	0
▁halftime	0
▁shooter	0
▁raiders	0
▁strain	0
▁recruitment	0
▁kicks	0
▁recruit	0
▁commitments	0
▁bubble	0
▁endless	0
▁restoration	0
▁wheels	0
▁nhs	0
▁aboard	0
▁rico	0
▁comparable	0
▁concepts	0
▁flip	0
▁leaked	0
▁hedge	0
▁vr	0
▁performers	0
▁suburban	0
▁albums	0
▁editors	0
▁evident	0
▁influenced	0
▁warehouse	0
▁ridiculous	0
▁dam	0
▁petroleum	0
▁pub	0
▁raid	0
▁sued	0
▁grows	0
▁motors	0
▁swept	0
▁rewards	0
▁happiness	0
▁jumping	0
▁boot	0
▁knock	0
▁suitable	0
▁commonwealth	0
▁solidarity	0
▁sensor	0
▁rides	0
▁ought	0
▁fcc	0
▁tender	0
▁occurs	0
▁podcast	0
▁baptist	0
▁outreach	0
▁lengthy	0
▁obligation	0
▁satisfaction	0
▁chapel	0
▁examined	0
▁grandfather	0
▁themes	0
▁radiation	0
▁fines	0
▁spencer	0
▁barrels	0
▁worries	0
▁panic	0
▁draws	0
▁pac	0
▁stark	0
▁hometown	0
▁extending	0
▁defendants	0
▁exercises	0
▁waited	0
▁conscious	0
▁harvest	0
▁lottery	0
▁flagship	0
▁unnecessary	0
▁npr	0
▁territories	0
▁filming	0
▁fingers	0
▁brazilian	0
▁mo	0
▁climbed	0
▁enthusiasm	0
▁oven	0
▁labs	0
▁robots	0
▁seasonal	0
▁heels	0
▁instruction	0
▁fascinating	0
▁halloween	0
▁condemned	0
▁shocking	0
▁cuban	0
▁boxing	0
▁eliminated	0
▁executed	0
▁acceptance	0
▁christie	0
▁hiding	0
▁shifts	0
▁youngest	0
▁rehabilitation	0
▁minimal	0
▁canyon	0
▁beaches	0
▁blend	0
▁fried	0
▁taxi	0
▁credibility	0
▁tunnel	0
▁schemes	0
▁abilities	0
▁relation	0
▁sellers	0
▁pleasure	0
▁applies	0
▁entrepreneur	0
▁sharply	0
▁tide	0
▁spell	0
▁tanks	0
▁deposit	0
▁marie	0
▁outbreak	0
▁disappeared	0
▁derby	0
▁pitching	0
▁teenage	0
▁instances	0
▁crowded	0
▁deer	0
▁confused	0
▁shootings	0
▁victories	0
▁burger	0
▁dj	0
▁businessman	0
▁pump	0
▁bones	0
▁intends	0
▁considers	0
▁testified	0
▁ps	0
▁shifted	0
▁suits	0
▁container	0
▁batteries	0
▁vowed	0
▁outfit	0
▁grill	0
▁weakness	0
▁significance	0
▁nazi	0
▁paintings	0
▁angels	0
▁volumes	0
▁graphic	0
▁casting	0
▁soup	0
▁pray	0
▁infected	0
▁pleasant	0
▁copper	0
▁accuracy	0
▁counterparts	0
▁charts	0
▁telecom	0
▁pressed	0
▁grave	0
▁ukrainian	0
▁pole	0
▁spider	0
▁gasoline	0
▁renowned	0
▁spare	0
▁inn	0
▁lately	0
▁sweeping	0
▁mate	0
▁chemistry	0
▁inclusive	0
▁sunny	0
▁inequality	0
▁transformed	0
▁bullet	0
▁preview	0
▁wade	0
▁mosque	0
▁holders	0
▁specialty	0
▁damaging	0
▁protections	0
▁repeal	0
▁orbit	0
▁humor	0
▁frequency	0
▁bite	0
▁revealing	0
▁qualifying	0
▁recommends	0
▁documented	0
▁partial	0
▁peoples	0
▁honestly	0
▁bailey	0
▁secrets	0
▁arrives	0
▁caring	0
▁sgt	0
▁buzz	0
▁advertisers	0
▁consultation	0
▁willingness	0
▁dealers	0
▁scared	0
▁broadcasting	0
▁teenagers	0
▁calories	0
▁scholars	0
▁wow	0
▁privilege	0
▁outlet	0
▁drafted	0
▁emma	0
▁delegates	0
▁advisers	0
▁ethical	0
▁wherever	0
▁heating	0
▁critic	0
▁stole	0
▁permitted	0
▁classical	0
▁exam	0
▁attributed	0
▁intensity	0
▁blockchain	0
▁memorable	0
▁tribal	0
▁dolphins	0
▁pin	0
▁bitter	0
▁shield	0
▁mature	0
▁divisions	0
▁pcs	0
▁surveys	0
▁acquisitions	0
▁achievements	0
▁hart	0
▁stimulus	0
▁beneficial	0
▁commodity	0
▁voluntary	0
▁compact	0
▁pharmaceutical	0
▁cisco	0
▁disclose	0
▁controlling	0
▁pit	0
▁arctic	0
▁endorsed	0
▁venues	0
▁fabric	0
▁editing	0
▁laser	0
▁stays	0
▁shy	0
▁sharon	0
▁echo	0
▁torn	0
▁sometime	0
▁murdered	0
▁flags	0
▁timely	0
▁photograph	0
▁upgrades	0
▁avoided	0
▁firearms	0
▁colonial	0
▁surveyed	0
▁yields	0
▁stealing	0
▁stating	0
▁spark	0
▁kent	0
▁prizes	0
▁backyard	0
▁vessel	0
▁continuous	0
▁figured	0
▁amenities	0
▁separation	0
▁proceed	0
▁basket	0
▁reply	0
▁scary	0
▁presumably	0
▁segments	0
▁hood	0
▁functionality	0
▁slate	0
▁autism	0
▁displaced	0
▁dynamics	0
▁automation	0
▁glory	0
▁norway	0
▁kurdish	0
▁reaches	0
▁albert	0
▁licenses	0
▁worn	0
▁dirt	0
▁lasted	0
▁chains	0
▁sends	0
▁polish	0
▁newcastle	0
▁ny	0
▁compound	0
▁turnout	0
▁punch	0
▁victor	0
▁battling	0
▁upside	0
▁adapt	0
▁advantages	0
▁organizing	0
▁reject	0
▁commons	0
▁thai	0
▁visitor	0
▁dot	0
▁opioid	0
▁billionaire	0
▁collections	0
▁themed	0
▁cooked	0
▁educate	0
▁griffin	0
▁gambling	0
▁evolved	0
▁brave	0
▁blackberry	0
▁presenting	0
▁pickup	0
▁functional	0
▁vikings	0
▁lobbying	0
▁swim	0
▁libraries	0
▁averaging	0
▁amongst	0
▁navigate	0
▁mounted	0
▁clay	0
▁vessels	0
▁alumni	0
▁freeze	0
▁starters	0
▁recalls	0
▁tenants	0
▁protective	0
▁minorities	0
▁reviewing	0
▁newer	0
▁olive	0
▁opted	0
▁securing	0
▁prayers	0
▁clouds	0
▁purple	0
▁navigation	0
▁devils	0
▁shuttle	0
▁detection	0
▁tissue	0
▁tends	0
▁holmes	0
▁mechanical	0
▁belong	0
▁ugly	0
▁curb	0
▁counted	0
▁cathedral	0
▁wwe	0
▁neighboring	0
▁ordinance	0
▁instrument	0
▁twins	0
▁technically	0
▁booth	0
▁blacks	0
▁whilst	0
▁summary	0
▁forecasts	0
▁unfortunate	0
▁ham	0
▁enrolled	0
▁insurers	0
▁worship	0
▁healing	0
▁cal	0
▁musk	0
▁pictured	0
▁beds	0
▁indictment	0
▁guides	0
▁thrilled	0
▁distant	0
▁disorders	0
▁collaborative	0
▁invitation	0
▁broker	0
▁separately	0
▁spends	0
▁broncos	0
▁recipes	0
▁reservations	0
▁seller	0
▁postseason	0
▁towers	0
▁trades	0
▁floating	0
▁chrome	0
▁workshops	0
▁belgium	0
▁pine	0
▁beans	0
▁cocaine	0
▁honour	0
▁biology	0
▁rebuild	0
▁poorly	0
▁reliance	0
▁adaptation	0
▁cybersecurity	0
▁matched	0
▁maintains	0
▁cure	0
▁accomplish	0
▁supporter	0
▁settlements	0
▁mentor	0
▁cabin	0
▁adjacent	0
▁suggestion	0
▁cope	0
▁midst	0
▁habitat	0
▁motivation	0
▁uncertain	0
▁syndrome	0
▁fold	0
▁shorter	0
▁profession	0
▁recipients	0
▁stir	0
▁portable	0
▁greens	0
▁glasses	0
▁integrate	0
▁pdf	0
▁react	0
▁geneva	0
▁flower	0
▁prestigious	0
▁productions	0
▁correctly	0
▁prep	0
▁bros	0
▁undermine	0
▁substitute	0
▁fortunately	0
▁chambers	0
▁inspiring	0
▁archives	0
▁rebound	0
▁debates	0
▁entries	0
▁jacket	0
▁yorkshire	0
▁climbing	0
▁nominations	0
▁modified	0
▁slipped	0
▁bend	0
▁blown	0
▁disagree	0
▁lounge	0
▁burst	0
▁au	0
▁logan	0
▁fuels	0
▁shanghai	0
▁defenders	0
▁predecessor	0
▁mysterious	0
▁bang	0
▁cop	0
▁stones	0
▁vintage	0
▁severely	0
▁pence	0
▁commissioned	0
▁pronounced	0
▁interactions	0
▁forthcoming	0
▁makeup	0
▁accounted	0
▁feared	0
▁decreased	0
▁literary	0
▁ears	0
▁slowing	0
▁killings	0
▁overhaul	0
▁mi	0
▁procurement	0
▁borough	0
▁refusing	0
▁portrait	0
▁batman	0
▁carol	0
▁embedded	0
▁hi	0
▁cherry	0
▁fights	0
▁statue	0
▁fancy	0
▁suv	0
▁jam	0
▁caucus	0
▁pockets	0
▁cubs	0
▁probation	0
▁heaven	0
▁curry	0
▁anytime	0
▁specialized	0
▁teaches	0
▁prosperity	0
▁prospective	0
▁supposedly	0
▁parallel	0
▁concentration	0
▁vibrant	0
▁poster	0
▁concerts	0
▁firmly	0
▁rises	0
▁sake	0
▁vista	0
▁dose	0
▁batting	0
▁smell	0
▁stomach	0
▁knights	0
▁initiated	0
▁instantly	0
▁worlds	0
▁reactions	0
▁governors	0
▁imagination	0
▁il	0
▁publications	0
▁shaw	0
▁telecommunications	0
▁fruits	0
▁relay	0
▁avoiding	0
▁threaten	0
▁lung	0
▁honey	0
▁offseason	0
▁dated	0
▁sacred	0
▁streams	0
▁bluetooth	0
▁escaped	0
▁heroin	0
▁failures	0
▁levy	0
▁obesity	0
▁desired	0
▁donor	0
▁branded	0
▁encourages	0
▁metres	0
▁gorgeous	0
▁successor	0
▁investigative	0
▁charities	0
▁garbage	0
▁alien	0
▁boots	0
▁shah	0
▁mum	0
▁lakers	0
▁appointments	0
▁timeline	0
▁harmful	0
▁hostile	0
▁solving	0
▁authentic	0
▁hung	0
▁passport	0
▁experiments	0
▁parked	0
▁recovering	0
▁agrees	0
▁holocaust	0
▁accessories	0
▁rifle	0
▁millennials	0
▁salmon	0
▁deploy	0
▁potter	0
▁bronze	0
▁vacant	0
▁uncomfortable	0
▁jewelry	0
▁trek	0
▁brush	0
▁flynn	0
▁limiting	0
▁sink	0
▁cognitive	0
▁pipe	0
▁na	0
▁declare	0
▁stranger	0
▁cultures	0
▁aired	0
▁rings	0
▁spacecraft	0
▁dressing	0
▁outlined	0
▁aide	0
▁bucks	0
▁slower	0
▁emirates	0
▁shareholder	0
▁oxygen	0
▁misconduct	0
▁des	0
▁psychology	0
▁proportion	0
▁inaugural	0
▁bug	0
▁loop	0
▁occasional	0
▁mart	0
▁strengths	0
▁buttons	0
▁mega	0
▁weigh	0
▁banner	0
▁centered	0
▁leak	0
▁dental	0
▁bp	0
▁subtle	0
▁noble	0
▁islamist	0
▁sustain	0
▁rubber	0
▁refers	0
▁catches	0
▁medications	0
▁tommy	0
▁credible	0
▁ghost	0
▁limitations	0
▁leap	0
▁disputes	0
▁undergraduate	0
▁scan	0
▁references	0
▁organize	0
▁notified	0
▁interpretation	0
▁awful	0
▁wounds	0
▁tamil	0
▁favorites	0
▁competitor	0
▁locker	0
▁premises	0
▁demographic	0
▁imf	0
▁aiming	0
▁coordination	0
▁decides	0
▁bearing	0
▁trafficking	0
▁proposition	0
▁tougher	0
▁queens	0
▁fc	0
▁intentions	0
▁supplier	0
▁poised	0
▁existed	0
▁warfare	0
▁labels	0
▁shine	0
▁disruption	0
▁frankly	0
▁lemon	0
▁coat	0
▁experimental	0
▁spurs	0
▁enforce	0
▁grain	0
▁traditions	0
▁bulls	0
▁defendant	0
▁laundry	0
▁turnover	0
▁nsa	0
▁gaps	0
▁setup	0
▁aides	0
▁porter	0
▁reynolds	0
▁hacking	0
▁latino	0
▁dangers	0
▁disappointment	0
▁proving	0
▁corners	0
▁launches	0
▁borrowing	0
▁cm	0
▁builds	0
▁stuart	0
▁brewing	0
▁pirates	0
▁caution	0
▁specialists	0
▁cancel	0
▁correction	0
▁anthem	0
▁arranged	0
▁lyrics	0
▁lean	0
▁hawks	0
▁strictly	0
▁intend	0
▁accelerate	0
▁optimism	0
▁strengthening	0
▁valuation	0
▁precise	0
▁cousin	0
▁ipo	0
▁circles	0
▁upgraded	0
▁clarity	0
▁newton	0
▁trans	0
▁dignity	0
▁complexity	0
▁milestone	0
▁duck	0
▁eliminating	0
▁lacks	0
▁rod	0
▁travels	0
▁lovers	0
▁pioneer	0
▁romance	0
▁se	0
▁payroll	0
▁processed	0
▁whites	0
▁reflection	0
▁weekends	0
▁spray	0
▁directing	0
▁hospitality	0
▁forming	0
▁norman	0
▁plates	0
▁colored	0
▁imported	0
▁td	0
▁cooling	0
▁appreciated	0
▁bloody	0
▁thoroughly	0
▁lacking	0
▁controller	0
▁lit	0
▁destinations	0
▁vulnerability	0
▁capitalism	0
▁maritime	0
▁substantially	0
▁tolerance	0
▁sentences	0
▁joshua	0
▁sheets	0
▁curve	0
▁packaging	0
▁breakthrough	0
▁bacon	0
▁charitable	0
▁arc	0
▁wondered	0
▁searches	0
▁codes	0
▁routinely	0
▁talents	0
▁clinics	0
▁horrible	0
▁sharks	0
▁premiums	0
▁ash	0
▁incoming	0
▁mentally	0
▁clerk	0
▁sunshine	0
▁detectives	0
▁occupy	0
▁pants	0
▁marking	0
▁footed	0
▁resign	0
▁goalkeeper	0
▁layers	0
▁jesse	0
▁dragon	0
▁drill	0
▁gospel	0
▁affiliated	0
▁intimate	0
▁steep	0
▁acid	0
▁seekers	0
▁prof	0
▁sunni	0
▁leaf	0
▁fifty	0
▁digit	0
▁gibson	0
▁lifting	0
▁closet	0
▁militant	0
▁elaborate	0
▁complain	0
▁yale	0
▁sandwich	0
▁kg	0
▁steering	0
▁arnold	0
▁wines	0
▁retreat	0
▁outrage	0
▁obstacles	0
▁ac	0
▁deposits	0
▁casualties	0
▁clever	0
▁sheer	0
▁aluminum	0
▁queensland	0
▁commented	0
▁trainer	0
▁spike	0
▁conferences	0
▁violating	0
▁embraced	0
▁northwestern	0
▁preseason	0
▁tab	0
▁mild	0
▁performs	0
▁cigarettes	0
▁reluctant	0
▁ralph	0
▁hurricanes	0
▁welcoming	0
▁wellness	0
▁theories	0
▁compiled	0
▁resolutions	0
▁bikes	0
▁positioned	0
▁succeeded	0
▁enjoys	0
▁chile	0
▁betting	0
▁accordance	0
▁penny	0
▁workout	0
▁shipped	0
▁hello	0
▁valentine	0
▁autumn	0
▁calculated	0
▁sanctuary	0
▁creators	0
▁drunk	0
▁rt	0
▁transported	0
▁ramp	0
▁sovereignty	0
▁staged	0
▁forests	0
▁pupils	0
▁massacre	0
▁pressures	0
▁thereby	0
▁kashmir	0
▁colorful	0
▁threshold	0
▁alice	0
▁fever	0
▁containers	0
▁poses	0
▁elevated	0
▁oral	0
▁patience	0
▁resist	0
▁trim	0
▁siblings	0
▁conceded	0
▁switched	0
▁dive	0
▁exceed	0
▁beast	0
▁sunset	0
▁accommodation	0
▁conclude	0
▁credited	0
▁favorable	0
▁fundraiser	0
▁slam	0
▁tops	0
▁beats	0
▁sheffield	0
▁profound	0
▁fierce	0
▁kicking	0
▁planted	0
▁dedication	0
▁retiring	0
▁gateway	0
▁steadily	0
▁drake	0
▁discounts	0
▁unacceptable	0
▁alter	0
▁scratch	0
▁sequence	0
▁paradise	0
▁potatoes	0
▁celebrations	0
▁coleman	0
▁coupled	0
▁doubts	0
▁frustrating	0
▁disturbing	0
▁advisors	0
▁comedian	0
▁downs	0
▁treats	0
▁vertical	0
▁mediterranean	0
▁resistant	0
▁risky	0
▁holland	0
▁li	0
▁railroad	0
▁characteristics	0
▁jamaica	0
▁athletics	0
▁magnitude	0
▁classrooms	0
▁portal	0
▁indicating	0
▁tonnes	0
▁filmed	0
▁expressing	0
▁spacious	0
▁costume	0
▁cattle	0
▁nominees	0
▁swedish	0
▁riley	0
▁tel	0
▁booking	0
▁consuming	0
▁mercury	0
▁identical	0
▁ace	0
▁bilateral	0
▁cliff	0
▁demo	0
▁sentencing	0
▁ing	0
▁fortunate	0
▁placement	0
▁epidemic	0
▁architects	0
▁sounded	0
▁albeit	0
▁filmmaker	0
▁canal	0
▁bowling	0
▁insist	0
▁ideology	0
▁emphasized	0
▁amd	0
▁columnist	0
▁lesser	0
▁iot	0
▁gig	0
▁symphony	0
▁baking	0
▁habit	0
▁subway	0
▁belongs	0
▁bits	0
▁factories	0
▁employ	0
▁palmer	0
▁cookies	0
▁spill	0
▁accusing	0
▁regret	0
▁recipient	0
▁ins	0
▁avengers	0
▁determining	0
▁likelihood	0
▁canadians	0
▁bloc	0
▁bulldogs	0
▁du	0
▁secular	0
▁motorcycle	0
▁takeover	0
▁anonymity	0
▁crying	0
▁powder	0
▁basin	0
▁publicity	0
▁blaze	0
▁predictions	0
▁clashes	0
▁dealer	0
▁fueled	0
▁inappropriate	0
▁genius	0
▁laying	0
▁thrive	0
▁awaiting	0
▁visibility	0
▁cute	0
▁sticking	0
▁applicable	0
▁kilometers	0
▁distinguished	0
▁distribute	0
▁recognised	0
▁profiles	0
▁grammy	0
▁apology	0
▁assessments	0
▁drain	0
▁leaning	0
▁fitting	0
▁twelve	0
▁composed	0
▁corridor	0
▁analyze	0
▁tribe	0
▁dip	0
▁pad	0
▁functioning	0
▁negotiated	0
▁jokes	0
▁rallied	0
▁credentials	0
▁wheat	0
▁signatures	0
▁acute	0
▁sealed	0
▁blessed	0
▁preservation	0
▁showers	0
▁amendments	0
▁homer	0
▁teammate	0
▁confidential	0
▁bicycle	0
▁sovereign	0
▁randy	0
▁seating	0
▁specializes	0
▁instructor	0
▁usd	0
▁affiliate	0
▁reconciliation	0
▁burial	0
▁ebay	0
▁endorsement	0
▁lodge	0
▁morrison	0
▁shoulders	0
▁laptops	0
▁nightmare	0
▁clearing	0
▁mechanisms	0
▁bizarre	0
▁facial	0
▁edited	0
▁barr	0
▁counseling	0
▁reflecting	0
▁distinction	0
▁relying	0
▁homicide	0
▁mines	0
▁observer	0
▁amateur	0
▁conclusions	0
▁catherine	0
▁patio	0
▁allied	0
▁glimpse	0
▁shelf	0
▁speeches	0
▁cardinal	0
▁rescued	0
▁nerve	0
▁assignment	0
▁emotion	0
▁suited	0
▁deliberately	0
▁bullying	0
▁incorporated	0
▁volatility	0
▁lucrative	0
▁switching	0
▁cease	0
▁expectation	0
▁desperately	0
▁billboard	0
▁merit	0
▁keeper	0
▁slim	0
▁evolving	0
▁prompting	0
▁relies	0
▁absent	0
▁appealed	0
▁performer	0
▁transfers	0
▁dodgers	0
▁namely	0
▁magazines	0
▁monroe	0
▁prohibited	0
▁slowed	0
▁beings	0
▁iv	0
▁remembers	0
▁misleading	0
▁critically	0
▁infections	0
▁nobel	0
▁julia	0
▁crackdown	0
▁hardest	0
▁fireworks	0
▁whoever	0
▁tent	0
▁footprint	0
▁warn	0
▁advancing	0
▁incomes	0
▁campaigning	0
▁supplied	0
▁measuring	0
▁cycling	0
▁likewise	0
▁pond	0
▁maple	0
▁liver	0
▁weighed	0
▁pearl	0
▁quotes	0
▁jong	0
▁suburbs	0
▁animation	0
▁relate	0
▁liberation	0
▁sweep	0
▁magical	0
▁exploit	0
▁outright	0
▁granite	0
▁clearance	0
▁atop	0
▁vitamin	0
▁mercy	0
▁cocktail	0
▁bounce	0
▁alto	0
▁essence	0
▁verify	0
▁clause	0
▁trace	0
▁shoe	0
▁pile	0
▁restructuring	0
▁flowing	0
▁skip	0
▁lecture	0
▁rotation	0
▁accordingly	0
▁fined	0
▁documentation	0
▁grams	0
▁wired	0
▁auburn	0
▁denial	0
▁surplus	0
▁spirits	0
▁innovations	0
▁pedestrian	0
▁monument	0
▁lap	0
▁diplomats	0
▁denying	0
▁relax	0
▁chad	0
▁handy	0
▁ge	0
▁compatible	0
▁treasure	0
▁resorts	0
▁di	0
▁gravity	0
▁aggressively	0
▁jurisdiction	0
▁broadly	0
▁wolves	0
▁provinces	0
▁revival	0
▁trustees	0
▁slice	0
▁economically	0
▁ipod	0
▁shelves	0
▁disposal	0
▁paths	0
▁quantum	0
▁accord	0
▁nuts	0
▁touring	0
▁motorists	0
▁inability	0
▁permanently	0
▁attitudes	0
▁rays	0
▁ensemble	0
▁endangered	0
▁beverage	0
▁cave	0
▁freely	0
▁reds	0
▁scenarios	0
▁cares	0
▁gore	0
▁regulate	0
▁shelters	0
▁dominate	0
▁thriller	0
▁incorporate	0
▁haul	0
▁dividends	0
▁marco	0
▁forty	0
▁caf	0
▁triumph	0
▁unidentified	0
▁semester	0
▁olds	0
▁competitions	0
▁breakdown	0
▁blew	0
▁licence	0
▁genes	0
▁preference	0
▁undocumented	0
▁consultants	0
▁er	0
▁contributor	0
▁earliest	0
▁florence	0
▁attraction	0
▁ballet	0
▁ga	0
▁muscles	0
▁priest	0
▁cautious	0
▁installing	0
▁cups	0
▁jailed	0
▁monitors	0
▁skies	0
▁elegant	0
▁dash	0
▁yours	0
▁independently	0
▁silly	0
▁buck	0
▁creatures	0
▁mitch	0
▁titans	0
▁rap	0
▁backlash	0
▁considerably	0
▁ag	0
▁flooring	0
▁disasters	0
▁designing	0
▁compromised	0
▁adventures	0
▁deserved	0
▁flavors	0
▁partnered	0
▁undoubtedly	0
▁healthier	0
▁issuing	0
▁pour	0
▁practically	0
▁seafood	0
▁brotherhood	0
▁scam	0
▁marines	0
▁chasing	0
▁attracting	0
▁detected	0
▁filter	0
▁differ	0
▁wholesale	0
▁browns	0
▁translate	0
▁gallon	0
▁ruth	0
▁fleeing	0
▁header	0
▁phd	0
▁regulated	0
▁goodman	0
▁falcons	0
▁tomatoes	0
▁adobe	0
▁ounce	0
▁grip	0
▁lieutenant	0
▁thanked	0
▁lighter	0
▁ferry	0
▁stack	0
▁constituency	0
▁imaging	0
▁orthodox	0
▁kidney	0
▁regulator	0
▁destroying	0
▁coordinated	0
▁density	0
▁mon	0
▁baked	0
▁lebanese	0
▁mice	0
▁outdoors	0
▁owen	0
▁fm	0
▁mask	0
▁notification	0
▁projections	0
▁abuses	0
▁weighing	0
▁sacks	0
▁masses	0
▁oversee	0
▁debuted	0
▁shark	0
▁tory	0
▁tracked	0
▁trinity	0
▁adapted	0
▁aerial	0
▁trademark	0
▁sq	0
▁persistent	0
▁hitter	0
▁boring	0
▁campuses	0
▁demonstrates	0
▁ambitions	0
▁starred	0
▁afterwards	0
▁boycott	0
▁processors	0
▁mounting	0
▁bruins	0
▁apr	0
▁muhammad	0
▁ducks	0
▁accurately	0
▁questionable	0
▁backgrounds	0
▁companion	0
▁bankers	0
▁nationalist	0
▁bosses	0
▁skeptical	0
▁toilet	0
▁attractions	0
▁noah	0
▁poet	0
▁consume	0
▁efficiently	0
▁surviving	0
▁seeded	0
▁guarantees	0
▁associations	0
▁touches	0
▁convincing	0
▁bristol	0
▁needing	0
▁reduces	0
▁admissions	0
▁consumed	0
▁sachs	0
▁justified	0
▁professors	0
▁ordering	0
▁voiced	0
▁supermarket	0
▁frontier	0
▁runway	0
▁comparing	0
▁dioxide	0
▁celtic	0
▁manufactured	0
▁garlic	0
▁scholarships	0
▁qualities	0
▁prisons	0
▁superstar	0
▁geographic	0
▁contracting	0
▁elder	0
▁soap	0
▁essay	0
▁combining	0
▁ar	0
▁bargain	0
▁cousins	0
▁infamous	0
▁laughing	0
▁pitches	0
▁bidding	0
▁continental	0
▁committing	0
▁bare	0
▁rim	0
▁backdrop	0
▁renewal	0
▁bee	0
▁believing	0
▁governmental	0
▁execute	0
▁culinary	0
▁potato	0
▁varied	0
▁texts	0
▁veto	0
▁inevitably	0
▁acclaimed	0
▁grief	0
▁thread	0
▁trap	0
▁matchup	0
▁bids	0
▁migrant	0
▁presentations	0
▁cooler	0
▁quo	0
▁nigerian	0
▁infant	0
▁hatred	0
▁finest	0
▁tail	0
▁sang	0
▁lethal	0
▁fraction	0
▁niche	0
▁volatile	0
▁miracle	0
▁literacy	0
▁abandon	0
▁touching	0
▁belonging	0
▁malicious	0
▁assumption	0
▁medals	0
▁weaker	0
▁complications	0
▁col	0
▁attackers	0
▁fusion	0
▁ebola	0
▁searched	0
▁flooded	0
▁pointers	0
▁reminds	0
▁burke	0
▁outer	0
▁exterior	0
▁informal	0
▁liquor	0
▁aligned	0
▁outs	0
▁behavioral	0
▁patents	0
▁translation	0
▁precision	0
▁isolation	0
▁sticks	0
▁lender	0
▁em	0
▁nsw	0
▁ravens	0
▁organ	0
▁celebrates	0
▁crashes	0
▁zoning	0
▁observe	0
▁brains	0
▁blogs	0
▁awkward	0
▁diving	0
▁bailout	0
▁staffers	0
▁unemployed	0
▁pools	0
▁fashioned	0
▁pharmacy	0
▁prone	0
▁worrying	0
▁chefs	0
▁renovation	0
▁superhero	0
▁czech	0
▁pensions	0
▁highlighting	0
▁relied	0
▁proves	0
▁locate	0
▁afterward	0
▁clips	0
▁excluding	0
▁reductions	0
▁packers	0
▁situated	0
▁concessions	0
▁logical	0
▁survivor	0
▁kremlin	0
▁rallies	0
▁bump	0
▁conditioning	0
▁underneath	0
▁totals	0
▁mortgages	0
▁paramount	0
▁hint	0
▁cuisine	0
▁historian	0
▁fluid	0
▁advise	0
▁troy	0
▁lamb	0
▁ignoring	0
▁notorious	0
▁highways	0
▁realise	0
▁julian	0
▁revenge	0
▁assessed	0
▁listened	0
▁stamp	0
▁confrontation	0
▁northeastern	0
▁encryption	0
▁referee	0
▁overview	0
▁sf	0
▁cooperative	0
▁disputed	0
▁brent	0
▁juvenile	0
▁songwriter	0
▁darkness	0
▁scholar	0
▁berry	0
▁combines	0
▁metals	0
▁dock	0
▁ideological	0
▁architectural	0
▁loses	0
▁alternate	0
▁telegraph	0
▁idol	0
▁bathrooms	0
▁currencies	0
▁lightly	0
▁councils	0
▁observations	0
▁wallet	0
▁tile	0
▁societies	0
▁observation	0
▁academics	0
▁wildcats	0
▁thorough	0
▁thunder	0
▁festivals	0
▁fixing	0
▁blowing	0
▁helicopters	0
▁encountered	0
▁planting	0
▁firearm	0
▁explorer	0
▁caller	0
▁assembled	0
▁sin	0
▁reiterated	0
▁artwork	0
▁satellites	0
▁cluster	0
▁condo	0
▁sap	0
▁rabbi	0
▁portions	0
▁leagues	0
▁brewery	0
▁eligibility	0
▁enthusiastic	0
▁criticised	0
▁demonstrators	0
▁inviting	0
▁declines	0
▁foreigners	0
▁extends	0
▁riverside	0
▁adjustments	0
▁boulder	0
▁exploded	0
▁marketers	0
▁ira	0
▁eco	0
▁scattered	0
▁enacted	0
▁airways	0
▁compassion	0
▁norm	0
▁fireplace	0
▁premise	0
▁refusal	0
▁proprietary	0
▁dancers	0
▁pause	0
▁suppose	0
▁merchandise	0
▁shade	0
▁strategist	0
▁colts	0
▁consortium	0
▁tactical	0
▁confronted	0
▁debts	0
▁consequence	0
▁bolton	0
▁adverse	0
▁contents	0
▁employs	0
▁metrics	0
▁favored	0
▁mitt	0
▁unanimously	0
▁majors	0
▁slowdown	0
▁superb	0
▁regards	0
▁investigator	0
▁tuned	0
▁grandparents	0
▁commodities	0
▁lows	0
▁furious	0
▁humble	0
▁rage	0
▁graduating	0
▁crafted	0
▁overhead	0
▁qb	0
▁screaming	0
▁recognise	0
▁neo	0
▁windsor	0
▁eleven	0
▁panama	0
▁sussex	0
▁preferences	0
▁linking	0
▁abused	0
▁hack	0
▁ore	0
▁consciousness	0
▁java	0
▁grande	0
▁collectively	0
▁composer	0
▁readiness	0
▁steals	0
▁recruited	0
▁benefited	0
▁conjunction	0
▁capped	0
▁mvp	0
▁savvy	0
▁acquiring	0
▁profitability	0
▁nets	0
▁vegetable	0
▁examining	0
▁passwords	0
▁genocide	0
▁choir	0
▁spouse	0
▁handles	0
▁vp	0
▁expenditure	0
▁watches	0
▁gunman	0
▁evolve	0
▁paired	0
▁hitler	0
▁scout	0
▁bernard	0
▁imagined	0
▁tricky	0
▁watchdog	0
▁hammer	0
▁transgender	0
▁rounded	0
▁miners	0
▁foundations	0
▁lowered	0
▁bc	0
▁expose	0
▁leaks	0
▁ch	0
▁arabs	0
▁coral	0
▁indicators	0
▁beautifully	0
▁exempt	0
▁diplomacy	0
▁terrific	0
▁connects	0
▁slammed	0
▁nest	0
▁diana	0
▁austerity	0
▁slavery	0
▁rebuilding	0
▁teamed	0
▁derived	0
▁occurring	0
▁judging	0
▁reasonably	0
▁edges	0
▁algorithms	0
▁boosting	0
▁optional	0
▁constituents	0
▁fundamentally	0
▁optical	0
▁charm	0
▁counterpart	0
▁uncovered	0
▁hazard	0
▁reconstruction	0
▁policing	0
▁relaxed	0
▁alerts	0
▁blank	0
▁declaring	0
▁sheikh	0
▁ink	0
▁neighbours	0
▁ammunition	0
▁anticipate	0
▁defining	0
▁tribunal	0
▁famously	0
▁banning	0
▁timothy	0
▁translated	0
▁halfway	0
▁batch	0
▁origins	0
▁wasted	0
▁retained	0
▁sergeant	0
▁charleston	0
▁rogue	0
▁builders	0
▁surgical	0
▁ambition	0
▁nod	0
▁volleyball	0
▁toss	0
▁cellular	0
▁brokers	0
▁freezing	0
▁assassination	0
▁bow	0
▁mathematics	0
▁nail	0
▁finishes	0
▁freeman	0
▁bother	0
▁rhythm	0
▁pixel	0
▁indie	0
▁suites	0
▁fathers	0
▁terrain	0
▁remainder	0
▁laughs	0
▁feeds	0
▁anxious	0
▁unchanged	0
▁cult	0
▁jeans	0
▁inadequate	0
▁allocated	0
▁unite	0
▁hiking	0
▁dale	0
▁arabic	0
▁assumptions	0
▁replaces	0
▁beers	0
▁ours	0
▁heather	0
▁imminent	0
▁posters	0
▁beside	0
▁glen	0
▁complaining	0
▁integral	0
▁mg	0
▁murders	0
▁appetite	0
▁confront	0
▁postal	0
▁reliability	0
▁intact	0
▁confusing	0
▁etf	0
▁borrow	0
▁gesture	0
▁tube	0
▁yen	0
▁shipments	0
▁undergo	0
▁undergoing	0
▁cdc	0
▁cooperate	0
▁eventual	0
▁chargers	0
▁brigade	0
▁skype	0
▁snapped	0
▁spite	0
▁printer	0
▁challenger	0
▁boosted	0
▁tying	0
▁devastated	0
▁hikes	0
▁scouts	0
▁announcements	0
▁adopting	0
▁intriguing	0
▁tackling	0
▁supervision	0
▁wal	0
▁blessing	0
▁texans	0
▁recordings	0
▁hurdles	0
▁fy	0
▁composition	0
▁fulfill	0
[...]
